/**
  ******************************************************************************
  * @file    ann_762_data_params.c
  * @author  AST Embedded Analytics Research Platform
  * @date    Tue Feb  6 13:11:22 2024
  * @brief   AI Tool Automatic Code Generator for Embedded NN computing
  ******************************************************************************
  * Copyright (c) 2024 STMicroelectronics.
  * All rights reserved.
  *
  * This software is licensed under terms that can be found in the LICENSE file
  * in the root directory of this software component.
  * If no LICENSE file comes with this software, it is provided AS-IS.
  ******************************************************************************
  */

#include "ann_762_data_params.h"


/**  Activations Section  ****************************************************/
ai_handle g_ann_762_activations_table[1 + 2] = {
  AI_HANDLE_PTR(AI_MAGIC_MARKER),
  AI_HANDLE_PTR(NULL),
  AI_HANDLE_PTR(AI_MAGIC_MARKER),
};




/**  Weights Section  ********************************************************/
AI_ALIGNED(32)
const ai_u64 s_ann_762_weights_array_u64[102340] = {
  0x3e06f530bee53defU, 0x3f43dc84be6128b1U, 0xc032e438bef15649U, 0xc02ffe1bc031173eU,
  0xc02d17fec02e8b0dU, 0xc02a31e2c02c3992U, 0xc0274bc5c028bed3U, 0xc02465a8c025d8b7U,
  0xc0217f8bc022f29aU, 0xc01e996fc0200c7dU, 0xc01bbd59c01ce926U, 0xc018cd35c01a4044U,
  0xc0152d98c0177f92U, 0xc01300fcc014740aU, 0xc0101adfc0118dedU, 0xc00d3d21c00ea7d1U,
  0xc00a4ea5c00bc1b4U, 0xc0076889c008db97U, 0xc004826cc005f57aU, 0xc0020455c0030f5eU,
  0xbffd9893c000e5eeU, 0xbff7baadbffa69b2U, 0xbff1d3f2bff4ba0fU, 0xbfec07b8bfed9d78U,
  0xbfe52390bfe9219cU, 0xbfe06e9cbfe23658U, 0xbfd9818ebfde6238U, 0xbfd5b2c8bfd67be4U,
  0xbfcf52b4bfd17031U, 0xbfc95ef0bfcc3cc1U, 0xbfc2b3b6bfc5a5e9U, 0xbfbe4a4dbfc05db0U,
  0xbfb6fb0fbfbba273U, 0xbfb2c5c8bfb4d2f6U, 0xbface153bfb0bf76U, 0xbfa5d639bfa98c3eU,
  0xbfa05acebfa3e425U, 0xbf99c9bfbf9d9abaU, 0xbf95634fbf980042U, 0xbf8f852abf922069U,
  0xbf889c1cbf8c49e8U, 0xbf8311aabf860ee1U, 0xbf7c4fb0bf80791dU, 0xbf70c7afbf76e6a8U,
  0xbf6404bdbf6a1433U, 0xbf58b744bf5ec463U, 0xbf4e2a76bf53aabdU, 0xbf4148a8bf47c5baU,
  0xbf356151bf3adcedU, 0xbf2941ddbf2f0b89U, 0xbf1dd545bf2387a9U, 0xbf120902bf17b9fdU,
  0xbf06407ebf0c4d70U, 0xbef63e9abf00b161U, 0xbedf10a6beeaadb2U, 0xbec83e19bed3e41dU,
  0xbeb11177bebcb3e3U, 0xbe99f1cabea57934U, 0xbe82f32abe8e9245U, 0xbe57ce18be6ef3b7U,
  0xbe29a4e5be40a07aU, 0xbdf7ee6fbe12ca44U, 0xbd9c8f38bdca3e70U, 0xbd023c39bd5d11acU,
  0x3c530b34bc1aa758U, 0x3d6ace163d0f647bU, 0x3dd1437b3da354feU, 0x3e168e403dff42a3U,
  0x3e44c4ee3e2d9872U, 0x3e7268fb3e5b7575U, 0x3e903ec83e84b2a4U, 0x3ea7320b3e9ba32aU,
  0x3ebe47033eb2a5fdU, 0x3ed564e83ec9de5cU, 0x3eec49623ee0b5ddU, 0x3f01c5dd3ef7f146U,
  0x3f0d51783f0770cdU, 0x3f18cd793f12fc2aU, 0x3f24cd5a3f1e9888U, 0x3f30f5d83f2ae4baU,
  0x3f3cf1bc3f36f5cdU, 0x3f484bb73f42a039U, 0x3f5447fd3f4e9090U, 0x3f5f9e4e3f5a2c38U,
  0x3f6b23013f657b76U, 0x3f7664753f716304U, 0x3f8105963f7c5169U, 0x3f8724683f8405daU,
  0x3f8cfbb53f8a40a5U, 0x3f9266b23f8fdb02U, 0x3f987dcc3f956d4bU, 0x3f9df2223f9b799aU,
  0x3fa378b43fa0a935U, 0x3fa9aaf43fa678baU, 0x3faf31bc3facbcf6U, 0x3fb55ae13fb27f05U,
  0x3fbb22fd3fb85cbfU, 0x3fc07e673fbdd8e1U, 0x3fc61f5b3fc378c6U, 0x3fcd006f3fc98203U,
  0x3fd27cc53fd035d1U, 0x3fd7bb9c3fd4c9bdU, 0x3fdde94b3fdb1630U, 0x3fe40b4f3fe0e64cU,
  0x3fe8857d3fe68106U, 0x3fef64903fec453aU, 0x3ff511b23ff23ce6U, 0x3ffab7ed3ff85180U,
  0x40008b7f3ffe0aefU, 0x40039a3e4001ef88U, 0x4005f72e4004eeaeU, 0x4008c4ff4007b738U,
  0x400c093b400a67cdU, 0x400f7f2d400e3126U, 0x4011c85c4010554eU, 0x4014ae7940133b6bU,
  0x4016f19040162187U, 0x401a4ab340196024U, 0x401d4822401b4932U, 0x4020507a401ee98cU,
  0x40232d094021665fU, 0x4025699840246648U, 0x402976b540278634U, 0x402bffa5402a73c2U,
  0x402ec57c402d4a95U, 0x4031ab994030388aU, 0x403491b540331ea7U, 0x403825d0403604c4U,
  0x403a5def4038eae0U, 0x403d440c403bd0fdU, 0x6c73827d403e7786U, 0x817d766e6d7a7c7aU,
  0x6a6e757580808081U, 0x817f78836e757974U, 0x747771798074797eU, 0x869190928b7c8278U,
  0x777e8477747e7d7fU, 0x6b7275797b858c85U, 0x7277877d878b6d74U, 0x8483857c8878717aU,
  0x7c767c8488706f79U, 0x847978686d697c7aU, 0x8783867e75768079U, 0x6b777f7e6d8e8b8bU,
  0x8e8c8a7377769583U, 0x7d7c7c7a81729579U, 0x8171787b85766f86U, 0x6f7e6c6b7b787f77U,
  0x75706f7d786e7a88U, 0x7471837968658374U, 0x717f837f85819475U, 0x6f7b88727c87817aU,
  0x80877b848d7a7a79U, 0x7c7d80718a88837bU, 0x867c7e7a787c8789U, 0x75847663797a7982U,
  0x8d8386937c7b797eU, 0x7d797e6e73747488U, 0x75787c8a8a888677U, 0x8283776f8d8e8080U,
  0x6f8a7a8776747e7fU, 0x6a7b78797c7c7f78U, 0x84867f7a7e777a79U, 0x7b8083808372767cU,
  0x847d757d7e7c837dU, 0x6c747b7d81777675U, 0x7d80787c7b857c80U, 0x8778806f726c777fU,
  0x727d929c8979788aU, 0x817e7c7c7c80797bU, 0x678c866b8179737fU, 0x74808574727b7d86U,
  0x7a817d78847e707fU, 0x7a77886f78776886U, 0x79817c7a74796a76U, 0x81836c747073846fU,
  0x897c67707c81777cU, 0x7f777b7b767e7e85U, 0x766f7f836978737cU, 0x6f816d6372868178U,
  0x8e988e878386816cU, 0x7c7b73807b677d7aU, 0x7c7c7e918e6e727bU, 0x79847a6f777a8384U,
  0x837b80716e6c897eU, 0x7e8a768779867475U, 0x787c88766e6d7975U, 0x7e84717e7776757aU,
  0x75837b7e798f7276U, 0x6a7674768673747cU, 0x817c717d82747c82U, 0x6a7a727977767581U,
  0x737d7882887c8492U, 0x7e777f7476888082U, 0x7f82837f71787680U, 0x7e8386858c877e7aU,
  0x86777e7b706b7282U, 0x71807e7376847b8dU, 0x7a9591797f83736eU, 0x8b867b8b877e817bU,
  0x787f7983837e7771U, 0x848470808b727882U, 0x7e7b777a92876e81U, 0x788884777e8a7d7dU,
  0x6e7c76858a82767dU, 0x8d727786877b7c7bU, 0x7c827f8a85777787U, 0x808182827577797bU,
  0x7e84848083887d7bU, 0x7e76809184867887U, 0x7c6f727476757b87U, 0x8476787775867b85U,
  0x6f728b797d7e758eU, 0x747a7883777a8575U, 0x6e7b8b8a7774828dU, 0x7d77737e77767a85U,
  0x7a8588687b67636fU, 0x77758187707f707aU, 0x85807d778178777eU, 0x777a7e8083838387U,
  0x697b787a7d798283U, 0x7f7f6c798c84817aU, 0x727a847d78757482U, 0x807b757c78706475U,
  0x777d767d7e786c70U, 0x76897a8183726a72U, 0x7a7f7e8084777872U, 0x79757c777e7b8374U,
  0x7c79877d7f7f7884U, 0x7d898381817b7777U, 0xb0aea6927875757bU, 0x737582848b8197b1U,
  0x777978857d7d766fU, 0x848d83827981867bU, 0x7e807f7484817a84U, 0x7c88818571706d66U,
  0x838077796c717476U, 0x74758b6777768281U, 0x7b75798c8b877e8cU, 0x766f777f7d737981U,
  0x7d8b8b778481847cU, 0x737b847874708381U, 0x817c768287797971U, 0x85767d6b747e8782U,
  0x6e7d7f827a867f7aU, 0x86818e8a7f827674U, 0x7e7b6d7579867570U, 0x888786857a7e8a7eU,
  0x75747f78857f7b88U, 0x8475716f7b838284U, 0x7a6f7872737a7789U, 0x76757b70757c898aU,
  0x848a8c7e7d71757fU, 0x75716e81867f737bU, 0x808275756c817e8fU, 0x656f796c747e767dU,
  0x837e88727e718273U, 0x7a847a847b85837bU, 0x7774717982857c7aU, 0x8177837c7e7d7a71U,
  0x7e7e7b847b7c7d78U, 0x7b767c7d7d858682U, 0x788281817b76777aU, 0x83858b776f76868bU,
  0x89717e7683898369U, 0x7e81766f7a789282U, 0x7f7975696f676b75U, 0x878d8375807c8789U,
  0x6e73717d82728287U, 0x887f7c7f857d817eU, 0x6d6d637a8c85878bU, 0x6c7a807a87917777U,
  0x786f72767f657274U, 0x79897c6e76797d6eU, 0x847676787b858c84U, 0x7c7f7671717d807eU,
  0x7f847b737b696e7dU, 0x8279868572817e7eU, 0x6e78716878857c76U, 0x85807a807d71806aU,
  0x6f797a7273717687U, 0x8f74837c6c867b6bU, 0x75837c8789767573U, 0x7783796f7b828c77U,
  0x80747e878982898dU, 0x908473867f7a7278U, 0x7e76787d74876a79U, 0x7f8c8c7d7d86797bU,
  0x7579837a69737679U, 0x7f7b74827b817f7eU, 0x7877777575747d7eU, 0x80777b7c747a7473U,
  0x767f836a7475746cU, 0x7c826d7677736d7cU, 0x7181827a7c787f82U, 0x8184867b7c888679U,
  0x7e84747f7b8b8e87U, 0x776f758a83697072U, 0x7b7e7772847d7a77U, 0x807b757978838e7bU,
  0x7177787a7b7d7c72U, 0x77719089767d7e8cU, 0x7e787f7b6a666d7cU, 0x74898073758a7675U,
  0x7770637b7f787c78U, 0x807b706b87868675U, 0x71747686818d8170U, 0x6e6f79857f607080U,
  0x7d696f6d6a7a7981U, 0x6c7876728a7d7e79U, 0x8380858b718c8577U, 0x8f7780757d7d8288U,
  0x828677708b7d7a7aU, 0x677c78817c738182U, 0x7c7b7a8582796566U, 0x816f7083847a7377U,
  0x83847e7e75777b88U, 0x807c768c86837b75U, 0x7e72828571817170U, 0x7c74737867726e6cU,
  0x777a79747d7a7078U, 0x737c787a72767982U, 0x7272747374747677U, 0x7a7b7f7a7076676eU,
  0x8b88827c7f787279U, 0xa88e788281857e7dU, 0x747664799cb2b1b0U, 0x7c7a76777e8e8477U,
  0x7b737e89796b6c74U, 0x7c776878797f8d78U, 0x78838b807b7e7967U, 0x7274746d866c7f77U,
  0x7a81747a7b6e7b72U, 0x787f81786a7e8589U, 0x7b877b8287838682U, 0x8d878780826f766bU,
  0x7c6d767c7f817e87U, 0x808b747467727a7bU, 0x7c7c7e8480857986U, 0x807d797c886d7888U,
  0x778c947267708e82U, 0x737b70767f907e77U, 0x7390847c6c717e8dU, 0x8e8e816a7d8a7b7eU,
  0x7b7077717a8c8e83U, 0x767d817269716f75U, 0x77707f7c7d787983U, 0x8575747b7a757078U,
  0x758372908066798dU, 0x7078727a7a837e65U, 0x7b7d717b7d777b80U, 0x887a7182817f7a6eU,
  0x797c7879756c7f81U, 0x767d797f7a76747cU, 0x787a7b767a777574U, 0x7c737774767b827eU,
  0x717a7877737f7575U, 0x7274827b6c797471U, 0x777274767c807f77U, 0x6f74707e747b827dU,
  0x767b7a87807d6771U, 0x748682766a798585U, 0x78867881707a7570U, 0x89817a847d767c7fU,
  0x7c7e7a7c7d7f7d76U, 0x8d819382757b7782U, 0x7c787688736f717bU, 0x75747e85817a8779U,
  0x827a886d73807773U, 0x838f74787a798177U, 0x857a836c79787279U, 0x7e847c7677797f81U,
  0x797e747687806a6eU, 0x807b85886d75828fU, 0x7f787d897e697b80U, 0x767e68797d777d80U,
  0x72838174817b7870U, 0x72787c7969807c81U, 0x766f7a8a7c827778U, 0x7d7277827775737cU,
  0x816f76857088817bU, 0x736e78828c7a777fU, 0x7c7b7b777a6f867bU, 0x8181756b8b838483U,
  0x7b78717d7a79847eU, 0x79777b7a78807c7dU, 0x7e78797676727878U, 0x7b7579727c7f7e77U,
  0x767b7e6d8381847cU, 0x7e505251607c7e72U, 0x7e79786f70757681U, 0x8a6c727c868d7b87U,
  0x7c76778081827699U, 0x7d6a7b787977898dU, 0x7f817d7988898189U, 0x747f707c73787883U,
  0x7f87808e8f7d7c8bU, 0x797877757f88746eU, 0x7c877b7d8082767eU, 0x8387818379868378U,
  0x7d9189817d6d8586U, 0x7d727c7a838a7874U, 0x778589877f887e79U, 0x717989747886706bU,
  0x8b83797b697c7f80U, 0x837e7f877b787e73U, 0x737c6c7a7c838485U, 0x7e866e7c8887797cU,
  0x7d8071797e797a7dU, 0x8084737f81838777U, 0x7f7e7a7176806a7dU, 0x8b7f72867f8c8e89U,
  0x777681887f77787dU, 0x77737d837f737a75U, 0x8d8e857b7b7c747bU, 0x7b7e6c827c786789U,
  0x716b738171766f7aU, 0x7b7f7c7879807c7bU, 0x79787e7c7b808c7fU, 0x837d7b737b79727cU,
  0x7f797d71816e767bU, 0x67737e7577777a84U, 0x7b78738d8d717179U, 0x8585887f6e7d8b86U,
  0x6b777f716c867b7cU, 0x6885886d747f837fU, 0x7e857e7974827b78U, 0x7f7c82827f707a73U,
  0x7585837a7080818cU, 0x7d7b797c767b827cU, 0x86717d7a767e788dU, 0x7572767f7e887373U,
  0x7d737c7b7c768476U, 0x82906f7d7575747fU, 0x77807080818b8070U, 0x8d7d71747a747e7eU,
  0x80777e80677d7d8dU, 0x6f6d6e807c7f7b70U, 0x71898473727e847cU, 0x75817c756d73826aU,
  0x83818d81817e7678U, 0x73787c7981867f73U, 0x7265697380786f6aU, 0x7c7b6d808d827471U,
  0x8680757b7e82827eU, 0x8776707b72717e7eU, 0x708c80806e667a95U, 0x787f7c6d72847970U,
  0x7a7a777b787c797bU, 0x8b8e8b857c7e8277U, 0x7b7a7d7b7d82837cU, 0x798880797b7f7d79U,
  0x9d9b7f78787f747bU, 0x858775899aa0a2a3U, 0x7a8487777b889381U, 0x6e81858885878782U,
  0x7b73849185877972U, 0x7e7c847a716b8080U, 0x7a7d7c7684848a7dU, 0x6979797a80726f77U,
  0x758885778071807aU, 0x7b85907b727c8c7cU, 0x85617f757d757980U, 0x6576726f847a7b7bU,
  0x727d777673788665U, 0x716e758b8073727eU, 0x82866e7577827e7dU, 0x7c809078706e787eU,
  0x6a807d7b717b7b76U, 0x777b73778786726eU, 0x85826e73736f8376U, 0x6d7164736f728477U,
  0x717f757771747171U, 0x6d827b7d8882736aU, 0x88887a837f7a817dU, 0x6e7f8088798f8280U,
  0x778081917e6c6f7aU, 0x7b8180816f6e727aU, 0x828083707283886cU, 0x8079837e7d757470U,
  0x7d837a7776727e85U, 0x777a777d7d847e7cU, 0x6e7676876f7a7b7aU, 0x7678797c7c7a6f74U,
  0x7e7c7d797c767a78U, 0x667882717f7c887cU, 0x7c796f7d77817461U, 0x817d76737e818670U,
  0x897b827b7a987f7eU, 0x7a877c68807c8184U, 0x84877c7f837f867dU, 0x737f888279747b7cU,
  0x8387838879738387U, 0x738e827975868275U, 0x817a887987886e78U, 0x7e636e748385757eU,
  0x797d797980868192U, 0x7c707381786e767cU, 0x777d8e8a76798a75U, 0x7f78828086847875U,
  0x797d7d83807b8079U, 0x7c74776c74707e77U, 0x877d7b8e73818271U, 0x827d7a7e807e6e74U,
  0x748b7e7e7c83696fU, 0x7a6d7989767f7774U, 0x8477828177717a7eU, 0x747782867b6e757fU,
  0x878269807d6a7c7bU, 0x83867c7e717a8882U, 0x887d74847b827574U, 0x75727d7e696f8a89U,
  0x747677766f747a6bU, 0x8b80717a7681766aU, 0x7b70787b837d8292U, 0x706d6b736f71717eU,
  0x77787778736f8072U, 0x77858679857d7c84U, 0x7c7a707d737a5f72U, 0x7f7a736b73767881U,
  0x79746e887a7a8877U, 0x8984747971817c6dU, 0x7c68797e7a808785U, 0x70826881847d777bU,
  0x7a727c7c897e726fU, 0x847c82827d70727bU, 0x76767a73817e897dU, 0x74787b84776d7f89U,
  0x767e6f7d7785827fU, 0x777d6a6d8588757eU, 0x75737a8b81838480U, 0x7b747d92727b746bU,
  0x72787c6c837d7f7aU, 0x8581858681776f71U, 0x828282737d826a7aU, 0x757d74787c657c70U,
  0x7971777f7f8d8772U, 0x76738878787c746fU, 0x737e827a6d78807eU, 0x7d7e85797e7f727aU,
  0x787d878583757884U, 0x747c687a73797974U, 0x746e7b7f9483747aU, 0x72747a7471879076U,
  0x727c817777787374U, 0x7e7c7f7d7973787aU, 0x7d83777271797c7cU, 0x797f767175737b79U,
  0x7e8387818584868aU, 0x756e8072748b7979U, 0x7e7778898c8b8083U, 0x877475837076827dU,
  0x868f936b74737679U, 0x86858c848074786dU, 0x6c6b6f7a758a8185U, 0x828786897d7b7f83U,
  0x778684897f77747dU, 0x807c837776817d70U, 0x7a86887b7f857c70U, 0x877c7b8289777873U,
  0x8c84898079837c71U, 0x817b8f7d777d8078U, 0x808084837f89757cU, 0x8b7a897f7c786a76U,
  0x7a727b767b7a7277U, 0x7a687a78626c6d80U, 0x7b7c7f836f717678U, 0x8070697f8072757eU,
  0x88778186807f8487U, 0x83846d75837f7687U, 0x776b747c8b7d787bU, 0x867d8880827d7f76U,
  0x8380847f9171797eU, 0x74797d7c787e7872U, 0x7b7f7b737879716eU, 0x74777e6e7a757b89U,
  0x80887f7a7b807f7cU, 0x81788f8d86918982U, 0x8a8b7b787682817eU, 0x8c8483867c778281U,
  0x81877e83889a9d9dU, 0x7f857d718aa8aa7eU, 0x837979847e847b7fU, 0x886f79786a7c7f77U,
  0x83816f7d81868382U, 0x7f808a968b88847eU, 0x7e81857e7b7e7d82U, 0x7b8285787979646eU,
  0x74848b8086876f76U, 0x837c7a726486816dU, 0x7a767a7471717d73U, 0x7d76807b7e6c7972U,
  0x7276747d816f7282U, 0x7f798084898f7c7bU, 0x75777f7f76777977U, 0x6e7b787372768582U,
  0x8181667d80736a74U, 0x81827d776c76777dU, 0x6278788080808176U, 0x7d747c8181837883U,
  0x747a7c73807d8182U, 0x82897b7b71777f7eU, 0x7e7e8a767a86877cU, 0x81857f786d727988U,
  0x80737579757b867dU, 0x7e847c7679877f80U, 0x777b8d82767a717cU, 0x7e7b70697783847eU,
  0x7f7c74747e7c7d80U, 0x8d898e89837c8077U, 0x817b7576857e7e87U, 0x8386878b77837c81U,
  0x748c928087838889U, 0x7d6e7e7c89707884U, 0x707f7b82917c8976U, 0x868c8c7a6b7e7a87U,
  0x758074817c748873U, 0x88787d787a867e7cU, 0x7f95806a76847380U, 0x7a7f817b7f747774U,
  0x74717a868c7e7b6aU, 0x7684846c5c736e77U, 0x86857477706a7584U, 0x7d63876a7e748284U,
  0x8c886f788b82736dU, 0x7c78776e706b6b81U, 0x83807a89786e6d6eU, 0x8079667b83868685U,
  0x777c818265727a76U, 0x8c7b8583778b6f87U, 0x797f857b746e7271U, 0x7d7c79898889897aU,
  0x868a72847e646d7aU, 0x7d8a7a787d8d7d84U, 0x7e7c6a776b698173U, 0x88777a8c757d837eU,
  0x707572738c7f8377U, 0x8e9476818276737aU, 0x74757076767a6b83U, 0x7b71736e6c666067U,
  0x817e7a777274787bU, 0x767f7c78787a7b7dU, 0x776f76747a797272U, 0x91888e8c8d8c8d7aU,
  0x738e9a93767b8890U, 0x71797e7681878175U, 0x7e8b79717d748389U, 0x758e99727163767eU,
  0xa17e908376847f7bU, 0x8b73698386898c9bU, 0x798d8280888b8d7fU, 0x7f767c9376827f73U,
  0x7b798c87897a6f82U, 0x817a818d7a727584U, 0x6b79798096807a7dU, 0x8378757576788273U,
  0x737781737f7e7e76U, 0x7a797f7e677b7f81U, 0x817b767484707978U, 0x7d6e81847b7b836fU,
  0x7a6a8781817d8980U, 0x737d77817e827784U, 0x85896f6b817d7176U, 0x878b7c697271807cU,
  0x767b8182887e898dU, 0x7f7d857e6c7d7d70U, 0x87607d718a82887dU, 0x757578828b7d727cU,
  0x7086887f77818182U, 0x6e6e8080798b8776U, 0x737778776d738780U, 0x7d7b7f7b7e767776U,
  0x827d82857a7c7f7bU, 0x8183857c847a898aU, 0x7c77797475827d80U, 0x66847d7c7a787a7cU,
  0x8a93797e74757d82U, 0x74817c888883837bU, 0x7c78968b7f727a70U, 0x8a81709084827773U,
  0x7b6e79887b7c746aU, 0x6e7f77796f6a6d77U, 0x877e806e85756c68U, 0x9280807476847e89U,
  0x7f6e657a80757d97U, 0x747e6c6e7a737576U, 0x807474707f7b7b7dU, 0x8c84799183798186U,
  0x87777c74666e6f7dU, 0x80837a6f6c807568U, 0x7375858179708193U, 0x8679727c83907c67U,
  0x84766372947a787eU, 0x85747a657a7a867cU, 0x796a788c90858577U, 0x84767d7d84797a82U,
  0x87888a7a76748077U, 0x7183959990738d80U, 0x7c7c7e767b6e736dU, 0x87827e7179837b7cU,
  0x818c796c787e6d76U, 0x7a8b6d7f8b7d8c88U, 0x78807e7d796f7277U, 0x7a81827e706d7b76U,
  0x837f7d7c7c797e79U, 0x7e7b7f73887c7f78U, 0x8f8f8d897f7d7878U, 0x7c8c8c928d8d8f8fU,
  0x8e7f757b8d75777eU, 0x807e858474828e7eU, 0x857e7d7a7d717770U, 0x88827a7b6f7c7c7dU,
  0x7e7a747f847b7c8cU, 0x7177797d7b75767dU, 0x75868b7d7f8b7f79U, 0x797c7781837f857eU,
  0x7474837d858a8988U, 0x7f877b7b7c887683U, 0x8571748681758181U, 0x7b75748b857d827cU,
  0x7a746b6e7a736f7cU, 0x70767d7367677979U, 0x8a746c6d707c7e83U, 0x6f75768684837279U,
  0x7b787f7e85727073U, 0x867d7b8385808079U, 0x7c7d777d80716b72U, 0x748289876d7f7d8cU,
  0x868e7b6e77778081U, 0x877c7e6f74797c7eU, 0x84777c747f807e84U, 0x7b7f7d81837d7486U,
  0x7c867d79897f6c80U, 0x6b7d827678717574U, 0x717a7b7278807378U, 0x7a7478777d746372U,
  0x74737375706b6f73U, 0x739081767e757d71U, 0x5e5e60666a787d74U, 0x816e738b806c625cU,
  0x7c7a8b757b889280U, 0x837f7c90786e7d73U, 0x72778481727c8482U, 0x7c8a807a6f6e6d7aU,
  0x867e7776777e777fU, 0x88808b7972777c78U, 0x7c6968836b7a7e82U, 0x79757d8175808873U,
  0x76777d7984738484U, 0x746e7a78818b786fU, 0x7f807d807b7c737dU, 0x7b7f80828681827eU,
  0x7d758f8b88747987U, 0x897b777980858584U, 0x7c828f8177797478U, 0x857d82858d83857fU,
  0x7a726c7d837f807eU, 0x828970757b7f7a79U, 0x837d8a7f806f7b78U, 0x797673737972767cU,
  0x7d7c7d827c74796eU, 0x78848a757d777979U, 0x726e778886888b7bU, 0x74767f857680727cU,
  0x8285907a88817f7eU, 0x76737079737d7d84U, 0x766c72686974807bU, 0x6f82847f7b7d7c78U,
  0x7f6d7571746d7f7bU, 0x756f6e7172786781U, 0x8c9c9d9b94827379U, 0x81717077717e7b7eU,
  0x85877c827f737a8bU, 0x7f8074777f767a84U, 0x798183737b7e7b79U, 0x716c737985777a78U,
  0x7b7f787b7b7e7775U, 0x7a86807a7482847dU, 0x877d84827b7c7e7cU, 0x807b667e8683868eU,
  0x747c8087787f787eU, 0x7b787d77797f7a7cU, 0x808583777d737e7dU, 0x8d89787b7e7a898bU,
  0x7171797174767981U, 0x84756d68827c7a74U, 0x767c79757e757282U, 0x8674787f6e778689U,
  0x6f7581828376797cU, 0x81837b7d84768c80U, 0x7286848c737c736fU, 0x828370708188846bU,
  0x7d7d7e7b7b888574U, 0x7072848680808a82U, 0x7c75778972807a83U, 0x7d7c7f847c777977U,
  0x758079848a887f79U, 0x7f85727c79827e75U, 0x8986847473717a87U, 0x81867e7b8381898cU,
  0x76737a7e7c817e7fU, 0x84847b7c88776a7bU, 0x85848e969798957dU, 0x7a827c8e94717879U,
  0x7683787e74757268U, 0x807e747e837c788dU, 0x707c7e847d74747eU, 0x847f78727c757e80U,
  0x7a8172777570778aU, 0x7f797f7f71766977U, 0x7783777887837181U, 0x7c78737d80857672U,
  0x82717e8a82757a6dU, 0x79827f848a887a7dU, 0x707f74897d717a7fU, 0x7f847c8096797e7dU,
  0x767e6e7684797980U, 0x828d8574787a8276U, 0x747f7b867e829585U, 0x8b8077818376737aU,
  0x857d837677787a84U, 0x8678708181767a81U, 0x768578757d75827bU, 0x76787578857f7d7fU,
  0x857f7578807d7d76U, 0x827e807681797676U, 0x757a847b7979797aU, 0x777e80777e757477U,
  0x856a737f827e7484U, 0x737678797578796eU, 0x80817670747b8171U, 0x6b706c6c77747a7fU,
  0x766865676b767367U, 0x66787a74707b7970U, 0x73857c8175332d2dU, 0x7c7a717477808289U,
  0x85887a857e7e7981U, 0x7680787881768282U, 0x828a77747577777aU, 0x787f81817b7e757bU,
  0x758a87888582757bU, 0x82838a727f7f796fU, 0x7480797f7e857e82U, 0x71747479847b7e7aU,
  0x78777d78726e7774U, 0x7e797c847d7f7975U, 0x817f898276877a84U, 0x7d7b846e7d847c7aU,
  0x7e80877c77757c79U, 0x7f796d817e7e797aU, 0x7d6e797479797685U, 0x7d7b7f8276787d7bU,
  0x86787e81748d7980U, 0x897b7e7a7b7d727bU, 0x727875767d857d85U, 0x757d877c797a7977U,
  0x8083887b73737473U, 0x6e73836d767d8979U, 0x7d7b797a7f72767eU, 0x847777797f7a7d73U,
  0x767a838671707784U, 0x756f737b79796b74U, 0x7d7c817f85807b79U, 0x63787a77717c7c75U,
  0x86757f7c736a5d6bU, 0x2c2f517a7f79747dU, 0x7e7a7b7e74736d2cU, 0x7b81787b808a8380U,
  0x83847b7d87787a83U, 0x887e7f7b76897a79U, 0x7d84858087827d7cU, 0x7279787979787d7aU,
  0x72807b727d7a7f75U, 0x8384757f80757d84U, 0x7984827f737d7b88U, 0x727b787a7d837f7fU,
  0x8d747875847e7b7cU, 0x7c77847579767c90U, 0x847b76827b787d82U, 0x7b81847e857e7874U,
  0x7b76787c71847679U, 0x7b7c777d78767a70U, 0x84787d8478827e7cU, 0x72717a7a79837d80U,
  0x7978817880737d7eU, 0x81817f7a797a797aU, 0x8079747a887b7d82U, 0x7f7f77757c807f7aU,
  0x707a7d7e797a8e78U, 0x747b837e7f758075U, 0x777977757a7c8377U, 0x7a80747f7a827e78U,
  0x72716f6c7c737a7eU, 0x7c847471807e787cU, 0x747574747773777bU, 0x7a787a7d757f7977U,
  0x758172666a72726dU, 0x7b74777373786f6aU, 0x82869183777f7c82U, 0x777b7e737f9a7581U,
  0x816a64746a7a7c7bU, 0x76708077787c7a80U, 0x7e757876757b777cU, 0x7787757e88797a79U,
  0x8483837e73748f81U, 0x78798683737c6c74U, 0x82797e7c846c777bU, 0x7c747b7b7e888a70U,
  0x7c7272707b7a8885U, 0x777c808879818c79U, 0x8d7d7d7b687b857aU, 0x79797976827b7d8eU,
  0x9a87817779818473U, 0x7c7e77717169717cU, 0x707a8075707c8382U, 0x868f8e78707f7b73U,
  0x6e80816c727b7a84U, 0x7387777d7a7a7d82U, 0x80787176777a7b85U, 0x6c7c78857275837eU,
  0x7a8675717f8b7d72U, 0x826c7a6e6f7f7f7bU, 0x7c7c787f8e767c73U, 0x8e7086878a687a7eU,
  0x7c7777717c7e6f76U, 0x7e7c76797e7d7c77U, 0x7f85827a75767c79U, 0x817f7877777c7d87U,
  0x737f89727f7a7a77U, 0x6c7d829397958e85U, 0x77867e666b77857cU, 0x7769687e717d7382U,
  0x758582837e898079U, 0x7d788f8a7f777c81U, 0x6a786c827a827475U, 0x738386948378787fU,
  0x767d6f6589766970U, 0x796e737276848282U, 0x7d6478717c736e78U, 0x7f78788484888885U,
  0x7980797c777f8383U, 0x847a6f72727f7980U, 0x816b757b8878717cU, 0x847d7a79716b7886U,
  0x94856a647d847f76U, 0x807c7b7080748d85U, 0x7c6b7f6c69737283U, 0x7d797e8089857281U,
  0x8e7964787f827c87U, 0x757378767e88838cU, 0x9b796c7b7986887eU, 0x6b8182827a8b8291U,
  0x7a78727369807779U, 0x7e807c7b7c74747cU, 0x7e767c8f7b77758eU, 0x7f7b877575757b7dU,
  0x7a7d7d7d706c7478U, 0x7878767a79787374U, 0x757b807a75778583U, 0x888173767777786eU,
  0x848582848b847f80U, 0x808f86808489888aU, 0x8f8d85756f9aa67fU, 0x767477818778707aU,
  0x826468818182858aU, 0x8c6c8173807b867aU, 0x7c717286897b927fU, 0x747c7b82797b8086U,
  0x7a778875758a8179U, 0x8872607f7a758173U, 0x757a787379747d81U, 0x717c86756e7e7f78U,
  0x82797c77846e7273U, 0x81756d7a877a7b70U, 0x867a757282818077U, 0x748179747877758aU,
  0x7d7282748f8b896cU, 0x797d6a8778727585U, 0x71817a707e816e82U, 0x89907e8884917a7bU,
  0x7870858e87707587U, 0x6c6f6e738774767bU, 0x787f736e7477705dU, 0x72777381798d8282U,
  0x85788080886f7275U, 0x737f6d7b8c7c6884U, 0x73817f8e85846c7bU, 0x7179778e807f7a74U,
  0x817971766f6c7679U, 0x8d847a757a7d7a7bU, 0x8784878385808088U, 0x706e67687b6b637bU,
  0x6564637b706f7179U, 0x827d6e7e86747163U, 0x8b817f7e73727a86U, 0x787f7b7c79758c71U,
  0x7e8a8c7b82747780U, 0x7f6e806b7b747e83U, 0x7e75797d857e7e83U, 0x6e787a7389857873U,
  0x918084767b827478U, 0x7488887080738a84U, 0x6d7e967b797b7c76U, 0x8c71888a71787687U,
  0x736689867c7d7880U, 0x827a838a807c7c6fU, 0x887474767a6b737eU, 0x7a79808677726d75U,
  0x8e907b79736e6a79U, 0x8073878577767d70U, 0x8e7f8d837e7f7178U, 0x73696d73787a6976U,
  0x77777c7a807d7b6fU, 0x7f8a707c998b7c79U, 0x86787b706f81808bU, 0x83786a787d857985U,
  0x7082797a857a6f82U, 0x6c807e606f7d7677U, 0x7a7c717674838871U, 0x777d646e8778887aU,
  0x747574747c756f6fU, 0x8c8f8d86837e8080U, 0x747a88837d7d8086U, 0x74716c766d888974U,
  0xa1949896939c986bU, 0x829292756c869494U, 0x8174827b787c7777U, 0x968e848981757985U,
  0x708294767a847580U, 0x8c77817d70808671U, 0x7c71816c6b77778cU, 0x866d787e7d7b8276U,
  0x718091877e7d897cU, 0x7e847c726b7e7e7cU, 0x7d717a8f746f708cU, 0x727682778187857dU,
  0x6c73827d82858384U, 0x9b7f7f7f8186887bU, 0x757a8a7e7a6876a1U, 0x83777a788685766aU,
  0x866e73767c8e8774U, 0x75787f7a726b806fU, 0x7c7388747f7d7b8eU, 0x6f7978787e7f8689U,
  0x6d7c807a7e7c6e7fU, 0x6e727b67727a887eU, 0x767d6f7f70757073U, 0x7579757079869271U,
  0x68817e7f7d7e757aU, 0x837a77857a717581U, 0x7a85896f7a798e8eU, 0x7368716f736c816cU,
  0x817673797d757474U, 0x888b8e95837e8478U, 0x777c7d7385788a7cU, 0x6f7170706e735e74U,
  0x787c85797a7c7880U, 0x75828d766d727568U, 0x897b846e66697476U, 0x727a6d827274837cU,
  0x68726e7a977f7973U, 0x7184757972818672U, 0x82737b7d7b7b8581U, 0x79817f71877d8384U,
  0x80878172746c817eU, 0x70706f7d6486877dU, 0x7e6b7b8c798e7778U, 0x6e7b7c6c64666d85U,
  0x6b6e6d7e7a7c797aU, 0x85707a757e766988U, 0x8d84777680777782U, 0x757e6f7581717788U,
  0x7a728d87867f8a84U, 0x806d8a8079808681U, 0x7776867a82786e78U, 0x75818c8c80778885U,
  0x8482687a747b7977U, 0x8a89827e857a897dU, 0x7c877b817f80837fU, 0x847e748087818884U,
  0x8076797a827e7583U, 0x846b6d7e81817c85U, 0x8f88837678757a7cU, 0x80807b77797b808aU,
  0x71777d7f7e878788U, 0x7d837a68756e716fU, 0x7c7e817f7e7b7777U, 0x71736a7b76797170U,
  0x73808271747b7e7eU, 0x7b7b776e777b747aU, 0x74827e827d766e81U, 0x87876f7f7d787b78U,
  0x787872808676717fU, 0x7a857c767c737c74U, 0x7b7b8d7c827c7c80U, 0x8282747881806e89U,
  0x85737d82718b7470U, 0x777f746e7b7d8385U, 0x7d7c6d757a827c70U, 0x80867a74807f7678U,
  0x7d72837d83877b6eU, 0x8282837a7a777a81U, 0x847d7c81787c8279U, 0x8c88786c797e8972U,
  0x84787d7e7f727d7cU, 0x76777f8374758585U, 0x7b877a7e73737779U, 0x7e7c887f7e78737aU,
  0x757b8678767a8182U, 0x81776c7272818684U, 0x847c7d6b73747b94U, 0x77797a77666f7d8cU,
  0x748180826f7e817aU, 0x8784887f83897f6cU, 0x7f847d7575857f78U, 0x878a827c787b7373U,
  0x7374797c7f878c8eU, 0x7c748180817e787aU, 0x7b7a81827c82857bU, 0xe8ebc18f696e8179U,
  0x6f77817d7f7da1eaU, 0x8280867d7b817a67U, 0x888476757a8a7278U, 0x7c87817b7a798282U,
  0x7b75798075707876U, 0x7773808772767c78U, 0x7a6a757f7a838b86U, 0x7c736a777471867fU,
  0x7d777d8572637078U, 0x72726d777e827077U, 0x73817c837d7a7c79U, 0x7b7977708880898cU,
  0x817680717b77767fU, 0x8269817e68748184U, 0x73818384747a7f7fU, 0x887f807c84817582U,
  0x7b74767e807c7e76U, 0x8a848d73827a7975U, 0x737581767d7b887fU, 0x8678768277848773U,
  0x7f86737473816e80U, 0x7c7e84766b81876dU, 0x766e867b827b7b7bU, 0x7e7b867871768189U,
  0x7d7b7972947f7e81U, 0x747d84816e6e807cU, 0x787b7e8d857f6e72U, 0x8d91918f8f83767dU,
  0x74757579767c7b83U, 0x7c84827e8176776eU, 0x7b797d8b867b7c6dU, 0x6c6e6d6e6f767372U,
  0x76746e6c72787975U, 0x7b7b7380807a766fU, 0x82767c827a806d7bU, 0x7f7981787c7f7e78U,
  0x7d7e7673767e7776U, 0x7f7b7073707f7d75U, 0x7676797a7b847d78U, 0x7d75808280727d7eU,
  0x837785787c7f767eU, 0x7574777d7e7e7982U, 0x757f737c7b757a76U, 0x717d7b79817e767bU,
  0x7f7b7d8082868079U, 0x7e81817d727c6e72U, 0x778183827874737aU, 0x777386727b7e837dU,
  0x80786f7b7b7a8279U, 0x7c7f7a8379847e7aU, 0x79787d7a7577767dU, 0x6f887c7e7d7a7a85U,
  0x8075747f726c6f76U, 0x79897e7f79747a7eU, 0x7b6c7a7b7f7a777dU, 0x837c78757b757977U,
  0x76867f7e80777976U, 0x81797c8684857573U, 0x7e817a7d766e7775U, 0x7f8581847a7f7e80U,
  0x78797b7a85807a80U, 0x6f7d6e746972707eU, 0x6f6e6a6670736d6dU, 0x7378707b7f7e7a71U,
  0x6f80817e757d897cU, 0x71787c8b80656e78U, 0x787377756c7c6f6cU, 0x7f7d82717783776fU,
  0x807e687971646d84U, 0x807a707573847979U, 0x6f76757a837e817fU, 0x737370858a847178U,
  0x7e67808e79757b7bU, 0x827a76787f817e89U, 0x6c766f70726e8983U, 0x7b7e6f7872747971U,
  0x6d82716c7c748674U, 0x7f6d817f758c8281U, 0x797e7a7971747d82U, 0x7b7c837d7a7e7a7fU,
  0x847d897f8a71727bU, 0x726b76828472786cU, 0x7d8a6f7f84806a70U, 0x7b747c91837a898aU,
  0x7a6e8185847c7678U, 0x757e70777d7c7f83U, 0x827f767583848172U, 0x6f7b77737a7f8381U,
  0x756f63737d817c6cU, 0x826c8b8482728b74U, 0x84857f7879787777U, 0x7c7d73797a7d7f7bU,
  0x8a696b72746e7879U, 0x70727a71707e7b7aU, 0x7579777f876b7f7dU, 0x7d7a767f767c797cU,
  0x647b7d787963668bU, 0x787c7f77766f8e77U, 0x86727e73878d898bU, 0x7c796f7585858c84U,
  0x75647a6c7d797d8aU, 0x75877780867f8175U, 0x798a8c868980737aU, 0x78707a8987817b89U,
  0x7f6e777b72806973U, 0x8f7e7c797a7e8b83U, 0x7e7a767f767d7f88U, 0x796b7e898f818380U,
  0x7e777b8c8f938b70U, 0x73787d75867e7a84U, 0x8d7c83767f768571U, 0x6d78888f7b727f92U,
  0x7c7a727288817170U, 0x7e837578777d8784U, 0x8068777c85777778U, 0x6e7e6f7576737085U,
  0x76897e856f716d7cU, 0x797a887b7d898284U, 0x7f7a8e7c74777279U, 0x757788838485817aU,
  0x7b73747978747e83U, 0x7b7b7e8288808180U, 0x7c797f7f7a7c837bU, 0x8985837d817f787dU,
  0x8984717282847f8bU, 0x7f838875647b8479U, 0xa0a4978686827f70U, 0xab727a868e7a84a5U,
  0x7184706c787683acU, 0x80958779888a7c80U, 0x787b8c82797c8378U, 0x8b74887b86728172U,
  0x877f847b8b98938eU, 0x787b7b7d867b6c7eU, 0x75797370857e7c71U, 0x7975847c7a8a8681U,
  0x746982706a79776bU, 0x808976727a81857eU, 0x87848b8470688781U, 0x98797673777b6f7fU,
  0x757e7e82797f858eU, 0x6e7092838e7a7e7dU, 0x7b7d888278868182U, 0x88848484777c7f8aU,
  0x8581828e86787977U, 0x868c79746e867f6cU, 0x7b777b6f85857c90U, 0x7180786c80827d71U,
  0x688e897570767b80U, 0x70737e897b847780U, 0x7c7683787f808970U, 0x847f847b777f8783U,
  0x7b7b887e7580807cU, 0x6e77778175827b7aU, 0x817e83856f6c6a75U, 0x6b6559606e6e767eU,
  0x887b7e7f757c8182U, 0x8978798986867783U, 0x7c787e7a807a7d8fU, 0x7175757583787c7dU,
  0x6c7b80827c7b7a71U, 0x7f808576697f7569U, 0x5c77827c76848967U, 0x877f81867d75887bU,
  0x69777a707d818580U, 0x858980788d7e7273U, 0x7c7c8378768f8e76U, 0x808470756f818078U,
  0x856f7e8e837d8276U, 0x83746f70807f7376U, 0x7f76647979837185U, 0x74747b6d75807d81U,
  0x7a706b7978737873U, 0x7d838d81867d806cU, 0x7d817c766a808375U, 0x7d667a7d948f8278U,
  0x7a786f737b7a7270U, 0x79777173837b8d91U, 0x81687471757e8a7cU, 0x7a777a85797b7f87U,
  0x7b726d6c878a8074U, 0x70767e6a6b75818aU, 0x656c6a7171798882U, 0x79667b7f72788084U,
  0x80747c887c816f78U, 0x7a7774787b767969U, 0x7e828f8e89826e69U, 0x8777707a7774737eU,
  0x9185827d82808382U, 0x7a78777c7d727b82U, 0x6c78716b696c7272U, 0x8a7a6d8f89757980U,
  0x647a7584746d7f7dU, 0x8188848a877c7a83U, 0x7366847d767f7f80U, 0x7b857d81868c7b79U,
  0x917d727e8a837675U, 0x686f82777e806e82U, 0x7c7585827a6f8774U, 0x7a7a7369777e7376U,
  0x82747e867c767589U, 0x7e7f79737b61638fU, 0x80857c78887b877eU, 0x7c7872886b868265U,
  0x827e847f7f707878U, 0x777c7e7576786a79U, 0x7b6c8184857d8882U, 0x7e71767c8e738172U,
  0x668c7b7b6d716d73U, 0x8b7d766c83717a84U, 0x868385837d867b74U, 0x6c817a777482837eU,
  0x7f87817784808b7cU, 0x8a81707d7c869082U, 0x7b76797d79898074U, 0x6e6d828579807d77U,
  0x76757f6e76918d65U, 0x7876756b6f6f7783U, 0x6b7a7f857f838581U, 0x7f7d7f7d746c7264U,
  0x898981777d847b81U, 0x978f87797b81747aU, 0x8376778694a7aaa9U, 0x8f7f7b8278637073U,
  0x737e7c876e7e7d81U, 0x8184777672817461U, 0x78838481947f7e8dU, 0x797d8075757a766dU,
  0x78827c74837a7e80U, 0x7b77797c85757575U, 0x81727e7f797d7883U, 0x7d7e7f7c83838379U,
  0x817c817470868779U, 0x8e8882858081766fU, 0x8381867d7a807f7aU, 0x727a827478807d85U,
  0x8483829078798d75U, 0x7a7f7b7874778887U, 0x8a7281828b7c757dU, 0x75877f7a7a857886U,
  0x778a817d7a847d77U, 0x8595818583716964U, 0x6e797a7e7a87817dU, 0x6f81716a747f8c79U,
  0x84858170727f817cU, 0x797a80798884767aU, 0x8690827c8b80767cU, 0x7f6b727c73777d7bU,
  0x71786e62757e7186U, 0x716e7472747a8379U, 0x7a7a777673737774U, 0x797e79737677787bU,
  0x80837d7379797673U, 0xb3b4ac907f7d7b7bU, 0x7a7f7c78747d9eb3U, 0x81717e7c7773727dU,
  0x7f6b8683837e7c74U, 0x87887b6977858b8eU, 0x7380848f85877d84U, 0x73768180848d7b7fU,
  0x878482747c7d8483U, 0x70717b7c7a6d7474U, 0x6465818871848370U, 0x747c638079738283U,
  0x83826e6e7f818387U, 0x807f747b73767a79U, 0x7c806d6b7787787aU, 0x747580717978898eU,
  0x818f7b9384807676U, 0x817f8e7481866f8cU, 0x766c768777897f69U, 0x7470817b76877974U,
  0x7486828e887a7e87U, 0x796b7676727c7878U, 0x7976776d6f737879U, 0x797a808e70877f76U,
  0x847c7c767c7a858aU, 0x6f7f86807b7f7a81U, 0x7781867f71797b7cU, 0x847a89846c738977U,
  0x8083777b71787f7eU, 0x7d747581797a737eU, 0x7a7c7675797c7c74U, 0x788178777a716f76U,
  0x857673777b6d7075U, 0x6e767477706f8185U, 0x7776707e8880716bU, 0x8f8b938b7b797e7bU,
  0x777d7b859371717fU, 0x79757b8282747a89U, 0x778674877e698785U, 0x7875708280757874U,
  0x637c7d71817f6775U, 0x7a6b897e73877e73U, 0x7c8686776a766f81U, 0x6773858466796f75U,
  0x70727e7f78867e71U, 0x858b7b7d83827f74U, 0x7781747f8c8a817dU, 0x6d77867b778c7b7cU,
  0x6d74768084827f80U, 0x8376647c897c837bU, 0x7474778179807289U, 0x787e6f7077807f89U,
  0x747688817476907eU, 0x8985827c73777977U, 0x7b7a768477768183U, 0x7b7d7c726c867775U,
  0x7780827a8a7d6e75U, 0x787e7c837f827369U, 0x7c6f7e8681868d70U, 0x77748087857c7780U,
  0x828183807c7c7777U, 0x767581757f80807eU, 0x758283817e837a7cU, 0x7d857d828b7e8690U,
  0x7e81747e81847981U, 0x757c785b5756677bU, 0x86837c7f7a8a8077U, 0x8782877c73847e7bU,
  0x84828a8d7b807a71U, 0x828880747d8c7b7aU, 0x8782797b857d8172U, 0x77757885828a8c81U,
  0x818684827d7e707dU, 0x908566757a889180U, 0x7a847e8785897c85U, 0x898a767f7974737eU,
  0x76818b877d90836cU, 0x81758387727f7870U, 0x777e788177887f80U, 0x7d717d7c7c898b7bU,
  0x6d7e78848d7b817dU, 0x767c8a886f828d7dU, 0x6a6f8182756e7f77U, 0x878e867e8487807bU,
  0x777391857676716cU, 0x8582767a768a6e6fU, 0x7b857e747b71717aU, 0x7881847574747e88U,
  0x857b7071717b8272U, 0x85797e6676737d7aU, 0x8c757177697c7c85U, 0x797c747a797a8185U,
  0x817d767a777c7579U, 0x7b73777b7e747a77U, 0x766f7a728479757aU, 0x7f877d737b767786U,
  0x716b868773777e72U, 0x827472787d797978U, 0x7c807c897c70767dU, 0x707c7d7073876d77U,
  0x807b7177878d7c7dU, 0x7980767996747e73U, 0x7a7e82818c957176U, 0x7e827e777d879284U,
  0x7a8482777e7c8883U, 0x84787876748f7a73U, 0x85808583888f968bU, 0x807c848d8275897dU,
  0x7d70756c6c797682U, 0x797f8a8480767684U, 0x7e7a7c8482918288U, 0x7d757a7c7b828c85U,
  0x7c7576857a727774U, 0x6a777e76797a7881U, 0x88746e7880818780U, 0x7b777d8281777287U,
  0x7579767a817c8283U, 0x736b7a7877777877U, 0x79818b747a7f786fU, 0x7f79747f778c7480U,
  0x748466837a758383U, 0x7f7e7e80868f8881U, 0x78767788717b777eU, 0x7a78707c846e738bU,
  0x7e83837b79787676U, 0x7779777c87848c8bU, 0x6f7d7f7376767276U, 0x7b787e7e787e7976U,
  0x9c9b8d8c87887670U, 0x837e79808f8b859aU, 0x7c898b78788f8f87U, 0x78877e7a81858380U,
  0x7e817b717b797586U, 0x73807f816a7d7f75U, 0x7e7b848577949786U, 0x82827670807d757fU,
  0x847774838c767b73U, 0x787b83747c7f787eU, 0x81747b76887f8b89U, 0x786f87928e948b90U,
  0x7d897f8087808587U, 0x6d8972807b949472U, 0x758d777e6b728770U, 0x777c6d798b768282U,
  0x7b7874757a79808cU, 0x85857f897c7c7673U, 0x8d778080716c7c7cU, 0x886d788776817f6fU,
  0x82847977827f7d7cU, 0x81857682767d7a75U, 0x817c827f7d898577U, 0x706f79827c7d817bU,
  0x86878582877a7076U, 0x877e777772798686U, 0x7f818b80867f7283U, 0x7a71767a7d818174U,
  0x7676837e7a777477U, 0x73837c7f747b7d87U, 0x7c83817e7d7c837bU, 0x807a817f817a8085U,
  0x847c7b7c7f83878bU, 0x7e9593796f77707dU, 0x7d8776778a958a79U, 0x6e7e837c8a7a7e77U,
  0x697c807275787777U, 0x8383888077797273U, 0x8a788386907c7c89U, 0x7b88727a7e807c91U,
  0x757c80828968797bU, 0x7f7d7a72797c7e7fU, 0x847b786f836d7770U, 0x8c7a7a6a7e647775U,
  0x89887c7172757a7eU, 0x877a848480707b80U, 0x7f788777706e7f87U, 0x7b877f896d747886U,
  0x6f6f80887c837e7dU, 0x797b70707c84707cU, 0x887f7d887881777bU, 0x76867d8681855c67U,
  0x7178727e7f7e7d72U, 0x6b817d827f868081U, 0x7172727a7c827a75U, 0x8073787f7384817dU,
  0x83787e6a82798487U, 0x847a7e79766f7873U, 0x8978837a8c817e84U, 0x7b76726d747e8583U,
  0x7e7580827b7d847bU, 0x757b816e707c807dU, 0x6e7d767a797d796cU, 0x7a7f8182896d5e66U,
  0x787d807875777a86U, 0x7f727f84857f6d70U, 0x8b8d6e8f7d806b87U, 0x91907b72737d6c79U,
  0x68857c767385677fU, 0x7e878e7473677f75U, 0x707d7a87797d827eU, 0x717784746c6d7975U,
  0x7881747b7d7e7b80U, 0x797e7e6a7f818a79U, 0x846e74798d8a7780U, 0x6f7d7d7578818186U,
  0x8377798278695e79U, 0x7f7a6a719073777dU, 0x7781736a6e6d8877U, 0x7a7e7e817c827473U,
  0x6e74707679827b83U, 0x847a7c858877877bU, 0x7c80717071736f8dU, 0x8a7e7d817d747f8cU,
  0x8b787d79827e7a7aU, 0x84767279766f7882U, 0x7b82888271836e72U, 0x877b7a6b7b809981U,
  0x6d7c836f6e78787cU, 0x6b797c77796d8181U, 0x767d62787c787372U, 0x817a78756d727974U,
  0x6b6e7684918b7b7cU, 0x797182817f7a7468U, 0x786b676a797a7076U, 0x82798d7c77817a7aU,
  0x7d718382847f7d81U, 0x86766c767a83777bU, 0x7b8a8174857a797eU, 0x6d637a7a826e726cU,
  0x7d797c7c79638681U, 0x8a7b7c8a887c7e78U, 0x7a7d72827f807e89U, 0x7f877b817f8a8175U,
  0x8a787f6972737d71U, 0x85798585907c6d7fU, 0x77837d7383817a7cU, 0x998a777880627d82U,
  0x7f75727e7a85796eU, 0x706f6f727184847aU, 0x7a8182877f7b8086U, 0x897c75717183886bU,
  0x7e807d827d837485U, 0x836a74887b757a84U, 0x7c708b7d79787e7bU, 0x877f7d79757a8771U,
  0x79877d81858d7c74U, 0x71778987827f808bU, 0x847780827e71837cU, 0x84766f7a72758286U,
  0x748589667970707fU, 0x76736d6e78798077U, 0x76787e7a68687880U, 0x7a7975716d727672U,
  0x736f757e727e8575U, 0x837d77756f7e7681U, 0x80707e867f70768bU, 0x8380887c81797e80U,
  0x9785867878818c84U, 0x8e727a8282747185U, 0x78737a857a85828dU, 0x7f73787a756d707dU,
  0x7f85837989727269U, 0x7988796e7d878a7aU, 0x7c78837d69837e70U, 0x8c7b7a7f756b6678U,
  0x757e7a756b84897bU, 0x7372657f8e7b646eU, 0x86869a807773687fU, 0x8083777b79776475U,
  0x7172877c71748b83U, 0x8174788186767a7fU, 0x7e817c796e82736dU, 0x776875707e708a8cU,
  0x7d6b76868386918fU, 0x7c716f82778d7a79U, 0x6e7d808076847793U, 0x6d696a887c7f746fU,
  0x8089747782777672U, 0x79707383917d7a86U, 0x646a797e89778986U, 0x83768f8672717875U,
  0x8a7b8384837b9285U, 0x7f81898b7c85877bU, 0x7a74706f5e727e6eU, 0x767a70666f6a7773U,
  0x647675676e717a77U, 0x7e77796f767c767eU, 0x7e85877793827e7eU, 0x7b676a6b6e827b74U,
  0x6d8689747c86747dU, 0x757182818a897a7aU, 0x806d7281847e7e75U, 0x79738c8b7f798485U,
  0x7d6b84847c6d7f80U, 0x8d876e7779838177U, 0x757569718d787a82U, 0x817460697b738573U,
  0x7f7e7e7b746f8582U, 0x6d7777768d817778U, 0x7f82817e737a7872U, 0x788175787a697c98U,
  0x7d8a7c7a7784807bU, 0x7d828080857c826dU, 0x8d887f7c816e6a78U, 0x827383878c80877eU,
  0x777b8774707a867bU, 0x8f81757a7a8f8177U, 0x7d80737a758b838aU, 0x7b827b738080807fU,
  0x7d6e848583737b7aU, 0x7c7f7c8173857f83U, 0x8585796d8984717dU, 0x6a6d79837f8f7f95U,
  0x728a81748f868272U, 0x898781847c71737eU, 0x7c7c72757173798dU, 0x808080777f6f707cU,
  0x857079787a7d8686U, 0x7a6f8184797c7c7fU, 0x83847e858785837dU, 0x767b91aaaeaa948cU,
  0x7981807c717e8178U, 0x7477736d79757980U, 0x7b83858975667a6dU, 0x7e8384757d607d75U,
  0x7c687187767b7c72U, 0x7d7477646c7b837eU, 0x7b808f73787e886cU, 0x877a747c7c7e7674U,
  0x8677898d87797887U, 0x7b89866c797d7a80U, 0x837984817a757a70U, 0x6b6d827f74787380U,
  0x6f78777c7c7c7d71U, 0x84788182827b7f8aU, 0x87817d837c837479U, 0x7f827681858d8c8bU,
  0x696d838086867579U, 0x775f7378776d7878U, 0x7d7f897d706e8170U, 0x7478707886767a81U,
  0x847e827e82827e77U, 0x65606e7d7987796bU, 0x797b7c8378837078U, 0x83776f828b71687bU,
  0x7c7d7d787b878081U, 0x7581856f80777b72U, 0x73797b737c717576U, 0x6f81787f827c746fU,
  0x6f73837e74777a77U, 0x707d807272887e70U, 0x87706e7481767884U, 0x7d896d7084a3a8a8U,
  0x7b7a7d787b7b6f83U, 0x74717a8084758489U, 0x78708076867b7e70U, 0x867c7b79646e756fU,
  0x737f7d7568757d80U, 0x768879816b767d77U, 0x7e7273869780747eU, 0x736d80838f7e8074U,
  0x857c71787d88837cU, 0x72768082797f8177U, 0x78847881766e6f76U, 0x76757e7c7a776e78U,
  0x798181777c7a8185U, 0x737872757d7d857cU, 0x7f71707679838280U, 0x7b7f7e7481747883U,
  0x7a78837c76857d7eU, 0x786f847d746c7c83U, 0x7d8082757e807b7cU, 0x7b706c75808c7d83U,
  0x7c808473707f767eU, 0x7b6b6f73717f7375U, 0x7d71817b77777a79U, 0x6e8779737a808882U,
  0x6e7381808275726eU, 0x7a72827c7b7a776bU, 0x81746c7a796c7b79U, 0x8b83867a77727b7fU,
  0x6f7373757b7e8987U, 0x72696b7778797e75U, 0x757a79847d7b7b71U, 0x8285878481858277U,
  0x747d788179848480U, 0x67846b6066786b77U, 0x868176737864788aU, 0x7c77778a7c7e7a7eU,
  0x8071767c86899681U, 0x876b79828c847183U, 0x6c72798f7d707285U, 0x8683807a7a7d7f8eU,
  0x7e827a818a8b807bU, 0x797a85675f78807fU, 0x86857775727e7481U, 0x7f8678868a6f7f79U,
  0x877f7e807e808486U, 0x736a847d797a767cU, 0x6d78767f827e7b77U, 0x6b767e6f7a8c776bU,
  0x7c8575757d7d7079U, 0x75818879867a8383U, 0x7d85837a7a718486U, 0x6e6573806d7b728cU,
  0x6d7772837f7b8186U, 0x77757d877b787a69U, 0x7e7376897f7f828cU, 0x886d71897a887d7cU,
  0x877f808c8e69747dU, 0x76747a7a72767370U, 0x7c7e7b6c757e7d7aU, 0x7c827f817d7c7d78U,
  0x82806f7073707675U, 0x767b7a7a72817f79U, 0x8d908f91888e7f78U, 0x7d93987e838a7f8dU,
  0x897a807d86827e7fU, 0x7d8780878b89837fU, 0x8778867b707a616fU, 0x83837a757d936c80U,
  0x808c847771797b80U, 0x7c8075797a806e78U, 0x867a7279756f7473U, 0x7c7e85837e77857eU,
  0x7370848979727271U, 0x7e897e82886c7f81U, 0x8578617688798377U, 0x857a667c8872836eU,
  0x7a757b7781828685U, 0x7a767e737c8c856cU, 0x686b8c817e79817fU, 0x7b6f7978767f8991U,
  0x8f7e7d8681787b80U, 0x63737776785d6b83U, 0x81768482647e8077U, 0x877079757c7b817eU,
  0x73737f7f72807d8eU, 0x798b7a767a747f83U, 0x827f68797d71787cU, 0x6c6a7f79777d707cU,
  0x7a7f7c7876727271U, 0x7b7979777c796d72U, 0x777d7f7c7f7b8081U, 0x75797f81817e8179U,
  0x797c7f837f847879U, 0x8377717479767477U, 0x8081898282828480U, 0x7c7b7a7d727a7180U,
  0x897882818478827cU, 0x7a7f857d88867f72U, 0x7c829a8988698472U, 0x8a86857d7880687cU,
  0x7177817681777184U, 0x7877828977757f7fU, 0x72847b7d78767571U, 0x776e807d87818067U,
  0x7775877f7e786f71U, 0x7a887f848481737dU, 0x857379767c7f8479U, 0x808188828579767eU,
  0x86837b8077726d64U, 0x897e797b76818081U, 0x70707c90787f7a7eU, 0x7f867e77797a797dU,
  0x7c76737f78837573U, 0x737e877e726c7e73U, 0x7075756a7c7e676dU, 0x7675787a857d7e7eU,
  0x7983736c817c7372U, 0x8c7b7c847c6a6b75U, 0x7e83788284827b84U, 0x799887797e7f8587U,
  0x6e8f757977817c73U, 0x71736f7b7b76757dU, 0x7f817e736f7d857aU, 0x8e877d757f82797aU,
  0x827979807b837e84U, 0x6472867d7783797eU, 0x8c7f7d766b67676bU, 0x7278767578657777U,
  0x7a7e73818174786bU, 0x8b8080847985787dU, 0x768f807a78817980U, 0x6c8670858e7f6967U,
  0x746e7670966c6f69U, 0x7981767f85827c79U, 0x7e878b7f70757d7eU, 0x747d806e79787e7bU,
  0x8374807f757f7e7eU, 0x6c717a8d807b8d80U, 0x808e82728274868bU, 0x8b826d8a85838570U,
  0x7d75817f7a787f87U, 0x6c797c8680897879U, 0x7a786f707376797aU, 0x817284858489847dU,
  0x7b747b736f7c8584U, 0x908778777f76757dU, 0x7c6a7a7485887f83U, 0x86807e917b74877dU,
  0x768b79788173747bU, 0x7d7c76847a7f8179U, 0x76777b7e72757a89U, 0x79767570777c7e85U,
  0x797a78797a766e7bU, 0x77756d6c7077857bU, 0x797675727c757e80U, 0x7a777f786e786b74U,
  0x796f6c797275747aU, 0xaeada39388797d78U, 0x9b7672808d969cabU, 0x7e8a79838b80658dU,
  0x757c7884847a7e86U, 0x70756b8187737f76U, 0x807b8484657a7f78U, 0x7a7c817e79b0b078U,
  0x80848291787a7f71U, 0x71777b736867788aU, 0x807c7d7a70847970U, 0x7f8883797a7c7a7bU,
  0x717b8180808e8279U, 0x82917b7c78828976U, 0x637673717e8c8984U, 0x7a8686726b747e7eU,
  0x7c757b8780857f7bU, 0x7270727e71777378U, 0x817f77847f797d71U, 0x8182837b836f777bU,
  0x807572746b7b7f7eU, 0x72796f6a82806d7eU, 0x88837e767d857c6bU, 0x7d7185807774807cU,
  0x78777a76817a7f7dU, 0x74706b6f798b837dU, 0x8b877e79717f7a79U, 0x8d7b7e81848a7f71U,
  0x7872747f746b7d70U, 0x82788a807777747eU, 0x7b7f7c7d787b7d83U, 0x8b918d7b76776f71U,
  0x7d7370737976827aU, 0x75706b6d737f8087U, 0x8885827d9185827dU, 0x8f8f897f817b857cU,
  0x7270757e75787f81U, 0x7179867a8288847dU, 0x7b7483837d927575U, 0x787875778082746aU,
  0x768378867c767a75U, 0x797a798577747b65U, 0x77788680837c8373U, 0x858279736c778073U,
  0x8a847c797572778aU, 0x727d826d81817a74U, 0x87827f7b78808a89U, 0x737b827d7f767674U,
  0x8284697a7271716cU, 0x86827d727a7a787fU, 0x79897677777e6d64U, 0x79837f85857f757bU,
  0x8382817581837379U, 0x807573716d6a797fU, 0x7b84838a767a7271U, 0x788b857e71798a78U,
  0x827874657779807dU, 0x7f75707c7e867586U, 0x7f7d7b796d6f776eU, 0x837a6c8f9177767fU,
  0x7c80747673857e83U, 0x7c807b747a7c827aU, 0x717c797b7b737676U, 0x74797478776d7b6fU,
  0x8776797d7a676e72U, 0x7d89a3c1bcc1b397U, 0x7389878a7f6c796cU, 0x7c85836d8a827882U,
  0x888871847b796f79U, 0x7a8c75707d787b89U, 0x757b7a766f777a83U, 0x8378757a7d7f907dU,
  0x6f7571837d7c8b83U, 0x7d79808992826a78U, 0x7a7b81847d89878aU, 0x7279756f6b736a80U,
  0x6f7974808581807aU, 0x8b777c8284847b7aU, 0x887e7d867f867b6fU, 0x7f74767a82797b74U,
  0x72757c707780868fU, 0x6f827182817e7671U, 0x6f7c7a6a7a7b8381U, 0x7e78747a7d7b7271U,
  0x7b758189887a6d7dU, 0x7d80758382898d8fU, 0x87798b8688898e82U, 0x767b797a83827e7aU,
  0x6f8a6f738570747aU, 0x6f7779777c73826eU, 0x80736e6d8678837aU, 0x817b817e7a817c70U,
  0x89817b7d7f757c87U, 0x7481807c797e7584U, 0x8274797c7b787a79U, 0x8280847a717e7a72U,
  0x6a63717c7c768a8aU, 0x73797867657d817dU, 0x6e7d6f7672757a81U, 0x6c6f777769868c6fU,
  0x817579838d7b7074U, 0x858380777b848473U, 0x9784896e68887678U, 0x73776a797f958489U,
  0x7b8682887e74737aU, 0x68798682847e7486U, 0x81736f777b838067U, 0x8886777f7a78887dU,
  0x8581817475758f84U, 0x708e878a8583787aU, 0x8272747b85918873U, 0x7f7d7b7b8381797bU,
  0x7f8c7c8475808480U, 0x7784878680817477U, 0x7d7f827f82767b70U, 0x7d7b7887767f6e7dU,
  0x74858587747b867aU, 0x74796f7279847b80U, 0x808477747683807dU, 0x7376828175748087U,
  0x7e6d7a7a82858884U, 0x7b7d7e8983838a83U, 0x66727b857a7b7c81U, 0x8683827d7c8b7d7eU,
  0x787f7f747f7e7c83U, 0x7a73757980746c70U, 0x897475747884787aU, 0x7f758985737f7980U,
  0x8383848078868b7dU, 0x6879827c857a7d82U, 0x847c867c79737a70U, 0x828b8a7f75697f76U,
  0x89887b7580857a73U, 0x75807a74847c7e72U, 0x787378838771767dU, 0x7871807b6f767f73U,
  0x7c7c72757f817f6fU, 0x6f7f8073747a7a80U, 0x7b7b8181767d8075U, 0x6e7f728174747563U,
  0x7a7583827f848279U, 0x836f6d7b92836a70U, 0x7469757679827787U, 0x6270757877807b75U,
  0x787b7975767f8775U, 0x6c777176867d798fU, 0x7d7d83827f787e7cU, 0x888172787f868279U,
  0x7c80886b6a6f7987U, 0x8174706f6f70807fU, 0x737d7e8275797c8bU, 0x736d777c848f807aU,
  0x767e8a837a707076U, 0x8177728183748f7fU, 0x7f6e7274887e737aU, 0x777c7671766d6f77U,
  0x7c827e7b807e807cU, 0x7c7574787a7d7a80U, 0x7274707578858a89U, 0x707a8a7f797c7f79U,
  0x898582838a8a7a7aU, 0x7f9a8c788083817eU, 0x8d8081837a7e7777U, 0x847e817a696d7d87U,
  0x7c8e7885777a877dU, 0x727c6a6f798a827cU, 0x7f8386837d787588U, 0x7574727375717783U,
  0x7464747a76767380U, 0x77777b8678787a75U, 0x727079837f717688U, 0x75757d7f886a776cU,
  0x7574807b847e7f7bU, 0x88817b7286717a82U, 0x7e7d748681787079U, 0x78857f80837a6e8fU,
  0x7b7c76747a7b8379U, 0x7b847478797c8387U, 0x807a6a838c847e6eU, 0x8b76806f7589857cU,
  0x818c737a746d8682U, 0x7f7c7c738a7a776fU, 0x7880827a7f78826fU, 0x7c787d7f7c787a81U,
  0x827a797c6d7c7b73U, 0x78897973767a8166U, 0x7c80887e818a8668U, 0x877575747e7a7e71U,
  0x7d7b787978777b77U, 0x7c7e797b7f7f827eU, 0x827d73777b7d7d76U, 0x8e8f83797b6d7b7cU,
  0x7b83867f83818089U, 0x7989835e6a88877fU, 0x7a7674768289737cU, 0x8a7f71847b6c7c71U,
  0x72707a88837d7b7fU, 0x6d797878767c786cU, 0x887d7a858582857cU, 0x7c7c86867e73717fU,
  0x7e808776798e7c80U, 0x7b7a8e7f787c868aU, 0x826a707b807a737cU, 0x7f768181877c7371U,
  0x786a767d80777880U, 0x8f8a847872787a68U, 0x7f7a938881807d86U, 0x847780717c818582U,
  0x86897d7f7d947f75U, 0x817a828078807e7cU, 0x847b877f75797e7aU, 0x7b858a7f7a828486U,
  0x757684747e917b72U, 0x7b787b7d81907c87U, 0x7d7a81887a7a7875U, 0x847e7b6e80827d8cU,
  0x8b7f6b6b7f7a8086U, 0x7f7e797b7b848677U, 0x77856d6a71717984U, 0x757b75757d767f78U,
  0x7f887d7c7a74717bU, 0x6466758172858685U, 0x7a8370827d7c7e74U, 0x907e7b75807b7b84U,
  0x81817d83879a9a9cU, 0x827e798385acb07eU, 0x827c7f747a888277U, 0x847674746f757e89U,
  0x7f867d7c8c767b90U, 0x7e6d74908b908a77U, 0x828091877f7f8083U, 0x7e767979817e8678U,
  0x8088867e8584887bU, 0x8f7f727583808589U, 0x77797075847f8781U, 0x71746e7377767f7aU,
  0x7f7376867d857776U, 0x8383807c7087877cU, 0x76828f7b7b726c71U, 0x878386897a897e82U,
  0x7892948c767b7e76U, 0x7d737c7f887e7a7cU, 0x7781868681798980U, 0x8b80797973798385U,
  0x8178807c887d7770U, 0x8d707d807f787d79U, 0x768271758481728aU, 0x787775848d7b8578U,
  0x7580827c8d89857aU, 0x6e706f7d88828581U, 0x8980869088757383U, 0x7c797e837d76797bU,
  0x7275757679797073U, 0x7c777a807d7f7e75U, 0x7c71837d7b898382U, 0x6263676f776f787fU,
  0x8077767d88786f64U, 0x7b8480828a827d7cU, 0x74868b8c7c878183U, 0x7c7a76747176697aU,
  0x7a7a6a777f7c7879U, 0x7e7f7f8880899174U, 0x776a7c827a878b83U, 0x6a716f7f78807c81U,
  0x817e7a787b6f7a79U, 0x797a796c787e757bU, 0x7d7d796d7a6e787aU, 0x82806e7d786f858aU,
  0x8286858181798188U, 0x88818c7372777780U, 0x7371708b75716e6cU, 0x7d7c735e7e8f8088U,
  0x77798b8c797c7982U, 0x7f888786758a7b76U, 0x6981827c6b7f817eU, 0x777f746d796d706cU,
  0x79666f767a766f77U, 0x74797c757f81838eU, 0x6e7a798b827d7c73U, 0x71827f7a7a817876U,
  0x726b768378767e73U, 0x7b7d7b767179757eU, 0x7675867a71868182U, 0x6e7e7f7a7b7e787aU,
  0x707371757577837cU, 0x77746e818473746eU, 0x6f7d747e81767781U, 0xa49594979c9e9784U,
  0x91a7a884867a9194U, 0x7875768187797879U, 0x7d80846e74887782U, 0x767882727d736880U,
  0x9c7a767575777e87U, 0x75746d83777387a4U, 0x6a7a897783847579U, 0x798585647a82736bU,
  0x7e79857a787e727fU, 0x817678817c6f7980U, 0x7d837a798c8c8782U, 0x787d747b7d816f78U,
  0x7a74766c6d88837fU, 0x787c7977707f867eU, 0x70777381817f7f70U, 0x7385908184897678U,
  0x836d5f6b7c7a807eU, 0x77717c75716e7f83U, 0x877e6c7b7e797b7dU, 0x838f697d8083816fU,
  0x877274948181737cU, 0x7d82757f837d7681U, 0x8d8475797c7f7570U, 0x7e6d78737c767884U,
  0x8c8e7d7b73758775U, 0x728585756d6e747bU, 0x7b777c7e85747d80U, 0x7472727b7a7a727cU,
  0x7d788378756e707bU, 0x806c76776b727d85U, 0x767d747989767678U, 0x7377857f81828478U,
  0x74887d726e707d7fU, 0x7d72786c77737f75U, 0x7478838087827d8aU, 0x7c80767c776c8077U,
  0x7c7f8180797b8a7aU, 0x78867c827e818284U, 0x7a6d7d7c75868589U, 0x866a757873897e7aU,
  0x7f8788906f707b89U, 0x8072878377848a79U, 0x7d777a848e7c6d7eU, 0x7973847f7e6f7382U,
  0x767872807473787dU, 0x7e886f738b7e6e6dU, 0x8a798a8a7a7c7a74U, 0x746d847687887e7dU,
  0x7476758e877e7f78U, 0x748068747b797f7dU, 0x7c6d7c75807d8b72U, 0x6d80737f7a848385U,
  0x777b7474787d746dU, 0x89848588927c6f77U, 0x7584777b777d7186U, 0x7e7a7f7b79717b7dU,
  0x8b737a758f848670U, 0x717c86797e858b80U, 0x798074786f6d7e79U, 0x81867e7c7a797d77U,
  0x867f7c82878c7f7eU, 0x767e7c7c757d7876U, 0x63717b77726e7673U, 0x868472796f636566U,
  0x8b8b847c7a868674U, 0x777c7771717b7a7eU, 0x6f71757c7e787d7dU, 0x7b726c7b79818573U,
  0x84857a817476857cU, 0x737a7a7183878076U, 0x8073787378726d72U, 0x6a787e858c87807eU,
  0x807f7b817f7b887cU, 0x72747d738598788cU, 0x787f8a7f7e798083U, 0x7a7b7a7a7b8b7c7dU,
  0x717286898287787cU, 0x7d7a78876d668771U, 0x8d7d7d7a7a877979U, 0x777379797b826b7fU,
  0x756f727f85788276U, 0x7e89816c7a818289U, 0x747d777f907c717eU, 0x787982776b71707eU,
  0x7877747b7b81837cU, 0x84866b778875746bU, 0x827e747282857775U, 0x86787a747a77788fU,
  0x7c797f81756d7b82U, 0x71807b838a7b7b8dU, 0x7d7573737176737bU, 0x84817b7d7c736f78U,
  0x6e7d7b7875777b79U, 0x807a7880747a777aU, 0xadabae9e8c777083U, 0x92828d7d7d97a9adU,
  0x707c827c72727a8fU, 0x7680887f796f8b7fU, 0x6e766c736e737f6fU, 0x7377897e777a7771U,
  0x74847d7581928e78U, 0x74837f77887b7c7cU, 0x868076807c7b8676U, 0x70817d747e777577U,
  0x7d7783787f7d8086U, 0x7d7279787c7d7a7cU, 0x777f72938a857972U, 0x78787172717f8378U,
  0x6e80737f7a7c8080U, 0x8972707a79787b81U, 0x877f8280767c7081U, 0x8392837b747a7385U,
  0x817a706e7271777fU, 0x837978747d81757bU, 0x767776787c897674U, 0x8a838c8789727a85U,
  0x897c7c7b79807983U, 0x82807f7b7b738188U, 0x727b6f74726c8371U, 0x77757b817a7d8182U,
  0x83817a757a817b8bU, 0x7775777a727a747cU, 0x7b7c7778797b796eU, 0x7e7c87827a7b787aU,
  0x7b7f7d7f7684727aU, 0x756e726f6f7a737aU, 0x867171717a7e8a7aU, 0x7d70707c7f7e807cU,
  0x7d7e797e85897e8bU, 0x73778c8378767683U, 0x80777b817873767fU, 0x75777a8673787b7bU,
  0x7e7f7b8a7c87787bU, 0x897b79717a807c7fU, 0x726d777e7f827f83U, 0x747d7d817d7c9080U,
  0x7e7c787a8187907aU, 0x79818275878c7f84U, 0x76757d6d73797c88U, 0x6d7e817d6d7e7c70U,
  0x7574737c7b7b856cU, 0x86796e7284857d7dU, 0x777a7f747a817a7dU, 0x797c7982837f7a6dU,
  0x727a89836e7e747aU, 0x80707e7f8976737cU, 0x7e8384777c6d7182U, 0x7b7a85786f6f677fU,
  0x807a72767b7d7a77U, 0x7a7275767d777b79U, 0x7a7c7c7f72877d7aU, 0x7c6f73806e7e7d8aU,
  0x778e7f7e8181877bU, 0x83857779807f7d86U, 0x7d7f7c7f7d787c79U, 0x7973817384847e7aU,
  0x82827d7e7d7a7d7fU, 0x7f7f75727c7d7c77U, 0x827f705d5f5c6174U, 0x7f7b7e767c847f76U,
  0x777b89797e7c8492U, 0x767b7c797d706e77U, 0x727b7d827e797a7aU, 0x8c80787579867b80U,
  0x7878727c6f777c84U, 0x787b817e77766b6dU, 0x7c88857d7c8d7078U, 0x7a74727c7b808b8dU,
  0x827a85747c817e7bU, 0x8480778b8a7f867fU, 0x7d807e7b797a7a7aU, 0x7a7f888777747c7dU,
  0x6e836d6e79837a82U, 0x7f8c84857c787177U, 0x7c737d7e7075827bU, 0x80837f857b858b81U,
  0x7f878589837a7d83U, 0x7a807f747d777f7cU, 0x7871878483857e7bU, 0x86898478828a7b79U,
  0x7d8385916f757a7eU, 0x7a7c857b7d7a807fU, 0x747f7b7a8288777eU, 0x797f817f877e7576U,
  0x8678727c7d848088U, 0x7978787677736e82U, 0x6f757a757b797b77U, 0x6f746f7474797676U,
  0x7a77827d75777f7aU, 0xb8ab977779797c78U, 0x817c85a5b6bab9bbU, 0x748e797b78706c7bU,
  0x7472767182847c80U, 0x7d6d7c7b787b7e84U, 0x7c857a79808a797bU, 0x746e789d91737c78U,
  0x7c8e898884747572U, 0x7e7b707a75677177U, 0x7c7d82837c7e756eU, 0x778075827175817aU,
  0x74727e837b728679U, 0x75747f83746d717dU, 0x7a737c83897f7180U, 0x74827c767b776b76U,
  0x7a738282888b7d7fU, 0x79797c867c878472U, 0x757c7f7579817280U, 0x7e7e777173797478U,
  0x788078777e88877bU, 0x837a806f76768278U, 0x7f7e72717a7d8072U, 0x6d857e7682838381U,
  0x8177717c87827d6fU, 0x818084797b747989U, 0x8078797383818a7fU, 0x857f7f897d7f7482U,
  0x74828186777c6b77U, 0x747674757c787974U, 0x88807b7a787e7e7bU, 0x767178797e818086U,
  0x7c85807e80828177U, 0x7d7b81828d8a847dU, 0xb9837871878b8380U, 0x836b7b8977777dbaU,
  0x71796c7b7f798286U, 0x7b7b8776817f6e6eU, 0x7a7d7e797a807980U, 0x87727f8b8a9b9a8bU,
  0x7a7574757983887bU, 0x77717f827c7e727dU, 0x89837e847b747e7bU, 0x7a7d7c797d6f7c7cU,
  0x7d6f7c8282787673U, 0x828b83727c787d7bU, 0x797c7e707e727885U, 0x7a80827476777d77U,
  0x7a68778478807b75U, 0x81797e747e757778U, 0x817f7e7f7f7f7a84U, 0x837a7b827d726d7aU,
  0x78867c7177797986U, 0x7c747e818b858077U, 0x757d70847c7c7f78U, 0x797b837c7475777dU,
  0x7f7679817f827a79U, 0x79797776737c8371U, 0x827973777c7a837cU, 0x7f78847f81877d77U,
  0x757270737f837580U, 0x7f6f7e7f7d777a7bU, 0x636c71767f788081U, 0x7c7a7a7979706e71U,
  0x7e838378857e7077U, 0xa7c2bfbeb291878aU, 0x6e8a8f787e7b858cU, 0x7a83697b766f6e70U,
  0x7e7f6d7b7d837e7bU, 0x7a717482817c8077U, 0x8375736f7a857a76U, 0x6e77857e7f7c7c7dU,
  0x8c837b7c827b757dU, 0x888b7f747476686dU, 0x7b8c84836b7b877dU, 0x8078768482737179U,
  0x747c747e79737a84U, 0x7b7c7f80717b7272U, 0x747a6c78757f7f89U, 0x78767d7279766c72U,
  0x7b797a7d85898077U, 0x857672767e828575U, 0x7a857c7d827b878eU, 0x8c82787c8780837eU,
  0x837b82706d7e7d83U, 0x7e7f858e787b7b7eU, 0x7886837c7f808095U, 0x8a7c7b828a76786cU,
  0x887d7e7278818a86U, 0x71827f6a79708082U, 0x747d8080827b747cU, 0x8f7a817475737f85U,
  0x77737172727c8589U, 0x837b767783898280U, 0x76757d75797b8985U, 0x7e7180776e6e7982U,
  0x7863827b7e7a7e80U, 0x847574777a797974U, 0x8878868287797177U, 0x7985787a7c838780U,
  0x787a8674816e8682U, 0x866f677a846c7b7eU, 0x86716d878a7a7c9aU, 0x84828c836e848883U,
  0x7e727e827b80807aU, 0x766f847a6a8f8078U, 0x717e79868280877eU, 0x7c77866e6d808077U,
  0x7c777e8083816a80U, 0x8084828687847a81U, 0x71777c77747b8286U, 0x7b7b7c7d787c8c82U,
  0x7d84777c79838571U, 0x7f7f7c7c7a787c85U, 0x8b908b767d897c80U, 0x80857b766d7d7e88U,
  0x767478678e78897cU, 0x7e707880737d7988U, 0x8e886f7c7b7f7b73U, 0x7e7772736b8f7c77U,
  0x767e79856f7e8d83U, 0x7e7f7480846f8087U, 0x808a868e80838689U, 0x7e70767a8f7e7a7eU,
  0x8684787871727a7cU, 0x82848380817d8888U, 0x7d6b6f7373707080U, 0x68817265716d6672U,
  0x888778707f818978U, 0x7b7b77868c828284U, 0x7c6d6e77796b5e72U, 0x7e6e7b897d816f80U,
  0x888387828b7f877bU, 0x8180838173768396U, 0x7b777d7a746e7787U, 0x7f767572787e8a77U,
  0x7b7c737179828d86U, 0x7672737688857f7fU, 0x686a828a7e74737aU, 0x7981738276737573U,
  0x7e78747770847f71U, 0x798e8f857e767680U, 0x77827d7071787a74U, 0x757d89856f717a7cU,
  0x8281807c7a7c7978U, 0x7c797f827d7e7576U, 0x76817d7574818585U, 0x7b7b7b7a78837874U,
  0x747d82807871797aU, 0x7d80737b737b7979U, 0x7b817d7a80878e7fU, 0x7587767e847a7a7eU,
  0x7c7b767d6f7b767aU, 0x72757d776e7a7f7aU, 0x827a7b7e877b726bU, 0x8286757d79827d84U,
  0x7e807976837f8683U, 0x817e7a8081848580U, 0x6d8176797d6d7772U, 0x737b817a827c8774U,
  0x7176777a7e837c83U, 0x7d72756d7b867f71U, 0x757d7d8482857d8fU, 0x867f717375828188U,
  0x7785767e7e777c7bU, 0x6f7179787a7d8088U, 0x678177847b747775U, 0x7680747f8f85866dU,
  0x75757a7c74897174U, 0x7f848e8c77878482U, 0x756f7d8784767f7dU, 0x8d7c808179747864U,
  0x7077927f7b797b85U, 0x797a7a82846f7a71U, 0x87797e857b7a7b8eU, 0x8582857a757b7f88U,
  0x737e888584747883U, 0x77737976827e8082U, 0x7e8b827877798082U, 0x837a7986777b7c7eU,
  0x7e88837e7968749bU, 0x757182947c717878U, 0x77887b7c7d81857dU, 0x8081777d81736e7bU,
  0x8275698180778a79U, 0x897d7f7779786778U, 0x757c758b84797d72U, 0x7b7f828877798284U,
  0x82787e767a7e7d77U, 0x747d7479757e7380U, 0x767a7e727e74746dU, 0x84707d7b837c817fU,
  0xa2bab7b8a8957e83U, 0x8659598b727d8d88U, 0x807976696f6e7e7eU, 0x827f8083817d7c7eU,
  0x7c81797576788872U, 0x867e7071767c7a75U, 0x797f7b6b747d8385U, 0x8c7c7a7e74837484U,
  0x8a84776a79847d87U, 0x7875748188768483U, 0x857e7b737176797cU, 0x777d7f7976827380U,
  0x757c717b7b72876fU, 0x846a6d7c88777876U, 0x81877e7f80737b80U, 0x827f83817f7b7d84U,
  0x7c817c7b6e7c7e8eU, 0x7176768782768082U, 0x7b7e857c82817b73U, 0x7d7a73736f8e8374U,
  0x807b7f747776747bU, 0x82837b7a76787b82U, 0x776e7b886c82827fU, 0x767b6e7e7a7f8779U,
  0x73808f827b85927eU, 0x696e73837a898085U, 0x787d867b7f73797fU, 0x7f74827c80837880U,
  0x79767b7778757b78U, 0x82877c7a7f8e7676U, 0x7d7f7f6e77766d73U, 0x8a87827d7c797876U,
  0x8389776d6a697081U, 0x6b718ec4ba8b7e6cU, 0x79748c7b7775737fU, 0x797b827e6e83757fU,
  0x77776e7a727e7e71U, 0x8c9e9b8c7d75787fU, 0x7b7c807a868a7f74U, 0x7b76788981767372U,
  0x75807a7c7b78827bU, 0x77748a7281787c79U, 0x7b72808479797e75U, 0x837b747677797c83U,
  0x6c777877727d7971U, 0x7a848b7c7d717f6cU, 0x7c77737a887f756bU, 0x7c7b68768076747eU,
  0x7987807278807f83U, 0x7a817d737e7b857cU, 0x7c7d7c7b7d7e8278U, 0x8580817c70737380U,
  0x78807d8683727c88U, 0x818b8e7f7f837774U, 0x7d7972776d727e7aU, 0x7b777e7280838e83U,
  0x838a7e77766d7d79U, 0x7a83746e7e7b7d75U, 0x7a827d7d7a8e8275U, 0x7d787c78706f6d6dU,
  0x6f74807f80878888U, 0x7c7b7f7d746f7071U, 0x7d7b7f737c817181U, 0x988e847a7c777e7eU,
  0x7d7e8c90969c9b9cU, 0x7c80797687837582U, 0x818179787b838170U, 0x84796f766c787c7dU,
  0x7d8682797f7a797dU, 0x768074858c7b7080U, 0x77777280747b7e80U, 0x787d787b70727e76U,
  0x7974807871898284U, 0x676c6c7c7d77767eU, 0x7c6e737a87897879U, 0x8a84847578718181U,
  0x7a6e7d777c789490U, 0x6c756a7e867f7d70U, 0x857e716e6a717360U, 0x807c756f798a767eU,
  0x7d7e897974748687U, 0x797c838384837678U, 0x78687a7f7f7a766dU, 0x767d7e7d7a70656fU,
  0x78807a8073726368U, 0x7c6b706b81727376U, 0x817a7f7e6f7a7c70U, 0x7b727f7c84716987U,
  0x758a82867f7b7175U, 0x847f7b788c7d727bU, 0x7374777e8384827cU, 0x7b78757471736d6fU,
  0x776a6b6e777f7879U, 0x7a767d7b7a7d7179U, 0x797f807a7971787eU, 0x6a686e7b86747772U,
  0x6b88787a7f756c67U, 0x738686867a788366U, 0x77737c78877c817bU, 0x79767b847e7c746dU,
  0x83877b8a85837f78U, 0x7a887a737a7c7579U, 0x767b868f807b7b7dU, 0x7c82718b7a80777dU,
  0x7974747c737d7881U, 0x737e81817a7b7c80U, 0x7f85887e867d8186U, 0x7c787278887d7b88U,
  0x6e74826e73817f7aU, 0x7e82677d7e85727aU, 0x7a787e767f857982U, 0x678a8b7980827c78U,
  0x8d8582747a74757eU, 0x838c7f8185818277U, 0x88847e7078737184U, 0x7e708c7f7269837eU,
  0x7f857c7773687188U, 0x80888e8489798473U, 0x7186817d786f7783U, 0x7f84808186708274U,
  0x8579867d897b6e7bU, 0x6f7c807f7c717281U, 0x6d6e777078747986U, 0x807e7e7a74767777U,
  0x7e84887d837d837fU, 0x7b717b847f7e8685U, 0x8e7c727d7a807a7eU, 0x888a8c9187978986U,
  0x7eadaf77828a9691U, 0x867e848175877580U, 0x7a7b757a838b7b88U, 0x7f777c7073676f75U,
  0x9789847475818289U, 0x818c847d84758492U, 0x7b7f797c80718680U, 0x797e7676727a8080U,
  0x7b8784888c7a8477U, 0x7373757b73798b87U, 0x7d7d718d75657173U, 0x6f74828985807771U,
  0x767a7981816b6870U, 0x7277828486867b84U, 0x7f8188847486977cU, 0x7e787a8a847e7c89U,
  0x6c6a7d7587757f81U, 0x7d82778483798574U, 0x8d7d776e7d6a8486U, 0x7a777881868b8176U,
  0x8c76757e76778578U, 0x76887f7e918d847cU, 0x8073857f75827f79U, 0x766671857a8a7a8aU,
  0x8e89817273788586U, 0x83797272767c828cU, 0x7571767a7b75867eU, 0x7375757f7b767a79U,
  0x83838486847b7e7bU, 0x85807e898789867dU, 0x72887b786e827e82U, 0x867b6f6e6b6a6a71U,
  0x8979756b6b85787dU, 0x826b74767f828883U, 0x7a78766d78878784U, 0x7a73797e76737b75U,
  0x8387857a70746a66U, 0x7b686b777c7e7672U, 0x7a74887b8880877eU, 0x7778747e7886737aU,
  0x76726f7b7a7c7585U, 0x6c79797f8072716fU, 0x837a7f787f767878U, 0x73787b7276767682U,
  0x7a79787072806e74U, 0x838c806f83807579U, 0x77878a8981707886U, 0x70726d7a8e7c7e71U,
  0x6e7771827b78827aU, 0x797e81777a76826cU, 0x6f7d79798282747bU, 0x727e7d747d8c837bU,
  0x7e7b74787d817b70U, 0x797d777075737585U, 0x7f726a7c7d79826fU, 0x7b7d72807a7d8678U,
  0x847a84847b837f6cU, 0x7c8d7383817a827bU, 0x7a727a7373767b7bU, 0x847f7d767d877a77U,
  0x787d787a7a7c8287U, 0x7f7e8e7a7c777487U, 0xa6aba488787f7f81U, 0x8a898ba2a5a3a1a0U,
  0x767f76767aabb27aU, 0x756567707b777b81U, 0x7a727987817d8483U, 0x79797a8e6c6c7d7eU,
  0x78768cb7b075707fU, 0x6d707f7e79777581U, 0x7877747d83867e73U, 0x75787e8c7e867073U,
  0x7178717d7b6e7580U, 0x828c867578787d86U, 0x847c827a837b7e77U, 0x737d7d75907e8a7fU,
  0x81877d72867a7876U, 0x7f727c7585858084U, 0x788b7e82807f7773U, 0x76798d75767b7d83U,
  0x8166698477818677U, 0x77748473777e7d7cU, 0x76867d80747b7878U, 0x757c7a827a7b7174U,
  0x7c7776747c74858bU, 0x7676777b6f777673U, 0x7165727d7b7c756dU, 0x8170707c8e80746fU,
  0x7b8e778185747882U, 0x81837f777975706eU, 0x7b7f7d7b7b737174U, 0x70787a7878787e7dU,
  0x7e88757579777978U, 0x7b80747771707d88U, 0x71748479747c7878U, 0x8870867a7b7b7b72U,
  0x7f80847f877e688bU, 0x868080837673788fU, 0x887c7b6e74708078U, 0x6e7e79807f7d7f83U,
  0x7c836f7f78828882U, 0x877f80797d828a7bU, 0x7a76798072767e86U, 0x767480827f7d786cU,
  0x8782807a7e77847aU, 0x7f7e7c7d7e7d7286U, 0x7a7b7689898c7c79U, 0x7e7c7b85847e737dU,
  0x747f7d7073816c71U, 0x7e75757a7a817770U, 0x7a828181877f7c79U, 0x727c8a827f757d71U,
  0x847d8081827f7a85U, 0x8187787878757e7bU, 0x7c85827b7d727c75U, 0x746f737877807d7fU,
  0x817576757571777dU, 0x7a747e8271736b77U, 0x807f7c707580777fU, 0x7677787a7d7c7c80U,
  0x807d7b8285737379U, 0x73796e7c79798381U, 0x7980797882807578U, 0x7a78857c7d7a8081U,
  0x80797e84837f7878U, 0x827d726f80837f82U, 0x7e71726f7879888bU, 0x74877f73747b7d83U,
  0x668c7e837b817676U, 0x6f7f7f6c7580707aU, 0x64697c86837e7b6bU, 0x7d7c8689808b8671U,
  0x7b827f6b7980766bU, 0x727f817271747f7cU, 0x77737b786d788165U, 0x736f807b6b85908cU,
  0x788c84858c79867eU, 0x806f697c78656568U, 0x747c6d6a72838b86U, 0x768984797c7a7379U,
  0x716c7e75737f8b6aU, 0x83807c656b85777bU, 0x88848f836e75766fU, 0x818685818e89897fU,
  0x87726f8581888283U, 0x70747a7e8771737aU, 0x6e72757777858b6fU, 0x8080877372658276U,
  0x836a7b7c83916d7eU, 0x6b737c71787b858fU, 0x777d796e8482746cU, 0x7e777d7278787a8aU,
  0x6e7e8c8e7886816bU, 0x7c817e7b75768d82U, 0x857f847c86837379U, 0x817c7d79858f8787U,
  0x8180827888847d8cU, 0x8682877d7f7f7984U, 0x6c96988282848b97U, 0x74798799a27b857cU,
  0x747a7b667a828386U, 0x667367868a7f6f6cU, 0x6c738e7a86857d79U, 0x89939282746d7676U,
  0x96757d6d6e72798aU, 0x7981887480757e85U, 0x8385706980727f74U, 0x8082637a757c7b7cU,
  0x876f7485787a827dU, 0x7f7a7c7b7689877dU, 0x8c72818087776c72U, 0x827a7d7987878888U,
  0x917b797d75776f74U, 0x787f7f8285707c82U, 0x7075878481737977U, 0x856f7b8d7f84797aU,
  0x7781848a7986837eU, 0x8181767c827f8279U, 0x706e787b74736c71U, 0x7b757773707a837fU,
  0x787b7780767c7e70U, 0x7c7b6d82807e7f7dU, 0x777d7384737f7981U, 0x7d6f858c7a798878U,
  0x71727e716f8c7e74U, 0x757e73757c7d787dU, 0x767d837c7d797d79U, 0x797f7a857b6d7777U,
  0x717a7369817d7276U, 0x858e837a7385715fU, 0x666d888090817e7fU, 0x8876696f68625c67U,
  0x9082677e866e768dU, 0x827a7071898f7a79U, 0x898482666c716e89U, 0x7d82877e7f7e6c7bU,
  0x867475766e6b7572U, 0x7075657d7c84847aU, 0x6c7982807f818679U, 0x7a82766e827c7371U,
  0x887979868b737692U, 0x7d858186876f666eU, 0x7f837a6d738a778aU, 0x6b737d756b787e7fU,
  0x947c7c7775708d81U, 0x7b848c7a74788082U, 0x8075716677746f77U, 0x7b79758575848c7eU,
  0x707d7286787f8175U, 0x6d7c7e7587767a5eU, 0x7a777c8382858b6cU, 0x8f80877b767e8077U,
  0x73878f86847b7787U, 0x757d9089717b8878U, 0x878f84878c75686eU, 0x7b7c8a858378767cU,
  0x6b656f7189827b7aU, 0x7e85777b7d707077U, 0x827c7a7a787d757aU, 0x78727a7a77787572U,
  0x78746f74746d7482U, 0x8385839081777d7bU, 0x85856d7c8d818383U, 0x87848e84807e8092U,
  0x817783787d828977U, 0x74718f867475837aU, 0x786c7f888676777dU, 0x887e6f756b89857bU,
  0x80837a757978868bU, 0x8581968b84787387U, 0x818c7f84787d8088U, 0x7272818886778e92U,
  0x8775747778747687U, 0x74778385807b8276U, 0x7b83827b7d778169U, 0x7164677982848379U,
  0x7a7c6b7376976565U, 0x807e868585817a84U, 0x818e979891808d86U, 0x80818e837e7d867cU,
  0x817d748179768a7bU, 0x847d8b86938e767dU, 0x7a76776a838d697eU, 0x7e757f77797a8c84U,
  0x6c816a7a908e886fU, 0x727a727e876e8087U, 0x78867d76797e7877U, 0x6f7d88818c738478U,
  0x696c6d728b838981U, 0x6e7372748077737eU, 0x777a796f69737272U, 0x757c796e6e75756fU,
  0x7d726a7779706b77U, 0x737c817e7e6e6e77U, 0x77626887736f6361U, 0x8586928380798281U,
  0x7f7b88867c867871U, 0x8d86878688877c72U, 0x6571778171898c91U, 0x7b82847a7271776dU,
  0x7375797f807e7571U, 0x6e77878578787266U, 0x716b806f7c888679U, 0x82828e8276777073U,
  0x7076727a84768d8fU, 0x788588856b7e837fU, 0x818376878b7b7782U, 0x7975726c7a71857dU,
  0x807772798880837bU, 0x786a848483767a7cU, 0x757578787e667b77U, 0x75717a6a7e7e777aU,
  0x7e7371787c867f83U, 0x847e7f72717e8c7bU, 0x7f777669797e7d78U, 0x757b82778291868bU,
  0x868d7b8e74707b7bU, 0x707777716e73737bU, 0x7f847471786f7a7bU, 0x7b817d7b85757270U,
  0x8c756f7577738e81U, 0x737179797f7b7d77U, 0x7b7978757d85957fU, 0x80877d6c75727879U,
  0x7671816e75897b70U, 0x817b818c8e8b8485U, 0x6e808285877c6a7cU, 0x7f8483787583827bU,
  0x75797a86848e7988U, 0x74726f88926d756dU, 0x7076706a6f7c9188U, 0x8c7d757d65717c6fU,
  0x757e788b948a868cU, 0x6b75688a807f8d88U, 0x7e81878074807f85U, 0x7f8d807a837a8c81U,
  0x81758a9593837389U, 0x7a70677d7a6e7b89U, 0x7581869178777389U, 0x88756c71818e8f7dU,
  0x6e6c7b6f7e7e837cU, 0x7472858777717472U, 0x847d7e7d71786d71U, 0x84808275747d7e6dU,
  0x7a7a7c987476707fU, 0x8178717d7c7d7a7bU, 0x7f7e84897e888687U, 0x868d7b787589847fU,
  0x7d837e838088917fU, 0x7c7a7d76707b7479U, 0x796f688068847978U, 0x7d7e898272768377U,
  0x7f80807c7d7e7775U, 0x7b7e777a7a7b797aU, 0x7677787b86747b7bU, 0x7777767c817e817bU,
  0x727f878872717975U, 0x7d827f88826f6d70U, 0x82887374778b8880U, 0x818187808171766fU,
  0x8375637c7378827eU, 0x7e8a76828a808083U, 0x727f747f78768f83U, 0x6f74887780837a82U,
  0x737e7d7778858677U, 0x8279807a7a807c80U, 0x6d7f6e7f7f847b7bU, 0x7280887182777e6dU,
  0x89757974797d7c86U, 0x7a6d7f8a8876857aU, 0x807b858e82767d78U, 0x7671716a6f717987U,
  0x787f7e7777807c7eU, 0x7e74727d867d8288U, 0x7e8b838c807a6e7bU, 0x77807a7282757689U,
  0x79718180767a7374U, 0x737f7e707d858087U, 0x787f7482817a7d7fU, 0x7a8d7e76717c7f82U,
  0x69797c7375797582U, 0x726a7a77796b7984U, 0x8884836c82777a74U, 0x71787c70657d8384U,
  0x7167757d76777a74U, 0x777175767c7b786eU, 0x8277747d7a787e7bU, 0x81717f82827b7477U,
  0x9c9d9d9c91707b7eU, 0x5d84757f8593a499U, 0x8575597c807c825eU, 0x827877706b728384U,
  0x6e6e857374787d80U, 0x7b76787d80766c7fU, 0x7073837473808d89U, 0x7c85878c816b7373U,
  0x77727e7f7c71827cU, 0x8088858691848082U, 0x717a83797e808173U, 0x817b8086888a837aU,
  0x637c7e7e84797673U, 0x7475767370728d7dU, 0x897c71756f81807dU, 0x7f6d76718780898aU,
  0x7288817b707d8f83U, 0x7b6e76778d796f6eU, 0x7f81827f78777275U, 0x706e70827f6b768cU,
  0x81747178807e7b6aU, 0x81737c7987797d87U, 0x717c808c83898485U, 0x797d717373737f7aU,
  0x8c7e8288747a866fU, 0x6f8080796f766a84U, 0x7f77797d8986808bU, 0x79787c738580708cU,
  0x76766f7375807d7bU, 0x818a8a84817f7e77U, 0x7a7080787a7d8079U, 0x7c837e8082828c7cU,
  0x8480807f7d84857dU, 0x8bb7b57f7d7f958cU, 0x848482757892767aU, 0x807d7f816a707974U,
  0x7a7c7973776b8271U, 0x998777787d7e746cU, 0x7b8e76746b6a849aU, 0x7079807b79737679U,
  0x76747b7c857e8b74U, 0x757d797f8479757fU, 0x7e7176847f787f6cU, 0x827e757675726e7dU,
  0x7984707f6e6b7a71U, 0x8e7e7375707d827cU, 0x7879758385828475U, 0x7276877781807b74U,
  0x74807e8281797c7bU, 0x7c7c8f82786e8083U, 0x836f818585847a7cU, 0x73848f8180888885U,
  0x7b7f7f6e797e8674U, 0x7d8f8272878b7581U, 0x707e7f79827c8280U, 0x82798f7a727d767fU,
  0x857a757a7878797bU, 0x747c7e91787d8989U, 0x768382887d75837aU, 0x75767e79797a7e89U,
  0x868a87848285837aU, 0x8c8381747c7c787cU, 0x737a7981747f7c84U, 0x837f7c7c7b8b7b77U,
  0x878f9bacaba8a88bU, 0x7a847b817d79787eU, 0x877f7d778274776cU, 0x6d80868f8984797aU,
  0x7a7572768a7a7d73U, 0x828e8f87727b8183U, 0x7e8f7f8376767d78U, 0x8676767987737e80U,
  0x9276807985807485U, 0x768b7487847b7e93U, 0x6f797e8a72706883U, 0x787d867a7a738375U,
  0x7e77737a75818f7cU, 0x8882778188847f6dU, 0x7280757871706876U, 0x8372766f788e7881U,
  0x8a8671727b797d7fU, 0x927f87807584847bU, 0x7580897c74727279U, 0x727c6f767c848773U,
  0x7d7265727572746fU, 0x7b7a826e7c88707dU, 0x7972767d8a87707bU, 0x7e83857c81858b88U,
  0x7d7b80847e708684U, 0x7678797c84787487U, 0x8583857784868a7eU, 0x777278727c807b7fU,
  0x71767978787b7a79U, 0x7e858a817d7a7a79U, 0x7a767a6d847c8787U, 0x6166727381858676U,
  0x828b846a5d646566U, 0x82827686757f7b7bU, 0x8a7e796e70817f81U, 0x84807c7b74758482U,
  0x668393787981867dU, 0x8c80738d74777c72U, 0x8491667c7b7c8093U, 0x857470727486777aU,
  0x7d846e827c707f7cU, 0x747c787d7e7f887cU, 0x7d7e7977747f7f7cU, 0x8579647280787b80U,
  0x80797c7c6d6d7e85U, 0x727a727f6e757e83U, 0x6d6f687a71787c83U, 0x7b8a7d7c7973757aU,
  0x7f737d847b7c787dU, 0x867b797f80789088U, 0x8278816b6f868c8fU, 0x6f77868393817984U,
  0x89847879747a686dU, 0x877f7b7d7d7b7984U, 0x757a8f887a7a7b83U, 0x7b7b78777871787aU,
  0x71837d7f7a817f8cU, 0x7687806c7486886fU, 0x7a7d7b6f757e7c7dU, 0x817a76787e79797dU,
  0x7c747d7c7974767eU, 0x7a857b808285807fU, 0x79787e877d867880U, 0x959788857d7f7576U,
  0x71747d7e7a818393U, 0x767a75746f897871U, 0x80747c8271818581U, 0x8276828269758082U,
  0x6767717874767a80U, 0x6e7087747d777064U, 0x7c7273778e716570U, 0x857b7e8784778084U,
  0x857c8078687f7c7eU, 0x788f8d7c74798f8eU, 0x828b807d7b737781U, 0x7673867a75778986U,
  0x71837b8d867c849bU, 0x747f807e7b747075U, 0x7472767274807c7fU, 0x7d7c77797b7d8082U,
  0x89787e89927f7473U, 0x6d7f827680766c84U, 0x7975817880787964U, 0x6d80888672757274U,
  0x746f7c7e7d746a6fU, 0x8482878276798b83U, 0x818a7a887b8a8c86U, 0x777f736b6d757773U,
  0x7f6b70718a757778U, 0x8476797883786f82U, 0x757776767e717a7bU, 0x7c79757883777f74U,
  0x706e7e797d767f82U, 0x81787d7a76787d7cU, 0x716d79867d797582U, 0x7c888a8b85817c85U,
  0x797c797f81837880U, 0x706c787b6f7a7973U, 0x746976726d6f7f7fU, 0x727774766c75807bU,
  0x797c73778578767bU, 0x8672756a7f7c6d82U, 0x835f72796c7d6b82U, 0x7c7787858d7a6d7cU,
  0x8e7f7a8a89857a85U, 0x827f78726a717d6eU, 0x817f787487786b79U, 0x7e8578757d74777bU,
  0x70828e8376807b78U, 0x7d75648b7e827384U, 0x7f6c77797c77867cU, 0x7a7f71878e6b7677U,
  0x878384807e828680U, 0x787e757c787a817cU, 0x728096847c69776fU, 0x7e8084727c797d74U,
  0x7e848f86787f7f7fU, 0x75767a7574807985U, 0x74767c6e7f7d787bU, 0x7d7f868c8f7e7f83U,
  0x8779797b816c8181U, 0x808b876c686f777bU, 0x7d847d7d85748c87U, 0x747f7e817e85877dU,
  0x8d898979777e777dU, 0x827a788385898986U, 0x8f8e7d797f87867bU, 0x818181787e797985U,
  0x7b7f6f86867b6f84U, 0x7778827d6f72697dU, 0x7d777a737982747bU, 0x83747b847d6c7a7cU,
  0x83968b826d76867aU, 0x7d8184787b7f7973U, 0x898b80717d7f7e80U, 0x7c8180837b757880U,
  0x786e7c837b7b7b69U, 0x77677f8279807d81U, 0x7b8a8e7f8f807f72U, 0x7a786f87837e8c76U,
  0x6e8475817a71777aU, 0x82797b8373757e80U, 0x727d767a80698883U, 0x837a6f806c7a7f7dU,
  0x7d887d7878737062U, 0x6e7d7e8376777d80U, 0x8482809074858076U, 0x7b7471748d76817dU,
  0x82848b7278818684U, 0x86867a7d786f7c83U, 0x6d6a7274837b8269U, 0x8a89767e70697c6cU,
  0x7e72728381727578U, 0x8372837d87797887U, 0x7e787d7a797e8670U, 0x727573756c73797cU,
  0x7675737c6d757474U, 0x7e807a78777e7f83U, 0x948a847b716f8682U, 0x8b667674819fa3a0U,
  0x7683896e77846f65U, 0x8679798b6f7a8781U, 0x837d7a6c87857b7cU, 0x7b7a847f74707b80U,
  0x7a727e787a81797dU, 0x7e8a737485738170U, 0x81848177846f7f86U, 0x8b8178647c8b8977U,
  0x7d847570806e7a80U, 0x797d7b7773686d81U, 0x787f7d7a918e897dU, 0x7f816c6b91837b84U,
  0x728b797e86757178U, 0x867c7a817c7d7370U, 0x7689757e837f737eU, 0x757f8176737a896fU,
  0x7078858975728877U, 0x737c858081667488U, 0x806f78848581787fU, 0x758e767979757c6fU,
  0x79756e7278837f79U, 0x7681946b7e857d8eU, 0x7a7072706879787eU, 0x80787f69878e796eU,
  0x7881746d757d7378U, 0x717c75758c736e7fU, 0x6d7781787574767dU, 0x787772746d6e7d7bU,
  0x747171777a707578U, 0x767d7b6f6c727377U, 0x7b7b7773727d7b7dU, 0x7e80817c7179787eU,
  0x726f79787481806dU, 0x7a887d8175806f6cU, 0x836d808a7b928a7dU, 0x806b848480838f8eU,
  0x78797e7f8278797bU, 0x907d717b868c847dU, 0x6f837f7f8878857aU, 0x73787d7a797c898aU,
  0x73757e837674836fU, 0x8a7c7f707f857e75U, 0x8187877d836d8872U, 0x858474737477897dU,
  0x758278857d709476U, 0x876b76817f847b7dU, 0x8481947e82816b74U, 0x696e75787a7c7e7cU,
  0x857a7c78887c887aU, 0x8285777c8178787eU, 0x867e727076897c74U, 0x76797e81818c797cU,
  0x71866f777d82808eU, 0x8e6c778177797478U, 0x708180837b7e797eU, 0x7d847a7975707f7aU,
  0x7a7d7e848882857eU, 0x777b75786f7a7e81U, 0x7e7f777d80787677U, 0x7d7d7a747a787070U,
  0x737d807d7a7b737eU, 0x7c7d82776f7e7a7cU, 0x858a878891867c89U, 0x7c78807e767a827fU,
  0x798e887985818388U, 0x777e7d7a80817c74U, 0x757c6f7c7a776e88U, 0x82847e836f7a6f76U,
  0x8a777c807176837aU, 0x8a8e857b727f7d89U, 0x7f7c78717a708891U, 0x777b897c7e848276U,
  0x6f7b779072726978U, 0x797c7c7388718184U, 0x837c797c77867c79U, 0x7c7a7b6f6c897b82U,
  0x7576737983786e7fU, 0x7a808a7a807b797aU, 0x7f6c7089897b8188U, 0x75777d7f7b7b7f8eU,
  0x8e7f768483848076U, 0x867f74777c717282U, 0x8685777b74747f73U, 0x827a7b7a8780877dU,
  0x8e8a7f7c7f888882U, 0x7d7f708177768184U, 0x888077807a818278U, 0x7e7d82797f798a8aU,
  0x7f777e7a7d817173U, 0x7c7876776a787d71U, 0x7a7b85817078867eU, 0x827a7b7977787a7aU,
  0x878988898b887c7dU, 0x93947f808e918c8dU, 0x76766a141313527fU, 0x7d7c777b757e8176U,
  0x7c828277807d8a84U, 0x7f7c74797975777dU, 0x7a7b6c7486787e84U, 0x6871827c71727670U,
  0x766f7f80746c8282U, 0x7e81817e847e7a7aU, 0x727d787b88807774U, 0x7c7c7186837c7b73U,
  0x82818f8e80867779U, 0x7d7f86867b7e7975U, 0x7a7977777a79737cU, 0x82827f7c78708a89U,
  0x80787f7d81797a7eU, 0x7f7674747b7f7c84U, 0x7179768b887a766fU, 0x81747e7e757f8075U,
  0x8e757f76827b8280U, 0x8177808779706e7cU, 0x807f7c7f84876f6fU, 0x7276706d79717f7fU,
  0x638689757b7c7b77U, 0x7972727576727877U, 0x8c848979757c7d77U, 0x7775807c7b817a7bU,
  0x7f7f7e7d766f7b7eU, 0x80777c77757f7071U, 0x7777787c73757377U, 0x737d887a7776797aU,
  0x6e7e8c7d85857671U, 0xc69d7a7a72747f7bU, 0x83858b92accfcdcdU, 0x7f857c7b7c8a877dU,
  0x708670777c797e83U, 0x7e857e88767d8087U, 0x716b6d7672708f7cU, 0x7d7e866d6570868eU,
  0x787b80776b877372U, 0x86827b76657c7989U, 0x7176697c7a7c828dU, 0x83858378767a8a72U,
  0x7183898579788482U, 0x847b7b7677797d7cU, 0x858f827e78778680U, 0x79757b8a7a847e81U,
  0x838583677378897aU, 0x6c737b7e7c7b7d7aU, 0x817a716c807c7770U, 0x7f817a7e83827882U,
  0x7b7b7e888a817c79U, 0x898779767c7b737eU, 0x878681807f838d80U, 0x8a907b717d71727bU,
  0x6f727e917c838373U, 0x83737389887d7775U, 0x80718188827f7b80U, 0x7b729180716b6e6eU,
  0x74728e7c7c717c7bU, 0x7b7f847d796f7c7bU, 0x82818c807a767978U, 0x737a867a8280777aU,
  0x7d867a72796f6c75U, 0x8182777b72757c7bU, 0x787478707e737484U, 0x7c7a82867a887778U,
  0x7c82787b756d7675U, 0x7b81817d85777578U, 0x8278848272776c6eU, 0x6e767c84806c7480U,
  0x6f8182747f778284U, 0x6d7e757d7c7e7073U, 0x7e76737785787c7dU, 0x8c857c6d7e877777U,
  0x7d6b74817380837fU, 0x76776c7f86728082U, 0x8186867f777d8078U, 0x80747c7c7b818183U,
  0x7d92827f80807d7fU, 0x887a77787b8a7470U, 0x8a7e766c897b7385U, 0x70796e787c7f767eU,
  0x8e897e7772747e74U, 0x6a7e7f7b8081737eU, 0x6d767f86817d707cU, 0x80797b8679757072U,
  0x8577846e6977777bU, 0x76747e7b76718780U, 0x707a76748880797aU, 0x7d7b7578797b7d74U,
  0x7b817a76707d7782U, 0x6f7775787b7a747cU, 0x81787274766e7870U, 0x82758b777b788c81U,
  0x77777d6f71767971U, 0x856f706f797c706eU, 0x8680798387797a89U, 0x77887b717d7c7a89U,
  0x7864787b88847a66U, 0x7a7b817f837a7680U, 0x7b89847a86798170U, 0x706b8a797c778472U,
  0x7b847a7a7b717677U, 0x858e94857c787380U, 0x76777c8168636f85U, 0x778181877b837282U,
  0x7a75767d7873847bU, 0x71747e7d73719283U, 0x75798275706c7d71U, 0x79767c8876737e86U,
  0x78747d71776f8277U, 0x867d8e88807f7a7dU, 0x7d7d7b787980857dU, 0x847a757e7f7e7f76U,
  0x7981817a757d8682U, 0x8581748e80587185U, 0x857784858b847e79U, 0x7e78797e8278837dU,
  0x6c897d74777b7a7bU, 0x7f7d81887b737373U, 0x868f83827a8f6e74U, 0x6c6e7a7a6f7a9388U,
  0x7a8278797e7b766aU, 0x7b777d7a7b897a79U, 0x777b7f7d7578717aU, 0x87857f78837b7b7aU,
  0x95817f6c74798885U, 0x75828881807f8387U, 0x8179808d8f937677U, 0x7e84817761808283U,
  0x87828583917a676cU, 0x8e7373767c71738bU, 0x70787e7d7e7b8279U, 0x747f776a6a778275U,
  0x7b79788b70839188U, 0x7083827e7e827d7cU, 0x7264878778807d6fU, 0x716b7879957d7672U,
  0x83928187856b7a79U, 0x8c79776d7a797a7aU, 0x7a6b888578757981U, 0x857b7b73736f6b66U,
  0x7c727e82868c826aU, 0x7572857d7b7f838bU, 0x7476727e70748473U, 0x80877c7874748289U,
  0x8270787d7b6f818aU, 0x868a947e70867e75U, 0x7873748a9676777bU, 0x948a7c807c807771U,
  0x776e77868e7a797eU, 0x7a797e807b7f866eU, 0x8678767777878664U, 0x77807e7682797a75U,
  0x7f7e818479737378U, 0x7a7e7c797b7b807eU, 0x8581838388857e7dU, 0x8e8987858782817bU,
  0x87917e7f7879728fU, 0x737f857e907e797dU, 0x736f8e91897a716eU, 0x85966a7e73817675U,
  0x7c83947f6c7d8283U, 0x7c747b808582707dU, 0x8587786b777a8b73U, 0x7283847f7c7f7672U,
  0x7e767280866b797eU, 0x7b757d8f7e818678U, 0x7b7c866c71727473U, 0x6e707b7465757c71U,
  0x78776c837e8a7c7bU, 0x787782857e6e815fU, 0x8b989c7b71868c81U, 0x7d84877c7e787465U,
  0x8b8288726b7e6c72U, 0x8e72726d777c7d7bU, 0x787880676b6a797eU, 0x7a7c7b8179816e8bU,
  0x8667897b74817f7dU, 0x848e716e76817f79U, 0x8987757e83787571U, 0x7c7d7a76737b7874U,
  0x81857a596d807e7dU, 0x73856f767185878fU, 0x9382838677796b78U, 0x79797a738f818081U,
  0x7f807c7e787a777dU, 0x837c7f7784767275U, 0x72837182847a7f76U, 0x786f81897f7c7574U,
  0x8e9092878178717bU, 0x906f72798491908fU, 0x707c92827b829797U, 0x70807b8178737a6cU,
  0x82787f84827d8085U, 0x8a7c6c76786b7c78U, 0x8282738283908c88U, 0x78879280868d797bU,
  0x7a63797d82878a68U, 0x8b80767b7d8b7d79U, 0x7079878172748f8fU, 0x6d8778788079776fU,
  0x7f7f818b816f7271U, 0x817e7d8285858573U, 0x77837b867e748886U, 0x7a96848377777072U,
  0x68817d867f766c7fU, 0x7c6d6e7676909275U, 0x7475728a837f7375U, 0x7a81898882857a6dU,
  0x716c7e7d7d827666U, 0x828f857d827f8887U, 0x748d7d787a727281U, 0x8375787776727c6aU,
  0x79827f6b8c7d8d81U, 0x6e70888a817a7e87U, 0x867774787d73736eU, 0x78758182757a6e84U,
  0x797b77747c807e76U, 0x7e7e877f8882827eU, 0x7274837d7d7f7c7aU, 0x7e6e756e717c7874U,
  0x8383838586837376U, 0x6c9e977370746f7dU, 0x6e77776e76807975U, 0x7b81717b75677986U,
  0x7a8084917c787485U, 0x8177765d6e707870U, 0x7d73916e737b8d78U, 0x79746f76797d7569U,
  0x73897261827a7279U, 0x807f6f757a788982U, 0x7b7f667783828281U, 0x7c8c7c7e77717d7cU,
  0x737a7b7e6c7b727eU, 0x717f7e897e75857eU, 0x676f7b87917f8c8eU, 0x79726e8687877c6dU,
  0x7a778c7574897b71U, 0x7c858a8784887584U, 0x7a7f717a827a6f80U, 0x7c6f7b7c78767b84U,
  0x7b68757b8c817389U, 0x7e76817e797b7a7bU, 0x7a69817d7972767cU, 0x7e6d747f75707378U,
  0x70747d8181807f6cU, 0x728373858b79777fU, 0x7373696d7c807876U, 0x8083797882837585U,
  0x7f7d7e8480747b7bU, 0x777d7d7e7e7e8489U, 0x787e7b807a708387U, 0x65767d75787c7082U,
  0x787e9094979a9185U, 0x7c7a848a7f727f71U, 0x828379867a868375U, 0x8874667b807b7774U,
  0x807f807f7b807a80U, 0x7a6e6d726b7d8381U, 0x758080817d847c83U, 0x807781848481897eU,
  0x7e7880827d777a84U, 0x837d7470717b7382U, 0x8576726c7a718e8fU, 0x827c857a7b786a72U,
  0x857d7e8982817e7fU, 0x72817a817a908379U, 0x7c7679798678857aU, 0x7a79837f7b867386U,
  0x7d737d7b7a728f8bU, 0x7878807b78798480U, 0x72858a7c79757573U, 0x888271777f737787U,
  0x7e977f7d7c726d75U, 0x856b757d81747374U, 0x8b85797b7c867b8bU, 0x746f7176747f737cU,
  0x7d737973617e837dU, 0x8b767f7d7e7d7c7cU, 0x836f877e7f858c73U, 0x817f81767e7a8381U,
  0x7b817a84817e7f7bU, 0x8277797e72757e7eU, 0x787272717a857b7eU, 0x8a8672757e7d7572U,
  0x817e75888f908f90U, 0x6f737f867a67617bU, 0x75767f7d8884767aU, 0x6e6e787f7e8b727cU,
  0x777e8d927c87798aU, 0x7f7b84817e868089U, 0x7c7c7c7c807c7d7cU, 0x8182727077836e77U,
  0x7c80716c7f74787fU, 0x7e767c777b7f7c83U, 0x7c7e7d856f767083U, 0x8178787684817b6cU,
  0x7b7b77687b8d7c84U, 0x767c897471908e7bU, 0x7084777873798c85U, 0x81707372756c7272U,
  0x8283717b867c8377U, 0x7c767d7e7d797875U, 0x917a7f75707e798aU, 0x8675737c827e8874U,
  0x7c88837f80898084U, 0x768682847b807e6eU, 0x78826a7b75797d7fU, 0x71887b7c897e6b8aU,
  0x6d7e747b84746f7bU, 0x747c74706f82767eU, 0x7a7f7974837a846dU, 0x6a747f7a79787c81U,
  0x88827474675f6a77U, 0x81887c89736b8785U, 0x82807a7d7a777e75U, 0x4c4964798385857aU,
  0x807275837d7e704aU, 0x787b7d7d7b758f80U, 0x8284788c7d847d6aU, 0x76857a7a85878071U,
  0x73818070828c7e7dU, 0x7775726f7379827cU, 0x786c7f887a848177U, 0x817e7e777183857dU,
  0x8780827b7c838076U, 0x7c79717788847286U, 0x7d80827d767a7c79U, 0x7f72677c77798589U,
  0x8569777a797f7576U, 0x7c84807e717a6f75U, 0x727f71837f7f6b64U, 0x7885828082847c76U,
  0x7a7c7776747d7287U, 0x7d84776e83778072U, 0x857a777a6e727d75U, 0x807e7d77677f8c85U,
  0x878d847e6f6d7f70U, 0x8886787d8075827fU, 0x7f728c7d686e7b83U, 0x7682817f7b737d73U,
  0x7c82806e78787e77U, 0x80758075717d7e83U, 0x83847c7e80927276U, 0x6f675b7375768a83U,
  0x8595887d6d6f646aU, 0x72727077787b737bU, 0x7e807279726c826aU, 0x75575d5a65787981U,
  0x8c8c897b74868283U, 0x7f7d7c818c78677bU, 0x7477777c77878777U, 0x6b748481847d7987U,
  0x7c786f80857d7e87U, 0x878b7a6f7a7a8677U, 0x7983857e73858676U, 0x777a7f7a8c807f76U,
  0x897c7c747674736eU, 0x6d76777177787b86U, 0x89738682878e6d7fU, 0x777c7975877c756fU,
  0x7c88827e817e737bU, 0x7f7e7c747b779690U, 0x6670827e837a7974U, 0x807a6f83837c8079U,
  0x837a8d7870728574U, 0x8483837f7b83717bU, 0x6f7d7f7677678497U, 0x77727b72877f6f72U,
  0x7c778d727d737977U, 0x75737b74807f7b70U, 0x807b83796f6b7c76U, 0x80886c75787c7f6bU,
  0x7a76807e7d7b7d95U, 0x777f7e787e7b7a87U, 0x84828a7c7a807d88U, 0x5d5e637252577174U,
  0x7771848474696377U, 0x6d707573757c7072U, 0x798080807d6e7881U, 0x7b8992a49fa2a587U,
  0x807f77717a767676U, 0x727f817a7779807fU, 0x7a75777b88877d6dU, 0x778376797d7a8081U,
  0x746e79817f7c7c72U, 0x6f727d7e7c807c85U, 0x7e7b808380797a81U, 0x787881827c768285U,
  0x707a7d836d717275U, 0x8985777a837a786fU, 0x7f85747779788381U, 0x727088767d7a6e75U,
  0x7d887c7f7d6d7482U, 0x7a7f757177757a7dU, 0x7d7b85877a747d89U, 0x73847b807f7f7c77U,
  0x6e7570808174716cU, 0x8179787e837b8385U, 0x7d7d7e847c787f7fU, 0x807e78838279787fU,
  0x7c727c7d7c7d7a75U, 0x78767d767d758182U, 0x6e837e827d7a717aU, 0x74797b837775787cU,
  0x7376777d76827679U, 0x7d777e797f7d8877U, 0x7e7c7b80827d7d72U, 0x7a7c797e847d7b78U,
  0x747a75717b7d827dU, 0x7a797c7479776c76U, 0xa4917b7d787d7678U, 0x7a7c7b8497a5a6a3U,
  0x8189717c82827675U, 0x8e89766c8175827bU, 0x837a7580867d8276U, 0x7f807c868183887fU,
  0x7776747d7b79797fU, 0x777f7e7f7a767687U, 0x767c6b7d806f837bU, 0x757f707e7f757874U,
  0x7f7c768180828170U, 0x7771767075858b85U, 0x797077807988807bU, 0x747d768b7d77777bU,
  0x797b76767c7e897eU, 0x7c83887c767d6677U, 0x7b7a7f73787f7978U, 0x7e7380888076728aU,
  0x778586757c857d79U, 0x7685747f7c88837dU, 0x746f7175797c7d76U, 0x8184767c828a747dU,
  0x827d676e7b7a7777U, 0x898b9a877a84747aU, 0x727b817c78728087U, 0x75777a7783637477U,
  0x7d84727a8a788983U, 0x7b767d7e747a7c7fU, 0x777a787f77727779U, 0x6e707d777b797f7fU,
  0x81797d7c7b77807cU, 0x8c7a7a7b867e8083U, 0x8686807e747d8a77U, 0x4b8078737c717a84U,
  0x7a736c7e76757a4aU, 0x7f757f727f858c70U, 0x7975796f777c7f79U, 0x81807c817c7c7e7aU,
  0x777976707a7d767fU, 0x7479788c83847f7dU, 0x79768282867f7e7aU, 0x71777b817e7a7e71U,
  0x727d756d74717179U, 0x7c867f7b7a827376U, 0x7e7b787785747c73U, 0x7781837483757a77U,
  0x7175717d7b747475U, 0x786f7f7f817d7979U, 0x73897f7a7b7c8a73U, 0x83797377796c6f7eU,
  0x7d8277798875757fU, 0x7a807184897c7b7bU, 0x767978797c808f7aU, 0x89756f7983788489U,
  0x7f887f7679888182U, 0x76898281727e8476U, 0x837f79787b76766eU, 0x83847577847d7f83U,
  0x81797d7e7b6f7074U, 0x797b7d73778a7786U, 0x7f7e7273747e7270U, 0x7584858785797b78U,
  0x7b707d887b7b727fU, 0x8679798675777b7dU, 0x7f74737079889084U, 0x86c8bf8a8487948cU,
  0x827d7a776f818075U, 0x97857b7973787e7cU, 0x7c7d8c8784737e77U, 0xa09b787b75777176U,
  0x7a807a73726e849bU, 0x6b7d767482837a6cU, 0x82826e7b7e6e7e72U, 0x7d807d75736d8481U,
  0x888a858772767472U, 0x7a6f7b8475797870U, 0x847376837b707a7fU, 0x717a7f7976626d87U,
  0x7b77787e797f8681U, 0x7d82748384797978U, 0x67848783847c7478U, 0x82807d757e7d827fU,
  0x7e7f7d797a837a7cU, 0x897d7b7a7a787976U, 0x747b7d7f858f8e82U, 0x7e82787d7d848172U,
  0x817174777a7d7581U, 0x87757a84737d7978U, 0x7e8c7f7a7c7a767dU, 0x7c80836e6f868588U,
  0x78798185827f8190U, 0x75776e6b7280777eU, 0x7f8b86817a797477U, 0x7a7c6f74716e6f76U,
  0x7d7684827e767c77U, 0x8379818189858688U, 0x778686989d9c8b7aU, 0x7b79867583787f7dU,
  0x7377668b67777d81U, 0x847d748b827d7678U, 0x7d6b7271827d8480U, 0x70827e927f78747eU,
  0x7989786b7f74876fU, 0x908484767e6d7a88U, 0x776c7e7f7f876b6dU, 0x877a796973837b7eU,
  0x87767b8b727b7e75U, 0x7e86778584837f8aU, 0x6f8b807f84847f7dU, 0x7f6f7a7682867688U,
  0x886b7474857a8891U, 0x7f7c7e867b83898dU, 0x7b75857b717c7b84U, 0x8273737c817e827fU,
  0x8d7887846e75828eU, 0x8667737c7d848c8bU, 0x688c797f7c757e73U, 0x8d797f797e786f75U,
  0x8485827e84817a83U, 0x69847f8f8688857eU, 0x8c8579767a787e74U, 0x788179727c7b8586U,
  0x80777f7c8781897fU, 0x767c7f7e70707188U, 0x8385868184818f7fU, 0x837d7b7d6e71827fU,
  0x84797d837e798075U, 0x717f7a7c7a7b7489U, 0x84737c82766a6a6aU, 0x788784676e877d7eU,
  0x737b7c85867b8978U, 0x84858880787c867cU, 0x8183817181747d7bU, 0x7c708082797e697cU,
  0x818074717c72768cU, 0x7d767b687b767588U, 0x6d868685929e8577U, 0x798678707b827e63U,
  0x80857b7f7f726b76U, 0x897f78717e7e807eU, 0x8985719282788084U, 0x7a80838b897d847fU,
  0x76817381807c7368U, 0x897e817c797e8690U, 0x7d77857d7178746bU, 0x84847b7e69776f78U,
  0x71746e786d71757fU, 0x8e757776767b7883U, 0x82877d658c816f81U, 0x7d7e88817379748cU,
  0x7c797a7f7a788979U, 0x86907f7879797184U, 0x746c7f7473859075U, 0x7c7f887f7c787f82U,
  0x777c7f6b8078828dU, 0x847c787a74777069U, 0x6e717a788887837eU, 0x6f797d7576757a72U,
  0x83817c7177817770U, 0x9e998b796e7b7c84U, 0x717471736c6c839aU, 0x738373717878756eU,
  0x8d8b716e81757d85U, 0x72787b7d7c807673U, 0x758681987e857876U, 0x78727b7e817e7a7cU,
  0x7a7e866d7d77718cU, 0x72797e786e7b767cU, 0x7d6f807f7e6d6b7bU, 0x7e6d77886f768593U,
  0x8b8977807a798073U, 0x7b82868a71728488U, 0x947d7c80868d6f7aU, 0x8878687c86798b89U,
  0x82829180747a7174U, 0x6f7685737a8b838fU, 0x8183768d7a808472U, 0x778782807f7e7e7fU,
  0x7e7d816a767b7f82U, 0x6f86818b82837e7cU, 0x77747d81787b7081U, 0x8f8a81788b827e78U,
  0x7b7a707d7c777780U, 0x7b7a7e817d807d7aU, 0x796f7d7e7e807f78U, 0x81796d6d797a8376U,
  0x747b747778768779U, 0x7978747d7c7c8175U, 0x847d7f7e8084867dU, 0x828175727a747d7eU,
  0x85797b7b7c877c87U, 0x77868887857d818cU, 0x778a82777a859387U, 0x7d837f8185807c70U,
  0x767c76776e747d85U, 0x7f846a70797d8086U, 0x889a7c7b6d727882U, 0x7e817b8282756688U,
  0x878583777f81776fU, 0x766e74727b796970U, 0x7b787a8286796988U, 0x876f6f7d6a70756eU,
  0x7e7c758596877e80U, 0x6a7b7782727c7e7fU, 0x727e8579767b7671U, 0x7d7478836b906f88U,
  0x897a7c7b757c737bU, 0x697d8379776d7c77U, 0x7c737b7d77837686U, 0x7a6d79667e7f8890U,
  0x718c8a7d667e8d82U, 0x79806b727a76827cU, 0x84707e837572837dU, 0x7b867c7a827c8583U,
  0x717d706f706f8368U, 0x8684788788808c7dU, 0x787a6f777373847fU, 0x83897b837a74867dU,
  0x7c7775747c7e7e80U, 0x7f81737d84858176U, 0x877e766a7d828482U, 0x827b797773867e82U,
  0x87818674747a7f79U, 0x85857e7d7f7e797fU, 0x7c7b809095737787U, 0x7a7078866d636b79U,
  0x88717f827f636981U, 0x8a7a6c757069788aU, 0x83858c85818a857fU, 0x747b77757d7d7e76U,
  0x76747f7f73768375U, 0x7d7387746a70727bU, 0x7c808e7b806a7c85U, 0x767f838582726f81U,
  0x6d706e7b7d837c72U, 0x747e7f8b7b778b77U, 0x81897a7980877a77U, 0x738b8a90827d717bU,
  0x81788281818b8976U, 0x837b73866c6a788eU, 0x72817f77787e8882U, 0x6880877f72808374U,
  0x8d84756f68728681U, 0x7179766b72847785U, 0x777985817774858fU, 0x7a76827488726c63U,
  0x757a7d75728b8f7aU, 0x8983868681777d7dU, 0x7f826f7686858777U, 0x6f7e7e746f788f89U,
  0x797b7978777c7a7fU, 0x78867e7874777c76U, 0x7571777b747c7c79U, 0x867f7f787f83777eU,
  0x977f74807f838184U, 0x796b7d7a84aaa8a6U, 0x7977747078747e92U, 0x77847b7c65848a8dU,
  0x84847675917c7d7dU, 0x8b846f75767b7884U, 0x7c848f777a787b7dU, 0x837f89798272716fU,
  0x7b7c848b7e6d7f84U, 0x827c73707c7e727fU, 0x7e7a7c7a736d778cU, 0x7a9179686b61856cU,
  0x878575818781878aU, 0x78837d7775798683U, 0x72777b837e797b7fU, 0x737e8573777d736fU,
  0x737e787c737d7b79U, 0x80867d786981786fU, 0x777776848882806bU, 0x68838c727a73827cU,
  0x7681817c8387797aU, 0x707d7a8077667973U, 0x94776f7e7e7d757bU, 0x85938885828e8e8bU,
  0x79857b70767e716cU, 0x80707f738d837a80U, 0x7571826889828888U, 0x7a7b8377847a8a7dU,
  0x667f8c837a737887U, 0x7c73696176707379U, 0x7a79778786748386U, 0x8278717c79827178U,
  0x9998a48d7c83837dU, 0x817575787e919b9cU, 0x80787e7b7b827b87U, 0x7e887a847d827e75U,
  0x87788187737f7a88U, 0x77806d7775768487U, 0x7a7e847b7575767bU, 0x78877d828d847386U,
  0x6d7970776d797e76U, 0x8b7e7673748d7e89U, 0x79796d76797a7b8eU, 0x898485817c797b82U,
  0x8080827b7d7f8679U, 0x8d7b7274796f6b83U, 0x7b8b838473868574U, 0x7b826b7989897172U,
  0x787a847c7c767a7cU, 0x7d71736a79878085U, 0x71827e837d6b8681U, 0x747b7e87847c8671U,
  0x7b6d7f777d817d86U, 0x7a8a7b8175887c81U, 0x7a7e73847d747c7aU, 0x7f758181867d7878U,
  0x727a7b7885898469U, 0x757a7c7b7f90907eU, 0x828085798c88747eU, 0x8689827e6d797073U,
  0x717b787c8278777dU, 0x82807d796a6c6263U, 0x70696670707a727bU, 0x807e8b726c737572U,
  0x7a7f7a7d867f807eU, 0x6d797e88756d6476U, 0x7c75716f7980797cU, 0x6b737c757f786f77U,
  0x767a7a7a7b79677bU, 0x7d7e78777b797274U, 0x78846a707e7d867fU, 0x73727c6b7f74817aU,
  0x7f7981777b7b8382U, 0x7974898d79717a67U, 0x787771857670676fU, 0x6d667c7a8481797dU,
  0x7b82857e8676847eU, 0x6c7c7b7d847e7380U, 0x7a7e78787d807a7bU, 0x6f7b77777a847483U,
  0x797a868582767c7aU, 0x7c6972817d6f7987U, 0x6b76788a837c7c73U, 0x6e7c8a8d9385857cU,
  0x747f7f887876776cU, 0x7b7d79897b7d827cU, 0x79817b776c7c7f75U, 0x7977888575798190U,
  0x806e75826c7a806dU, 0x777b867b7b77778dU, 0x78898b7c7e6b7765U, 0x827e828b7a837574U,
  0x665a607664777e7dU, 0x737a8d857166656aU, 0x71807c7282916a75U, 0x8876777c82776a75U,
  0x857a7240393a6a80U, 0x8180898c88797e73U, 0x818584827c787579U, 0x768d7a8d8a717a7bU,
  0x807e7a777482847eU, 0x74748878807c8279U, 0x786f8277817e8876U, 0x7d7a858383847d8bU,
  0x747d77728780787cU, 0x7977856e787c7d7aU, 0x7a8381917d83827cU, 0x74857a847b807e78U,
  0x7c7a76827e7b827aU, 0x7a7c7581806f7878U, 0x72727470777f786eU, 0x72827d837f757d7aU,
  0x837c7e837c857f6dU, 0x8087807f6c747386U, 0x76707e7f7e757a7cU, 0x827f80817b7e7979U,
  0x7e737a757274827dU, 0x7e857d777574786fU, 0x75727e717c757479U, 0x7a80817a78777f7cU,
  0x8285897976787f79U, 0x7d7279767c767176U, 0x857a728380727c79U, 0x8181737a817a727dU,
  0x7a75807d827e817bU, 0x7f787b7877797476U, 0x787b888280777982U, 0xbca0858186787576U,
  0x7579738aaac0bfbfU, 0x7d797c7f788b8772U, 0x867978727f897b85U, 0x7781766c66777c82U,
  0x7a7781807b8a706fU, 0x807f88857c827c7fU, 0x8685867f7a6f8081U, 0x837c878988887181U,
  0x817c7c80747a7c71U, 0x707c7e7e77727283U, 0x77807e8171756d8aU, 0x716e7c78787a8178U,
  0x766f777a74847f77U, 0x85887677847f7375U, 0x787e756c80808386U, 0x83848574736f7a74U,
  0x71747f79806c7f86U, 0x8985737c7e797a78U, 0x7f7a7f7e7987817bU, 0x8084706a746b8d79U,
  0x7576788376748088U, 0x787b78737775838dU, 0x75797a7883747672U, 0x798c8886716c716dU,
  0x7c79727b776c7a7aU, 0x7273827e6d6d8181U, 0x7b788482816e6e70U, 0x767d837c81798184U,
  0x79787a82827b7878U, 0x8072786a7c847e7fU, 0x8080768487877a75U, 0x848477766f8b8976U,
  0x77797e7b6b757282U, 0x7a7d827871798477U, 0x7e73748280727d70U, 0x85737c7979826c72U,
  0x7b7270777c807b7eU, 0x787d7b787e6d6e7aU, 0x8c7c7b6a777c7b7fU, 0x70737383677d7b7aU,
  0x7b747689827b726dU, 0x7d85807b8181787bU, 0x7c71707e6e7b756eU, 0x79797f848d7f7877U,
  0x81777d84857e7f7cU, 0x797982827d797078U, 0x887a636c6f6e6a77U, 0x7c828782827c8488U,
  0x877d76718288727bU, 0x8889847883798789U, 0x70818f88917f728cU, 0x717262786b76867cU,
  0x7172757d7e7b8579U, 0x747d7f7b7b787a80U, 0x8d84807a8184797eU, 0x8282878388767f84U,
  0x836d7574737a7f7dU, 0x7372767d7870807eU, 0x7e7f827b77878a78U, 0x7a7b74857f7c847aU,
  0x767b7a7d7a7a7e71U, 0x8377918878898573U, 0x787d76877e7a7985U, 0x6e6767636e7c8277U,
  0x77736c6a6f687374U, 0x757a67736f727a74U, 0x706b736989838277U, 0x787777746a6c8382U,
  0x787a70777a847d6bU, 0x737478778d7c817eU, 0x7772888584877a75U, 0x7d807b8778718e8cU,
  0x707d6f75808e787fU, 0x81867e84908d7886U, 0x7771828376797774U, 0x877a7d7e80828289U,
  0x707778777b79807fU, 0x79827f7e846e687aU, 0x8489797c796e7f76U, 0x687a868e7d6c7d80U,
  0x8579747482787282U, 0x7e8282837a798881U, 0x778d80827e7b7b7aU, 0x74797a7a76748086U,
  0x826c798178788182U, 0x7c7a7a7a72736d88U, 0x807d7b75777a757dU, 0x8375827e73777e7bU,
  0x827b827c687c787bU, 0x768085787a867483U, 0x777b7a7a75807e85U, 0x757b82827e7e7a71U,
  0x7d7377747f7e7977U, 0x7f74727c6f757a7fU, 0x828180767a747a85U, 0x65798e8d8f8f938eU,
  0x8e787687916e7f7eU, 0x7b7c70807a827b7cU, 0x77717586787d7a77U, 0x757a8a7a71727b7bU,
  0x7f6d73676e758477U, 0x8084897a766f7578U, 0x76776f766f8b7d85U, 0x7d868a7c787f786eU,
  0x677e827882728475U, 0x8a6a8279658c7d74U, 0x7783848f8a806c8aU, 0x728077756f7b7a77U,
  0x847e7f7e7f888a82U, 0x8b7070776d767680U, 0x7c787172827b8373U, 0x7170847280827b71U,
  0x6d7086847c6d8d80U, 0x7e827f7f74766d70U, 0x73786b727b75726dU, 0x7d7e718284816b82U,
  0x7e7876757e7c7b79U, 0x7276747975788774U, 0x7c8185757772817aU, 0x757a837a6b757362U,
  0x80817982807f7e6aU, 0x857f7a7c85807a77U, 0x79707a77767c7c86U, 0x81887b807f828077U,
  0x89767f727b847e7cU, 0x8180766c6d727782U, 0x8a7d757e837e7b6dU, 0x86837275859e9f9cU,
  0x8887696e88756f7aU, 0x766d718670737e82U, 0x676a6777857e8764U, 0x7d84856b6672817bU,
  0x7d76816e6f92857eU, 0x76787c88735f5e8eU, 0x887e8281887a828bU, 0x6c8c8b7870907c7dU,
  0x836f76707a836e6cU, 0x6e79787886718783U, 0x827e888078797b69U, 0x867d64767b777181U,
  0x77858486765c6d8cU, 0x79827f757e826f7dU, 0x7885696d83747581U, 0x6d7c7670797d756eU,
  0x7d6d7278837e8c74U, 0x777c6f798f82777dU, 0x6f827b806a728789U, 0x717e7e7f97947588U,
  0x7b647e838d797775U, 0x6a6c78796c787679U, 0x776f8065736a797dU, 0x7970747879787b6eU,
  0x887d7c6f6b6d7184U, 0x7a827975807e8385U, 0x7a757677757c777cU, 0x78767579787e8982U,
  0x6d767f8a76757376U, 0x747067746c6b6d70U, 0x71707c798360766fU, 0x6e818b71798d8a71U,
  0x71817887767f806fU, 0x7e7982707b808866U, 0x8874717b7e7f7979U, 0x7376857e8d8b7372U,
  0x818378789289787bU, 0x778897837a7c8081U, 0x7f857f7f86867e73U, 0x64796a6a79878983U,
  0x736e75887e797679U, 0x827b7b7c7e847e72U, 0x717176798787737eU, 0x818b878c867d8084U,
  0x8774777971717571U, 0x8186808081897479U, 0x797f74867c7a9081U, 0x727f7b73736c8882U,
  0x7c79837b76777170U, 0x7079747f7d877b85U, 0x7a85826e7072777dU, 0x667178828a827571U,
  0x807377887568766bU, 0x7f75717781847375U, 0x797a7d7a7c6d747aU, 0x857a767577737d72U,
  0x7a818b8488817e87U, 0x747173787b87837dU, 0x817d767574786a7dU, 0x84818172767b8285U,
  0x857a7b7b7b827683U, 0x7e798e7a7a878882U, 0x6763646568738377U, 0x8677787b797c856cU,
  0x727c7d7483728f85U, 0x7f7e806e7b6b786fU, 0x6f776b7d86687d7cU, 0x868177757d806974U,
  0x797b736a837e8890U, 0x7b6f75887e707a85U, 0x73757f85767f8c7eU, 0x84727b7c766f7f73U,
  0x857c877d9180717eU, 0x7f81917670868f7cU, 0x7e7f7e7c82897978U, 0x786e80737d868682U,
  0x7773717576717b78U, 0x7877787580716a71U, 0x817e88757d837c80U, 0x757a867d867e6c7bU,
  0x837a7c7176717780U, 0x6f80807786908d7dU, 0x818c8c83787a716eU, 0x7f85807d7a808587U,
  0x7a8972838081847fU, 0x85847f837f7c7885U, 0x7d727c8194987a7dU, 0x766978807a7b7775U,
  0x7f7c837a736e777cU, 0x71827477727b6e75U, 0x7d7e7d797370747aU, 0x7a7d7e798182847fU,
  0x7f7f8380797c7f86U, 0x8f83757a79788484U, 0x7c8190898c8c868bU, 0x817176878274817dU,
  0x787a7b7586847375U, 0x88867a7a6a636483U, 0x70626b6c8c867f7eU, 0x8e8f8d857d77767aU,
  0x867d747572737676U, 0x776f87777d777b7bU, 0x737e8d888393806fU, 0x757c6e7b79878780U,
  0x76737e7b80878c80U, 0x8474707b847c8286U, 0x888688796c727783U, 0x7b857c717f917e79U,
  0x787986837974797fU, 0x83847e798276827eU, 0x72757e8590837d82U, 0x8d776e7883839784U,
  0x6d7668667d7f8473U, 0x737c818879748270U, 0x8072737d817d756bU, 0x757478828288767fU,
  0x887e858f706b7369U, 0x707181787b8c9484U, 0x8075767e7881817bU, 0x78778885737d8777U,
  0x79887176717e867eU, 0x7672707170758076U, 0x818175807b7c7774U, 0x7872788f7f827881U,
  0x767c7c79778b7f75U, 0x9d7e6c7d7d817d7dU, 0x84816d758ba9aaa8U, 0x6a72737b697b8583U,
  0x67767e80767b8c7bU, 0x7f6c777078788276U, 0x7a877a768a7d7e79U, 0x76747c7273837d80U,
  0x898279838a898581U, 0x646c5e747e677c7fU, 0x83797c837a7e887eU, 0x8175778380887775U,
  0x9080818077817e76U, 0x8d80857a76847f7eU, 0x85787d807b7e7f7bU, 0x6f6f7c737e94828fU,
  0x7f80716d7676756cU, 0x7b777573816b7f7eU, 0x767e857381798883U, 0x787b89818480697aU,
  0x82798d837b807d70U, 0x8672747f6c697887U, 0x74777d7f7e908385U, 0x858e8b82797b7573U,
  0x6f797a7f6b777c7cU, 0x747a6f7a8e737b85U, 0x7c86887583897d7bU, 0x807e7e7581657378U,
  0x77867d6f7c808d90U, 0x8384777b757c837dU, 0x7f817e7c797a797eU, 0x7d7a7e73747e847fU,
  0x8b8173767b7a787dU, 0x5c5b627b7e807879U, 0x90727d817a887b5bU, 0x7d867c8b778e7690U,
  0x717c8173817a7a70U, 0x72837a747f898b82U, 0x89847e867e798580U, 0x7b7b7e8a827f7972U,
  0x6b7d77777b787975U, 0x5c6e8080868c868aU, 0x8882908b86867777U, 0x77747485707b777bU,
  0x7b75717076668269U, 0x898b846c7c7f737cU, 0x7980807b83838675U, 0x808a85856a7c837bU,
  0x817b7c7c8585797fU, 0x7c83807b73767a87U, 0x818c7f8580867885U, 0x8b867e71838c8c8bU,
  0x8176797a84818086U, 0x8a8c84827c777082U, 0x7970727e76727e81U, 0x7f83748079877f70U,
  0x7c7d817c827d8180U, 0x7f74677a767f8482U, 0x707084828986767aU, 0x91937883847a8681U,
  0x7a78778982707979U, 0x79737a757d7f7d7aU, 0x7c777c75747d797eU, 0x777b7c6e717c7777U,
  0x7970767b817d7f7bU, 0x96959e9d928e7e76U, 0x8360637f7e7e808aU, 0x87737f74737c7a88U,
  0x7d897f757e7c727eU, 0x8071746e7475796fU, 0x74767f7a807e727aU, 0x6e7d6a6d92848680U,
  0x7e7f78796f78817cU, 0x887a7a7b85887c7aU, 0x7576737b8a828979U, 0x77787080897a8489U,
  0x7e90888d787a8282U, 0x817f7074767c8d74U, 0x7b867c7b7e7a7b7cU, 0x857d7c8c717b777bU,
  0x7c82807582787c7aU, 0x7c81797c777b827fU, 0x7277807e807d7579U, 0x7c736c7884796f72U,
  0x6f87857781919070U, 0x7a82857e7c8a877dU, 0x9084817b7d7e7d74U, 0x6e6e6889807a7f88U,
  0x857672867678746eU, 0x807e848581767e72U, 0x857e6c7a80907f81U, 0x7c8584817a687784U,
  0x807e837a77897b81U, 0x7a7677777e7c7e7dU, 0x7c8182898086857bU, 0x807c797e7f7d757aU,
  0x837b7f7b7978827dU, 0x8a81848885858486U, 0x7d78799fab8b8982U, 0x7b60728882828283U,
  0x7e7c7d7e7b837f7eU, 0x7470928b7768766fU, 0x8896998483848c7dU, 0x858c8879787c837dU,
  0x71876f7974748b72U, 0x6e877c7684776f67U, 0x77787a7c77748580U, 0x7b827e6a757f8584U,
  0x766f8d8e79717d76U, 0x79787b707d7e716dU, 0x7d79847f74787e7eU, 0x8888787d70837f7fU,
  0x7f78758d89777e7bU, 0x80897a708d877783U, 0x809389768b848a74U, 0x86896d6874847f80U,
  0x7e85827d75788575U, 0x6a767674816e7d7dU, 0x7388797b7878857eU, 0x7776737681738c7eU,
  0x7787887b837f777cU, 0x7e8f70818a826e80U, 0x807e767c7882827eU, 0x877b6e67777b7f7cU,
  0x737e777d7977798eU, 0x7e7a787876757178U, 0x6d747571737d7276U, 0x7e7e78767a78706fU,
  0x6c7c83877b8b777bU, 0x877d767d79646662U, 0x767a737676808882U, 0x68687c746f7f6f7aU,
  0x7f74707571717a7eU, 0x7f7279857d7d766dU, 0x817b81868b757e81U, 0x8382858e7b738576U,
  0x84876f6e7d838692U, 0x8789887489877077U, 0x777d73707d92867aU, 0x78728580807d6987U,
  0x7a7c7b7f74837788U, 0x777e867f7f7d8678U, 0x84788382937b7f8cU, 0x878a83797b7f787cU,
  0x877a74808f7f7d89U, 0x6780738981796c7bU, 0x7b7275818279786eU, 0x87827f8a7d857781U,
  0x6f78768d837b8673U, 0x7e6f7c837b7c6e78U, 0x6d71858c8880767cU, 0x797e7b797681837eU,
  0x7a7e736d7a857472U, 0x917a817675747878U, 0x818b8c817281817cU, 0x848d748777817b79U,
  0x7d7c787e7f807c80U, 0x727f7a7b837b737cU, 0x797874757477766fU, 0x7e7d7c77767b787bU,
  0xb1b19d8285758481U, 0x6977848175708ab0U, 0x718b8e77847a766eU, 0x80817f827b7e7470U,
  0x838d62706d747083U, 0x888984768278807cU, 0x928e77828678798eU, 0x747d7777797f7f86U,
  0x63736c678c8e7688U, 0x7a7a6c798065816fU, 0x80757a8d7b7d6a82U, 0x7c71777c8177838dU,
  0x79736a756d697483U, 0x827c8b8a7c73808bU, 0x6f7e86828a848b88U, 0x737d729086716965U,
  0x828287807f847e7dU, 0x798d7e8b7a877e82U, 0x7485856d637d7c75U, 0x746e876d76827f68U,
  0x797f847c8a7a8687U, 0x6d7488727f687985U, 0x8d7c767c82757572U, 0x6c787a76828e7d70U,
  0x7392777a847e6a7bU, 0x7d697d866d758376U, 0x7a947e757b816f7cU, 0x817b7d867c6e8273U,
  0x837a72777c878284U, 0x76797d7b837f807fU, 0x84817e7a7c7a827fU, 0x878b8f8582818588U,
  0x7853525261839188U, 0x7e817a7b8c7d8183U, 0x7d7880807793887dU, 0x867d8279887a776dU,
  0x7a79807d7b686c7dU, 0x6e7d7f7c7a7b7c84U, 0x73807d7f797c7367U, 0x798b8f817679727cU,
  0x7a7e856f746f7d96U, 0x989e8788816d6f7cU, 0x86786d71787b7493U, 0x70678484787f7c7eU,
  0x8a7a6e6e7f7d8075U, 0x846f857c8a866f88U, 0x787b83757275747fU, 0x787e7b8b7d76807fU,
