/**
  ******************************************************************************
  * @file    ann_1524_trimmed_data_params.c
  * @author  AST Embedded Analytics Research Platform
  * @date    Fri Mar 29 06:49:08 2024
  * @brief   AI Tool Automatic Code Generator for Embedded NN computing
  ******************************************************************************
  * Copyright (c) 2024 STMicroelectronics.
  * All rights reserved.
  *
  * This software is licensed under terms that can be found in the LICENSE file
  * in the root directory of this software component.
  * If no LICENSE file comes with this software, it is provided AS-IS.
  ******************************************************************************
  */

#include "ann_1524_trimmed_data_params.h"


/**  Activations Section  ****************************************************/
ai_handle g_ann_1524_trimmed_activations_table[1 + 2] = {
  AI_HANDLE_PTR(AI_MAGIC_MARKER),
  AI_HANDLE_PTR(NULL),
  AI_HANDLE_PTR(AI_MAGIC_MARKER),
};




/**  Weights Section  ********************************************************/
AI_ALIGNED(32)
const ai_u64 s_ann_1524_trimmed_weights_array_u64[100193] = {
  0x3db27168bdda0ffeU, 0xbd72dc07bd73539dU, 0x3cb9ff483b685bb0U, 0x3d9f3084bd4de3cfU,
  0x3c108185bd54d6adU, 0x3e0cfcd8bc97a839U, 0xbeebb09cbf12eb5aU, 0xbe820458beb82be4U,
  0xbdc5a9c4be1cc013U, 0x3a3afe92bd405280U, 0x3ddce3b63d598183U, 0x3eaf90683e4c4c16U,
  0x3f0d79373eea4357U, 0x3f3f57a43f252936U, 0x6766776676956787U, 0x6877477678787897U,
  0x7777477487667776U, 0x7577576777677778U, 0x8777778777544878U, 0x5777776777777766U,
  0x7765587867778677U, 0x7786777756577777U, 0x7676776975897787U, 0x7797777775677875U,
  0x7667977777747666U, 0x7797777757777676U, 0x7787876776877378U, 0x6776778797776788U,
  0x8774766659567775U, 0x8777665778977757U, 0x8777775774877767U, 0x7769687777787687U,
  0x7775777887996777U, 0x7577478759356767U, 0x7757677577777767U, 0x7777677776775777U,
  0x7777757667565677U, 0x5788887767555575U, 0x7677576477897777U, 0x7477777677877767U,
  0x7777787667777375U, 0x8789877777677787U, 0x8775566777777797U, 0x8768774577787576U,
  0x7776867777577755U, 0x6777777777786797U, 0x7788997777997799U, 0x7766785777766777U,
  0x5777757778774833U, 0x5753766777777767U, 0x7775775665658667U, 0x9767977775575777U,
  0x7566577577667599U, 0x7978777777757777U, 0x77776768767777a8U, 0x7966757977778887U,
  0x5677778778687776U, 0x7775557778576788U, 0x7577767477765745U, 0x7677767877757555U,
  0x7877777777757786U, 0x87779a7779756757U, 0x7498667777777777U, 0x7774777777967757U,
  0x7876757778777777U, 0x7787677785677777U, 0x7857778875877787U, 0x7777677675777576U,
  0x9777747778777657U, 0x6776777895977797U, 0x7786977767777848U, 0x77a77b7786767756U,
  0x6776777976777877U, 0x7777887796776977U, 0x7577777777647877U, 0x7876777767777677U,
  0x8777777677677777U, 0x7777777776765779U, 0x6787677697777776U, 0x7567477777777777U,
  0x768899a875777977U, 0x7778777677777777U, 0x5877797777764786U, 0x7766777588777677U,
  0x7777787786778775U, 0x7777546764788776U, 0x7787596778477467U, 0x8777777577747777U,
  0x7777787776478478U, 0x6776798777677778U, 0x677a756777797678U, 0x7766757577658977U,
  0x7777888977777777U, 0x9777777777757757U, 0x7757766777787777U, 0x7677677757776777U,
  0x7777777778897779U, 0x7778757778777577U, 0x7777796777755577U, 0x7977774877675977U,
  0x5876778779877888U, 0x9777775877787777U, 0x7787778747767777U, 0x7776746777475576U,
  0x7676777777577959U, 0x77577757a8778757U, 0x6956777677756777U, 0x7567777675777776U,
  0x5776657757677777U, 0x6766776557677884U, 0x7777778767775577U, 0x7777767787667775U,
  0x9747678775577777U, 0x7777777777777687U, 0x7677778776777687U, 0x7777777678577978U,
  0x7578756767777777U, 0x7777776757756777U, 0xab76567677777745U, 0x7774876775787796U,
  0x7777477786669777U, 0x7777977877777667U, 0x7777777777766777U, 0x8767777676867777U,
  0x7777786777777967U, 0x7677777777777676U, 0xa7aa797777566876U, 0x7775787797777577U,
  0x5747864765785877U, 0x7767677777657467U, 0x8777877767778677U, 0x7777777788777767U,
  0x7747777757877677U, 0x5785677767667777U, 0x8677217755787978U, 0x5556677779777767U,
  0x4677787737777777U, 0x6779786677757778U, 0x7787777787777797U, 0x7777877797677877U,
  0x7675574474557777U, 0x7778689769987769U, 0x9778373289a77677U, 0x8777656876777676U,
  0x8797677577759567U, 0x6777787798975777U, 0x8777788887868777U, 0x7977777787777577U,
  0x6777455677747567U, 0x7777776777775787U, 0x7757773773667768U, 0x8758877877777777U,
  0x7777778477774765U, 0x6747757777677778U, 0x6787778777777777U, 0x7877777777778779U,
  0x7779877777777678U, 0x4776777788667777U, 0x6777767777977777U, 0x6785778777767767U,
  0x7578977777797757U, 0x7997778767997677U, 0x7a76777777777786U, 0x8577878677789777U,
  0x7777787877787775U, 0x7777756777657797U, 0x767767778877a774U, 0x8787757776775687U,
  0x777687685768779aU, 0x7777757789777678U, 0x7777877778779757U, 0x6777777777777787U,
  0x5687777777887754U, 0x7687777577567777U, 0x87777776779797a7U, 0x5769786768776775U,
  0x7777977797877778U, 0x7777878775777767U, 0x7898877775776685U, 0x7797787777778775U,
  0x7779777767777777U, 0xbb7a774776777777U, 0x77788777477777baU, 0x6777787799777777U,
  0x7877867874897777U, 0x7697687777777766U, 0x8777887777997778U, 0x7766877777777777U,
  0x9877677689777777U, 0x7777779777467798U, 0x9779777747677776U, 0x6868787885767777U,
  0x7777777868757677U, 0x7777777677767777U, 0x7777687767777877U, 0x8777777777977869U,
  0x6777567878777687U, 0x6577478777467777U, 0x7777877777879767U, 0x7677767877787776U,
  0x7677878797777577U, 0x7797767787895797U, 0x9875777777774777U, 0x8777767774747777U,
  0x6777777978776755U, 0x5478657887775677U, 0x7786787744777777U, 0x7777787767799578U,
  0x8976779797777587U, 0x7878987777777755U, 0x7897797975877679U, 0x7797777776877676U,
  0x7777779777767647U, 0x765676767a768777U, 0x6765777878778785U, 0x8768679777799887U,
  0x6767777777777775U, 0x7688857777777769U, 0x8777798978887757U, 0x6786976777748797U,
  0x6667878777878757U, 0x7696777797777777U, 0x7777777775777576U, 0x5577677777784667U,
  0x7787776787577667U, 0x7777677778777534U, 0x7777758777577987U, 0x7777767777977767U,
  0x8778847557977777U, 0x7777877576777977U, 0x7777977648767777U, 0x7674777577768677U,
  0x5777787786777777U, 0x6777777675777747U, 0x6847777977797777U, 0x69566777975787a9U,
  0x7488777767686775U, 0x7797797767787879U, 0x777774a767787977U, 0x7677677757776789U,
  0x8774777977776767U, 0x7866767767778787U, 0x7687777787775777U, 0x7877757767877777U,
  0x5774687777677776U, 0x7967778767777477U, 0x7677778977869779U, 0x8878777778985787U,
  0x7677787778788797U, 0x6777857989777877U, 0x7777987766787678U, 0x667775777567777aU,
  0x3757758777877977U, 0x6657777767878756U, 0x8777777677789667U, 0x6778577687778777U,
  0x7878769769777897U, 0x6777777678779786U, 0x7777777757767675U, 0x7778757777579a78U,
  0x97a9aa7877776797U, 0x7779876797678787U, 0x7777895874778778U, 0x9787777767776777U,
  0x4477568787878877U, 0x7677777778777857U, 0x7777687765775875U, 0x7887777676777797U,
  0x8877282277777769U, 0x8777779879687768U, 0x6966586577875777U, 0x8677787777777777U,
  0x7755777877777777U, 0x7787677467768677U, 0x8579775777687777U, 0x7967775776568787U,
  0x9768784744777877U, 0x7787775777797877U, 0x6777776857687a76U, 0x7778977777787677U,
  0x7997777778777767U, 0x8777876777778777U, 0x7577777677677778U, 0x799575778778a877U,
  0x7777797777777967U, 0x7777787756767787U, 0x7579777797476787U, 0x7777776777777987U,
  0x7777768767775776U, 0x6677788797578978U, 0x7777777777877777U, 0x7677767775777777U,
  0x777977777777bb77U, 0x7877747777785577U, 0x7777979777785777U, 0x7777755977747477U,
  0x7876777778777777U, 0x6777677477756777U, 0x7776587657737365U, 0x7769477777677777U,
  0x7777578777767744U, 0x7779777758777977U, 0x8677777777767a77U, 0x7688777678867877U,
  0x7777797897777787U, 0x6774575677777787U, 0x7596677766777774U, 0x6776678786776779U,
  0x8777577877787977U, 0x6777597867755777U, 0x6777777866767476U, 0x7787967865777577U,
  0x7777876597777779U, 0x4734447566779757U, 0x7777766757777774U, 0x6773757677777847U,
  0x7777887957768777U, 0x7897876976677777U, 0x7768767778877777U, 0x8777777776877777U,
  0x8888779776757777U, 0x4775767387857777U, 0x5677987766777757U, 0x7787886688777767U,
  0x7777657777877787U, 0x7777797777777777U, 0x8887676778775754U, 0x7877667757777779U,
  0x9777585777677777U, 0x6567577775677785U, 0x7777797767796657U, 0x777786aa67877655U,
  0x7757777767646777U, 0x7677777787796677U, 0x7776687787776737U, 0x7777797777776877U,
  0x7768777777577776U, 0x5877443457456777U, 0x7887778766777665U, 0x7767479679877778U,
  0x7777777677777787U, 0x7797698777874777U, 0x7756777767777777U, 0x9887677558777777U,
  0x4778776778775774U, 0x5677577778677777U, 0x7778789776777677U, 0x7775598777476768U,
  0x7877577777777777U, 0x8766759787775577U, 0x9777677776757697U, 0x8777774747767777U,
  0x7877857778767777U, 0x6776779777867777U, 0x7977777778767877U, 0x756776775777a7a7U,
  0x775a676775797677U, 0x7758769854777777U, 0x5676787965777857U, 0x7787777787777576U,
  0x6777976768779487U, 0x5777677777777567U, 0x7779767677887777U, 0x7567767875787777U,
  0x9787787754787797U, 0x7766775688867775U, 0x4858777679877767U, 0x7877877998776776U,
  0x7787568758857887U, 0x7775977777677775U, 0xcc78797778747578U, 0x77578777776677a7U,
  0x8777767767677787U, 0x8767887777777787U, 0x7678777787978777U, 0x7578787777787877U,
  0x7777667767585777U, 0x7788777787777787U, 0x7777685777787777U, 0x7977577765767776U,
  0x7767678767777587U, 0x7777677897755875U, 0x7867577777778757U, 0x8677749777578687U,
  0x7677778797777799U, 0x8877777974678787U, 0x7776aa7774777577U, 0x8766788777675777U,
  0x7977777996878777U, 0x5767877774797686U, 0x6797757867776777U, 0x9787977777578677U,
  0x5778677799677667U, 0x7476779777778778U, 0x7577657778777777U, 0x7577777777977795U,
  0x7777777577676779U, 0x7777775796786877U, 0x7877757777777577U, 0x7776657667777777U,
  0x7776777787877777U, 0x7777877787767798U, 0x6578657977574776U, 0x7777678757777777U,
  0x6777778747587797U, 0x6777775798887877U, 0x6577877777877877U, 0x7787677577767777U,
  0x7877757657877779U, 0x7776787576967777U, 0x87677757a77a6977U, 0x6578777777677778U,
  0x7777767777677775U, 0x7877877767687677U, 0x7777677797799797U, 0x7778778777757776U,
  0x6967777677978889U, 0x7767777777767798U, 0x4677777777367375U, 0x6678876578767777U,
  0x7677775778777877U, 0x7777676757677867U, 0x7757777777778777U, 0x7877777867777755U,
  0x7787777777777577U, 0x5767777758776777U, 0x8777778745777873U, 0x7758778777778477U,
  0x7878767797777787U, 0x7777777777797777U, 0x7878776786985776U, 0x7777777988576776U,
  0x7677777777667878U, 0x3387777957767577U, 0x7877777775777738U, 0x88777787756676a9U,
  0x7767777777767667U, 0x9757777775877786U, 0x6758776776777787U, 0x7875776677677779U,
  0x7787666677887677U, 0x6546776777877876U, 0x6889877877577778U, 0x7777658757877777U,
  0x7787787767779779U, 0x7787875676787776U, 0x7787777757866776U, 0x7747877777777776U,
  0x8777767877757587U, 0x6787977977777586U, 0x7777787767577588U, 0x7775577777797767U,
  0x7777797797777766U, 0x7777977777787777U, 0x4767868757756777U, 0x7677666474757777U,
  0x7787777777769777U, 0x7776677776776779U, 0x6876779878778777U, 0x7777767785799777U,
  0x6777777787757787U, 0x6777786755789777U, 0x7777776777689778U, 0x8677477767647657U,
  0x7778666767777778U, 0x77669697dc7a7778U, 0x77779786776576a8U, 0x77778878777777a7U,
  0x8787784777778767U, 0x7778567875776777U, 0x7777788587777767U, 0x7786778777577776U,
  0x5777877797797777U, 0x7777777687cb7b57U, 0x7767787778777777U, 0x7976767775787677U,
  0x7778677757776778U, 0x6977777777777777U, 0x6777777777777677U, 0x7677577777878777U,
  0x7777578766678777U, 0x7777767878775777U, 0x8776776578678776U, 0x6687777776876776U,
  0x7657868855777777U, 0x7678674797887778U, 0x9767777788777675U, 0x5887787577778777U,
  0x9977777767787777U, 0x777775788768b7b7U, 0x5774576779777777U, 0x7777787799777477U,
  0x6877777777775778U, 0xa575776777778687U, 0x7678776877757787U, 0x7777775678877778U,
  0x7899977777778777U, 0x9767777777777679U, 0x8787745677774746U, 0x7757575677777776U,
  0x7788777898779797U, 0x7777775777777777U, 0x7587757777675647U, 0x7777775775667778U,
  0x3772776777767757U, 0x7787777747788896U, 0x7777887779977987U, 0x7778867778676777U,
  0x7777777777966757U, 0x7777867776759977U, 0x7777758767777777U, 0x7857777777767769U,
  0x5757577777767876U, 0x7677567567777796U, 0x6777779877757678U, 0x7777677779677497U,
  0x7587788587777676U, 0x7776776787777787U, 0x4777657689756977U, 0x7777877765687777U,
  0x7777584577387777U, 0x7778978776778897U, 0x6776978787777777U, 0x7678765577777757U,
  0x9876776877768777U, 0x7787755776565887U, 0x7775967777777766U, 0x7778767767777757U,
  0x7777867797768967U, 0x9697877768977778U, 0x7676587678957776U, 0x7777888557777779U,
  0x7777767778799677U, 0x6767757778867886U, 0x7a67555476775877U, 0x7874577855677778U,
  0x9777767877aa7787U, 0x7777787777976677U, 0x67787877777764a4U, 0x77865777978a7778U,
  0x7777697767777884U, 0x7777777777757757U, 0x857977a777767767U, 0x7779677857777777U,
  0x7778777768776757U, 0x7467867777877787U, 0x7477777796677655U, 0x9789784577677767U,
  0x7799575577577977U, 0x6874776977659877U, 0x7777557787767678U, 0x6777769777777577U,
  0x4778777777776874U, 0x7787679978777767U, 0x7677777777777777U, 0x7777884867786777U,
  0x8675777767788776U, 0x7657675778769685U, 0x7695896767768666U, 0x7967998777666786U,
  0x8878876777787756U, 0x6867779777788786U, 0x7767778747769787U, 0x7776a88787769767U,
  0x7567877877777677U, 0x98976a7787777779U, 0x6787977777777777U, 0x7679777676977787U,
  0x8776666778577775U, 0x7777776577758877U, 0x7575579756777777U, 0x7677776777777777U,
  0x7777678676778578U, 0x7776988b89877577U, 0x7677778777857777U, 0x87777a7797876675U,
  0x7676765777987778U, 0x77997777a5777577U, 0x8777757676777777U, 0x9777679777865875U,
  0x7767777776677765U, 0x7764757676748777U, 0x8767777565797644U, 0x6887474477677797U,
  0x7747777787787579U, 0x7777777777777687U, 0x6667778777774776U, 0x7776878777777768U,
  0x7777887678777777U, 0x6777677777778577U, 0x4785576777877877U, 0x7768775777977788U,
  0x7767967677767755U, 0x7777777667777677U, 0x7777777877777777U, 0x7676778777767776U,
  0x8777777877875877U, 0x7585777777aa7a76U, 0x7777777786679777U, 0x9778578757876776U,
  0x7757557587786787U, 0x6787767776777796U, 0x7767767777777777U, 0x7777666667777776U,
  0x7787899977577575U, 0x7758778699779a6aU, 0x7677777577689777U, 0x7779687766b7bb73U,
  0x7877677667777776U, 0x7877767767777767U, 0x8797778768567777U, 0x7778777955777777U,
  0x7977778757975775U, 0x7677767755767779U, 0x7957457778675478U, 0x576776686678a7b7U,
  0x7685576886787676U, 0x7766777777777755U, 0x7777757777777677U, 0x7758778777777777U,
  0x7577777575778876U, 0x7757765777777776U, 0x7777767797775757U, 0x7878877656777579U,
  0x8777576764776767U, 0x7777777767976787U, 0x8578677776777777U, 0x7747575777777777U,
  0x7766777897877767U, 0x7778787766879789U, 0x7844767777778788U, 0x7587557776785677U,
  0x7857669777557797U, 0x7887976579787677U, 0x7757776758767777U, 0x7677657876778676U,
  0x8777757758578777U, 0x7577777577878777U, 0x6777337777777777U, 0x7777787777677777U,
  0x6877777777777767U, 0x7786677757777778U, 0x7787777576797779U, 0x7786877786877878U,
  0x7979977777677876U, 0x7779777887567777U, 0x767677bb77867767U, 0x7779677777779777U,
  0x7977777777875767U, 0x77877767875777a9U, 0x7767777757777767U, 0x6779797748788778U,
  0x9885777777777976U, 0x6877757787577777U, 0x8678767757757787U, 0x7785777777867778U,
  0x8787776785777777U, 0x7777778778675785U, 0x7777776777878877U, 0x7867777678768777U,
  0x7777777776687677U, 0x7677567777797777U, 0x7677675777bc7767U, 0x7777788676477477U,
  0x8797677777776768U, 0x7766779777557877U, 0x7777777775789667U, 0x5779775777977877U,
  0x7777767887777777U, 0x5775777577657978U, 0x7577777878773797U, 0x7877777878787768U,
  0x8878777776679777U, 0x8777789787767777U, 0x7777867798677787U, 0x7657874666758977U,
  0x7777577566577767U, 0x7977a77677787577U, 0x677877865757b78bU, 0x7886776987887767U,
  0x9777798777877977U, 0x7877846777777758U, 0x7787767777777797U, 0x7967797667777775U,
  0x7767779957787687U, 0x6397777777867767U, 0x7677777776787729U, 0x7777775784777977U,
  0x7787769778787677U, 0x7787997777567767U, 0x8777797779777977U, 0x77a6697557779779U,
  0x7764777978777777U, 0x7777787667778777U, 0x5777778788787777U, 0x7876776576774776U,
  0x7777785767777857U, 0x7577777777777879U, 0x7696877797767757U, 0x9777579767797685U,
  0x5788777775774577U, 0x8977777877775575U, 0x7678776777778787U, 0x7767786767767767U,
  0x6779778687757785U, 0x47a66a7767776857U, 0x7577587776777878U, 0x7878765956777775U,
  0x8787677747975777U, 0x7677575787566777U, 0x7879857764777776U, 0x6878786778578777U,
  0x7787578576777757U, 0x7777767776797867U, 0x7777778778777677U, 0x7797887977677767U,
  0x7778777776778667U, 0x7776777747776798U, 0x7797777677765575U, 0xa779777779777776U,
  0x5777768776666784U, 0x4767877796777677U, 0x777757767a677677U, 0x7877777556877667U,
  0x7777768778767777U, 0x7778797778aa6a77U, 0x7887787777789778U, 0x87767577769777a7U,
  0x7777777777777757U, 0x7778777777777768U, 0x7777677774777776U, 0x7777777577777777U,
  0x7878875777777768U, 0x6676787777775677U, 0x8477677785797777U, 0x7777568779877987U,
  0x7775675777777667U, 0x9777788676776777U, 0x7777797748877776U, 0x7777777768888778U,
  0x7777777795777977U, 0x7777877779677747U, 0x5685987777777777U, 0x8777777965687767U,
  0x7677966877776667U, 0x6887457846787477U, 0x8777777987758a77U, 0x7787796788966977U,
  0xcc77778776777767U, 0x67576777776777c8U, 0x7777a58887777787U, 0x8777777787787976U,
  0x7777777878775587U, 0x7777677777777767U, 0x7797677677677778U, 0x6776777777677776U,
  0x4737667777977777U, 0x7777877677776977U, 0x5766777777779777U, 0x7775797887768796U,
  0x8777777679777757U, 0x6768777777877777U, 0x6577857777786777U, 0x7777767777777778U,
  0x7666777788776767U, 0x7676967777778878U, 0x5787678887577987U, 0x6778777877777776U,
  0x7699777777777778U, 0x7777977767747898U, 0x7777777477787877U, 0x7877877578677786U,
  0x7476475777777767U, 0x7887779777777777U, 0x7697677776957777U, 0x797787768677a776U,
  0x8776777757777767U, 0x6777857777577898U, 0x7767777577677777U, 0x7586767666747879U,
  0x7767865657787755U, 0x6787778567777578U, 0x787668777975a898U, 0x8788777789777787U,
  0x7767785796787777U, 0x8867776767877779U, 0x7877788776797679U, 0x7777677858778877U,
  0x78776577977a6787U, 0x6777667775788777U, 0x57767687765777a7U, 0x8777679867977767U,
  0x7777877777757777U, 0x77775877a7777556U, 0x7786796775797777U, 0x7677556777777677U,
  0x9777777796777777U, 0x9778777876577776U, 0x7747647877577577U, 0x8777767677677767U,
  0x5777577777677677U, 0x8777767778777777U, 0x7787777786787879U, 0x7497797868777777U,
  0x7677678776775688U, 0x5795556677777676U, 0x7666777677777778U, 0x7786777677676767U,
  0x5777667778777777U, 0x9777777787667877U, 0x8577567878777796U, 0x7a77747777775767U,
  0x6777769778755677U, 0x7577777776679775U, 0x7777775777576877U, 0x7776887677876577U,
  0x7786787776667777U, 0x7977646767777777U, 0x7877777787647768U, 0x4757675877777776U,
  0x7677897767777777U, 0x7575686599788875U, 0x7965777575775877U, 0x7757777776877877U,
  0x5777776767775777U, 0x7776777697767777U, 0x7577778868779787U, 0x6776737777676777U,
  0x8678777777777777U, 0x6778777875987774U, 0x7777677777575777U, 0x5777777777677777U,
  0x6777576777767767U, 0x9777766754777757U, 0x7787779a87777676U, 0x7787787777778758U,
  0x6797877777777678U, 0x7775647777767877U, 0x7777777797777777U, 0x7877677777777776U,
  0x4787777777756797U, 0x8777787777777773U, 0x7776977577777767U, 0x8768669777777755U,
  0x7777877a79797777U, 0x7577767768978775U, 0x9978868777777877U, 0x7777777778778689U,
  0x7779787887777678U, 0x6747877777776776U, 0x7578767877977787U, 0x8977665766668777U,
  0x8767769789777677U, 0x7779677777786677U, 0x7757777777787777U, 0x8787677757777847U,
  0x7597777579777777U, 0x8766777777878777U, 0x7777777766956777U, 0x6877787777474776U,
  0x7775777686877787U, 0x6777777778779777U, 0x7757567977686777U, 0x8767786775574776U,
  0x7777777777757677U, 0x7677677675778777U, 0x7589977787757777U, 0x5676774677787756U,
  0x7458887767778777U, 0x9787777757778777U, 0x7777667777897777U, 0x4697787778777777U,
  0x7577797677779777U, 0x7776777876777667U, 0x5755677777777776U, 0x9976777768765766U,
  0x7765487776779875U, 0x7777747578678756U, 0x5777777977777477U, 0x8767649767677977U,
  0x7577777577777776U, 0x4767575777676878U, 0xb7bc696777577777U, 0x7776797676777876U,
  0x7775697696797757U, 0x7756777798666577U, 0x5777777867757777U, 0x6777576778747777U,
  0x9777797776778777U, 0x9777577767778577U, 0x9847477776557777U, 0x6577778777778577U,
  0x7775776977775767U, 0x9777787888757877U, 0x7877777777777878U, 0x7777777787777777U,
  0x7777777667777776U, 0x7677787767767877U, 0x7777879777778597U, 0x7777777777775777U,
  0x7676777877777778U, 0x7877776877777777U, 0x7774777787777677U, 0x8779767677777777U,
  0x5777776777777578U, 0x7776777775787777U, 0x7787784737677878U, 0x7776777778767467U,
  0x6774777579677787U, 0x7798777877787777U, 0x8685777678875787U, 0x8777777778778977U,
  0x8777787777777977U, 0x7787777777774777U, 0x6678778777797778U, 0x7977787778776778U,
  0x5977777777776777U, 0x8778776779777877U, 0x7777757777767778U, 0x7774777974777777U,
  0x5777757877777767U, 0x7777777775799787U, 0x7777777677676777U, 0x7677877465797777U,
  0x8778577777767777U, 0x8757977787777577U, 0x7677677877987777U, 0x7757687667777877U,
  0x7777979777787775U, 0x8775777777797697U, 0x7777787877877597U, 0x7777675786777767U,
  0x7877787a77778485U, 0x7755777777877747U, 0x7897777777777777U, 0x6777777777877577U,
  0x7777767778777877U, 0x7779778957777777U, 0x6857778788577777U, 0x7777759877678785U,
  0x7778797787777777U, 0x5757777777754767U, 0x7777987767677797U, 0x7776777776797777U,
  0x7757777677987786U, 0x7787777987977877U, 0x7775877877775777U, 0x7668576477757976U,
  0x7788777777776897U, 0x7867777578777776U, 0x7777777878787778U, 0x7678777777776757U,
  0x7787777767854677U, 0x5777447777777789U, 0x5778767757757787U, 0x7777787778867677U,
  0x7787797977777777U, 0x7887888777776577U, 0x7776777777756975U, 0x6457878874776777U,
  0x87a8777777566857U, 0x779777aa77777757U, 0x7777777777998776U, 0x7877787777857777U,
  0x7767776578778777U, 0x4678775676676a78U, 0x7777767797667777U, 0x7777777874777745U,
  0x777779477787877aU, 0x6779772717757777U, 0x778a876778777977U, 0x7799898778879478U,
  0x8776977776777777U, 0x7784677877a77778U, 0x7977798778677788U, 0x8777757777647467U,
  0x7797968986767867U, 0x6777877777787977U, 0x9766777677977656U, 0x7777887777787775U,
  0x7777667777778887U, 0x6677787777887788U, 0x7776778775778778U, 0x7777798775864775U,
  0x7789787676777777U, 0x577897a647786777U, 0x7677754677787779U, 0x7788776767757677U,
  0x9779977777887884U, 0x8577777775777785U, 0x7877577785977977U, 0x7776778766747567U,
  0x7647777897787767U, 0x7767777777777775U, 0x7777797777777777U, 0x577776777767a656U,
  0x7577797777767767U, 0x6775777889767796U, 0x9877797776888777U, 0x778776677777a778U,
  0x3387977779968777U, 0x7796779777977746U, 0x8777777777879787U, 0x8777777778577766U,
  0x7777777787777997U, 0x7779779798779977U, 0x7877775677767777U, 0x7877787776785757U,
  0x7633757877677879U, 0x5775875887775765U, 0x7777777778786777U, 0x7688786788767767U,
  0x7775777777787777U, 0x7976577757777876U, 0x7788777777867977U, 0x8687776857768757U,
  0x7737227757774765U, 0x8777777777776797U, 0x7777787875777857U, 0x7767777777785777U,
  0x7777774677777777U, 0x7777777888797777U, 0x8776755477657575U, 0x6888777777885765U,
  0x7777474478789578U, 0x6777657788877697U, 0x7877777776878776U, 0x7878786677877677U,
  0x7768577779777878U, 0x7587787778678777U, 0x7787777777577767U, 0x7567697755777576U,
  0x7477774777747777U, 0x7a77777777887769U, 0x7777777776777779U, 0x7777875767779877U,
  0x8777678777777787U, 0x7778677677777667U, 0x7779866786777687U, 0x5777776877777777U,
  0x87777757b7bb7777U, 0x7875767777677777U, 0x7777576767776785U, 0x7788777667777757U,
  0x7775776756766777U, 0x7768677967757777U, 0x9777776688767676U, 0x7979776778787777U,
  0x7777875767777854U, 0x7587897787777987U, 0x8767776787777585U, 0x6677777777777967U,
  0x7777577677777777U, 0x7776767777777777U, 0x7755575777777895U, 0x7787768777789779U,
  0x777777885777a7abU, 0x7677777778777777U, 0x7977494779767767U, 0x9777777677677777U,
  0x7777768776677877U, 0x6777777776975777U, 0x7654578897777785U, 0x7574777777777767U,
  0x7777787777679757U, 0x7677786787789747U, 0x7778775787777777U, 0x7757767777857777U,
  0x7676776775776775U, 0x7579877787796777U, 0x8777677777777787U, 0x7777957757678757U,
  0x7777967777767787U, 0x7779797977887777U, 0x7767777787676577U, 0x6797777787778777U,
  0x7777757677776777U, 0x7779878777777767U, 0x7579777878777797U, 0x7767476857777777U,
  0x8777877679748777U, 0x5777676779787674U, 0x7776886779797777U, 0x8657577767788776U,
  0x9777587777997878U, 0x8777687787777678U, 0x7777797776967877U, 0x7767778777777777U,
  0x7689976777778778U, 0x7777777767798777U, 0x7587877777577578U, 0x8677977477757587U,
  0x7797777777857887U, 0x6776575575776777U, 0x7777678778767787U, 0x777777a97a7b7577U,
  0x7976877876747776U, 0x7777677777778787U, 0x7977776877677777U, 0x7777677777878977U,
  0x7786887676677576U, 0x7959798877777799U, 0x5777777757776777U, 0x7844776777747577U,
  0x7774864797767775U, 0x6776777777677777U, 0x7777767777777767U, 0x5775577777776787U,
  0x7877677978777778U, 0x9787777677779779U, 0x7777677777777778U, 0x5767666778777a77U,
  0x8776777487776588U, 0x7975887577787777U, 0x7777787877857797U, 0x8967676887777857U,
  0x7787768578879767U, 0x5677777477556654U, 0x7747777757667786U, 0x7777787778877747U,
  0x66765a7777787787U, 0x7878677688876677U, 0x5477977779777777U, 0x8777796767776777U,
  0x7477767787778767U, 0x7777577777567577U, 0x6745647767789766U, 0x7777757557787777U,
  0x7677777957977897U, 0x7777767878757775U, 0x7576787787777777U, 0x7774777787787787U,
  0x7587777776588967U, 0x7877577597887997U, 0xa6aa777776677775U, 0x7775777777679778U,
  0x77747a9776757676U, 0x6887775677777675U, 0x7779777777787877U, 0x8777787879677768U,
  0x7776977677787777U, 0x47577778a7787778U, 0x7747765477774775U, 0x6757775577977777U,
  0x7568767577997786U, 0x8477776677977677U, 0x7677768777777777U, 0x5777777777758777U,
  0x7557459779777777U, 0x5878677766777675U, 0x7879779767757577U, 0x6897768577776777U,
  0x8978777978747777U, 0x6779778677878779U, 0x7777757577697777U, 0x6767777777677777U,
  0x7767777477687877U, 0x7976777568775777U, 0x7777787777875777U, 0x6787777777777699U,
  0x777775877778a367U, 0x7797979875877776U, 0x8777787777777767U, 0x8777986857877977U,
  0x7777887877998775U, 0x7777567687778777U, 0x7877879737228776U, 0x7765677777875776U,
  0x7776787977777877U, 0x77897787779777a9U, 0x7787779877878967U, 0x7777667889777779U,
  0x7876777967787777U, 0x6777877777747887U, 0x7777767677b9cc89U, 0x9777676577887677U,
  0x7777875786777767U, 0x7977767967767777U, 0x7775667778977877U, 0x7778677669778769U,
  0x8757677678767777U, 0x7777777777777877U, 0x6996777776777733U, 0x7796777756768587U,
  0x7867787778975887U, 0x7687967877997767U, 0x9777799778765777U, 0x7777756757775777U,
  0x7677777777776767U, 0x6777567876787777U, 0x7777777877885777U, 0x8787778877777577U,
  0x7987788778867878U, 0x8776776867787867U, 0x6778778777787778U, 0x7787997978577777U,
  0x7777777576777867U, 0x6554756778677678U, 0x7786776868777785U, 0x7777786587777777U,
  0x5789687778778679U, 0x7767775777776777U, 0x7777878977777577U, 0x7879857777796777U,
  0x9767677877774777U, 0x7787789866778777U, 0x7756776777779877U, 0x7878777795657887U,
  0x8897797777787777U, 0x7787797757777867U, 0x7777797777779878U, 0x7767777777767757U,
  0x7777777777677877U, 0x7667877997786777U, 0x7777777877a77778U, 0x6777797746647776U,
  0xa997966777877767U, 0x7777777779777777U, 0x7779677877797747U, 0x6796765766797777U,
  0x5775778777897787U, 0x7967774877877779U, 0x7688777677775777U, 0x6758778788797577U,
  0x7677797775786784U, 0x7977777677787777U, 0x7775667777777987U, 0x8775797777777977U,
  0x7678677767776677U, 0x9768887779347777U, 0x7776776777778677U, 0x7777877777577785U,
  0x7789777778677687U, 0x6687979778775777U, 0x7978757677777777U, 0x7577777777777777U,
  0x9979987875775778U, 0x7977787858587777U, 0x8787787777775878U, 0x7797777977779677U,
  0x7977575775877677U, 0x8777777776776789U, 0x779777887a775578U, 0x77777877778777a7U,
  0x8777768747679767U, 0x7777777777773736U, 0x7787786757878797U, 0x7687776789677768U,
  0x7777777777667667U, 0x7876777978877777U, 0x7779897978757687U, 0x7776777768777797U,
  0x5777777577977678U, 0x8756777576a97758U, 0x8787777777767775U, 0x8777587677877789U,
  0x7755777777777877U, 0x7777777778777577U, 0x7687786787776787U, 0x7787787777757767U,
  0x797a997777777769U, 0x7787778777777777U, 0x5798775577776777U, 0x6776775777877987U,
  0x7977769767786776U, 0x7698569677777777U, 0x7877777677876677U, 0x8776887777777784U,
  0x8739377777774677U, 0x7877579668768777U, 0x7689768755777789U, 0x7879777797975757U,
  0x8777657766778777U, 0x7867857777545747U, 0x7679779777975778U, 0x6777768677768877U,
  0x7956777477877776U, 0x7877775576767787U, 0x7677877687787777U, 0x9787877776756577U,
  0x8966778945777977U, 0x6777976787777776U, 0x777886797777687aU, 0x8577767469777875U,
  0x7787567778765776U, 0x7777877a78787757U, 0x7757777875878777U, 0x9777877776767777U,
  0x6777877788677687U, 0x7887777777798776U, 0x6887767678577777U, 0x7887777777678877U,
  0x7776579557746778U, 0x7777877888577675U, 0x66758877778877a5U, 0x6867775777757767U,
  0x7877647785678779U, 0x7767977878767777U, 0x7778777777776777U, 0x7778577867577779U,
  0x7777777767473377U, 0x7777767867877776U, 0x5779787768878777U, 0x7777777767777777U,
  0x7566777877777877U, 0x6785769777975787U, 0x7677777776667877U, 0x7577777877877777U,
  0x6877778977877745U, 0x67a7777777577577U, 0x7787777777776787U, 0x9777778776877777U,
  0x7777778777767887U, 0x7766777777777776U, 0x7777779678768567U, 0xcc79756777878777U,
  0x75877777778877c9U, 0x7976a87777776777U, 0x8766776677877777U, 0x6777787978579777U,
  0x7677777877775777U, 0x7757557777847687U, 0x7857676777767777U, 0x3473648788797777U,
  0x8777777767577577U, 0x5787777688857677U, 0x7779777797576667U, 0x7777775757777766U,
  0x7584786777987767U, 0x7787773357778687U, 0x78a7777757678677U, 0x8737336677696878U,
  0x7757967677777687U, 0x77877677a7576787U, 0x7778776797777777U, 0x8778777876877767U,
  0x7777977858867774U, 0x7787777685978976U, 0x7776767777577867U, 0x7777777475777776U,
  0x6687777777877776U, 0x7677777777a77578U, 0x4797787777747757U, 0x7977577677787777U,
  0x867a677777767776U, 0x7777768767657779U, 0x7757789777675776U, 0x87577777a7676678U,
  0x7779776567547677U, 0x7988566877769778U, 0x7567867777867797U, 0x7777677975776784U,
  0x6877769777757677U, 0x7778588657666786U, 0x6777777777777676U, 0x7747777778767778U,
  0x7787897775957788U, 0x7777768779778795U, 0x7777578766648677U, 0x7777767787757677U,
  0x7867777757766877U, 0x7787776777776877U, 0x6787587666477467U, 0x6767777777cadc77U,
  0x8777777895777675U, 0x8677769777747797U, 0x9979778778777779U, 0x7777677677757677U,
  0x67a7987767777477U, 0x7697677778777778U, 0x668977757a777577U, 0x7687877767754747U,
  0x7777775777767578U, 0x6777777578764777U, 0x7977777947777678U, 0x9777777767766877U,
  0x7764987597885777U, 0x9777776975777576U, 0x9777777777877767U, 0x7655687777777877U,
  0x8677947657646647U, 0x8798767797797777U, 0x7777888777757757U, 0x8777567677777569U,
  0x9767859879789798U, 0x7777777744757777U, 0x3727777577577777U, 0x7977677777767787U,
  0x7776779877777987U, 0x7878677777777776U, 0x7544577465767776U, 0x5775779877787777U,
  0x79778774a6775777U, 0x6785777777777676U, 0x7776337777777777U, 0x7777777777877777U,
  0x7766787577694757U, 0x7679777756777757U, 0x7778757777777877U, 0x7767777777757777U,
  0x8788777673768776U, 0x7777777776747975U, 0x6777567677777667U, 0x7777776767677777U,
  0x7777557777977777U, 0x77677777757a7777U, 0x5577777777777777U, 0x6777575877577777U,
  0x9777777767747776U, 0x7767695777777857U, 0x978677b8b7774778U, 0x5777655876757576U,
  0x7687777767677775U, 0x6758577787776687U, 0x6777787777867777U, 0x9667777778775786U,
  0x8777877777777677U, 0x9777577777778777U, 0x77777477a7a77777U, 0x7877777777785787U,
  0x7757677767777578U, 0x7777776676577777U, 0x7767777778766776U, 0x8777677788766787U,
  0x7677778777797795U, 0x8767477787775776U, 0x7787665776777773U, 0x8775778877778777U,
  0x8677677568867878U, 0x7776875887778777U, 0x7777777777768875U, 0x5697777777777957U,
  0x7977777777777779U, 0x6748877787767777U, 0x9767a75768773746U, 0x8777877765777787U,
  0x7768775777757887U, 0x8777676767775765U, 0x7789777777787677U, 0x6757658767777777U,
  0x8776777775777787U, 0xa988776787778777U, 0x7977877966777577U, 0x7787876887874777U,
  0x7777467778775567U, 0x7874776778787a77U, 0x5787698777777789U, 0x7967778477687769U,
  0x5778959798956877U, 0x7756757677787a77U, 0x4787677977776777U, 0x5777797757777777U,
  0x7597767476777677U, 0x559787776a547778U, 0x7767687877778657U, 0x5676677769777777U,
  0x7879977777578767U, 0x7757757578577467U, 0x7777777575777888U, 0x5799777988787777U,
  0x7777777787758796U, 0x4477777876775579U, 0x7777957787677768U, 0x7777a87a67576578U,
  0x7778767677677877U, 0x7877777657788974U, 0x7775777867777777U, 0x7847777777967977U,
  0x5877677576667777U, 0x7776467777758767U, 0x5777687778777855U, 0x7797987777975848U,
  0x7776675776777877U, 0x5797756767775666U, 0x7757877777877777U, 0x7776775746775788U,
  0x4767777977767677U, 0x8657765756777475U, 0x7787757a77677777U, 0x9777786779776666U,
  0x7777777687687687U, 0x7777877767559688U, 0x7757768977777787U, 0x6777887777876777U,
  0x8787776677787766U, 0x7775776777777797U, 0x7777788697677876U, 0x7777678757685777U,
  0x6776677767777876U, 0x7787777777767775U, 0x4787777877779877U, 0x6777778867775777U,
  0x7777778877777877U, 0x7777778777577777U, 0x8577657777787777U, 0x9777777777787777U,
  0x7777678777777777U, 0x787787777767f7ffU, 0x7777787877777877U, 0x7778777977677767U,
  0x7779787967577777U, 0x7777777877777777U, 0x6977576777767887U, 0x7787767897878977U,
  0x7776867778778777U, 0x7777678777665677U, 0x7799776747777776U, 0x7778557776667777U,
  0x7777778778777777U, 0x7877777977777777U, 0x6777767777787677U, 0x7777775757877777U,
  0x9789676886777577U, 0x7777779777896877U, 0x7767787779787778U, 0x6777787778787758U,
  0x7577576677776777U, 0x7777778777776787U, 0x7777759777777679U, 0x7597776787788777U,
  0x8775548777777777U, 0x8777757777786777U, 0x7777797787777776U, 0x9787778775767667U,
  0x7777777965775877U, 0x5777777777779777U, 0x5774757777677787U, 0x5677787778767868U,
  0x7678a67a79755687U, 0x7877677777777777U, 0x7777777757777587U, 0x8779777778667777U,
  0x7696768678777777U, 0x7776677777667957U, 0x7757677875577777U, 0x5677788867777778U,
  0x7577787733767767U, 0x7757777777777776U, 0x7777787687779789U, 0x7977777777777777U,
  0x7777777777857977U, 0x7777777767777777U, 0x7775777677a89a77U, 0x6797777779877777U,
  0x7797877777737777U, 0x7578776778779877U, 0x7777778767577887U, 0x7777888777778777U,
  0x7688579777677967U, 0x7767757777779577U, 0x7787777777777777U, 0x7767887577575577U,
  0x8777767779b7bb78U, 0x9578979777767777U, 0x7676777888777776U, 0x7779877879777787U,
  0x7777788776777777U, 0x5777768897776887U, 0x7777778877868777U, 0x7577577777667557U,
  0x7787777886777777U, 0x8797677777856697U, 0x7775777789777787U, 0x7777676777778787U,
  0x8776776787777777U, 0x8777977777777677U, 0x8777577777666557U, 0x4477774788778787U,
  0x7787777879778747U, 0x9777877975797677U, 0x7787777779776778U, 0x7775776777777777U,
  0x7787587876877776U, 0x7877756677777777U, 0x6777777897888977U, 0x7777546887779776U,
  0x7877777657777787U, 0x6976877976897777U, 0x7876755776567777U, 0x7767466677786777U,
  0x7777775567767777U, 0x7777577687775876U, 0x6797777767778878U, 0x78977b7367758797U,
  0x746777a779746777U, 0x4777788747777777U, 0x7878877577785587U, 0x7777777777879779U,
  0x7777787767777777U, 0x7777778676757797U, 0x7797897867877787U, 0x777777985777886aU,
  0x8774786777677977U, 0x7757557579785777U, 0x7775775777776778U, 0x6777795765677777U,
  0x7797785777777446U, 0x7677777756648676U, 0x6757777774777779U, 0x7777774837677786U,
  0x7a77758897787777U, 0x5666776777776787U, 0x6757776776777789U, 0x5677877777755775U,
  0x6777577878777777U, 0x6778897796777878U, 0x965767777765677aU, 0x8857577777777777U,
  0x7777757677767777U, 0x8778778777768765U, 0x7777494654677776U, 0x6577777767887777U,
  0x7779778667557786U, 0x57766a7577977767U, 0x7577377777764677U, 0x7758847467566674U,
  0x7767777677777777U, 0x7778557777767778U, 0x7777777579775779U, 0x8677777577576677U,
  0x7355775787576777U, 0x6777777797697667U, 0x7777885977767987U, 0x9777977776777779U,
  0x4787974777575767U, 0x7777775777747777U, 0x7777757568778777U, 0x8577587767679777U,
  0x7777777656777677U, 0x7786897776765777U, 0x7777777475776777U, 0x7677778867777787U,
  0x7677777676777779U, 0x7677777777579777U, 0x7777777777767777U, 0x7676587779777799U,
  0x7797778787767777U, 0x7776677776777977U, 0x779a777779777777U, 0x7777887887767767U,
  0x7787786777877767U, 0x7777777687776775U, 0x7977777777797776U, 0x7777777777758779U,
  0x7786777777477778U, 0x7677777777777776U, 0x9757677777777778U, 0x7977777776777777U,
  0x7578777756777776U, 0x7787777777567777U, 0x7767776777777578U, 0x7777774777787778U,
  0x7857477754776777U, 0x7777677677786777U, 0x7775675779777687U, 0x8697776587777777U,
  0x8757795787677887U, 0x8777777567687777U, 0x7797777777887579U, 0x7477777777977756U,
  0x7777797778777777U, 0x4787757778977799U, 0x7777977777777577U, 0x8777787587477677U,
  0x7787777758777777U, 0x9789777775776567U, 0x8677777677677774U, 0x7787777777777677U,
  0x7778777775779677U, 0x6777687565777875U, 0x7777677587757776U, 0x7787867788577876U,
  0x8879677787878757U, 0x7667777947877778U, 0x7787767879784877U, 0x7777787777967876U,
  0x7777757885877778U, 0x6779587897887697U, 0x7778777777575556U, 0x7767776877666777U,
  0x7897785768877775U, 0x8877777787679779U, 0x7776677766777977U, 0x7777877787767777U,
  0x7777777787687777U, 0x7778777677774777U, 0x775798657777e7eeU, 0x7777767756577758U,
  0x7778777779676766U, 0x7755966777566777U, 0x7876777776877677U, 0x7574877777765765U,
  0x9877777777667777U, 0x8777777677879777U, 0x7777779777777777U, 0x5877747977677878U,
  0x7976777776877777U, 0x5677777777776787U, 0x56777777777767a8U, 0x8776759768778777U,
  0x7767777677777865U, 0x6777777887777776U, 0x9787777678778798U, 0x7677767767688777U,
  0x7877777857777857U, 0x7777899777797787U, 0x9777777777777787U, 0x8776776779777775U,
  0x8797777677768757U, 0x8777548677777867U, 0x8676977677787767U, 0x7767766787999857U,
  0x7767778776777777U, 0x97777877887577a7U, 0x7778777777777875U, 0x7777758879778777U,
  0x5886777877777777U, 0x7777889868777676U, 0x7677677777769878U, 0x7777798767777677U,
  0x7779877777747877U, 0x7874776766777877U, 0x7787877778787677U, 0x7767775778997887U,
  0x7777777777787767U, 0xa7a77897bb778696U, 0x5987877777679777U, 0x5677867577677676U,
  0x7777877764776777U, 0x7677778847757767U, 0x5777577777877677U, 0x7777757876778687U,
  0x5786678777767777U, 0x7747769777677756U, 0x7996867777759767U, 0x8877777777758778U,
  0x4777777877776777U, 0x8777775776779777U, 0x7774756777877786U, 0x7777676876787787U,
  0x7777958777675798U, 0x7787777767367786U, 0x6777777787776776U, 0x5578787887667899U,
  0x7767775688677777U, 0x7579577777777777U, 0x6676877797757776U, 0x6775466777977757U,
  0x7775778777767877U, 0x8777779578697777U, 0x4575777677657877U, 0x7677975787977787U,
  0x7678777787798787U, 0x7789767467787977U, 0x6765877777779777U, 0x7777777977756777U,
  0x7777768777766778U, 0x9777777667977847U, 0x4667777775777777U, 0x8778577677777575U,
  0x7877977767677756U, 0x7777677798676774U, 0x7777777777788777U, 0x8577777778777787U,
  0x5777757877857778U, 0x7776867777777767U, 0x7778879777777777U, 0x9787777677778777U,
  0x7797778798889799U, 0x77777677a8787777U, 0x7877779777687796U, 0x7677887975766778U,
  0x777ac77767777867U, 0x5767787766577766U, 0x7779898777776766U, 0x7657787676877998U,
  0x7764677777777776U, 0x8887778777758875U, 0x7778777777854777U, 0x8787677577778777U,
  0x7767377787757775U, 0x8877777777777877U, 0x6878777767897797U, 0x7778977877877767U,
  0x7677798777677667U, 0x9746757776857977U, 0x7767778788757876U, 0x8777767857777787U,
  0x4777765777777776U, 0x7757766797776747U, 0x7977677665779777U, 0x7776876976658778U,
  0x7777677777776677U, 0x7778646867888977U, 0x8777777777776776U, 0x9977777876775775U,
  0x57757987b7b95776U, 0x7768578777865776U, 0x7777797797977977U, 0x87579688a9765797U,
  0x7876777776777767U, 0x7877777657768677U, 0x9777777757777777U, 0x8778867968595676U,
  0x9677777876958a77U, 0x8887779677775776U, 0x7677777688777769U, 0x7756775675757789U,
  0x7877879998697588U, 0x7775487877777887U, 0x8597697777777767U, 0x7768777777787776U,
  0x6777745977777977U, 0x7948677767779769U, 0x9977787777787977U, 0x7779677777777757U,
  0x7977767777777766U, 0x7787777779778977U, 0x6797777778978877U, 0x7777777777779787U,
  0x6877877774777777U, 0x8967776777587777U, 0x7777788947778776U, 0x7987777677678767U,
  0x7777777787876767U, 0x6755757766786777U, 0x5787675777877777U, 0x5767578767787777U,
  0x7987787757797777U, 0x8779678877768795U, 0x6779777776577789U, 0x7979776857977578U,
  0x8777577777777797U, 0x7755555777777877U, 0x7779777678777677U, 0x8647777784757778U,
  0x77878778977a6868U, 0x6774677777777757U, 0x7777877778775767U, 0x6777778787767777U,
  0x6777786777778867U, 0x5777779767857768U, 0x7577a47777777779U, 0x7777677887877667U,
  0x7676777778777697U, 0x7677775777677767U, 0x7777777787747775U, 0x7777797757787777U,
  0x7767777777756777U, 0x5777768879787748U, 0x9976576778767777U, 0x6777787777675577U,
  0x9777777777778777U, 0x7697777777576777U, 0x7776567778779778U, 0x7757777977787777U,
  0x7777777778766876U, 0x6767767777777577U, 0x7777777696897767U, 0x7786777678756777U,
  0x7777675767577797U, 0x7567745776777874U, 0x7757777777659958U, 0x787778a777775577U,
  0x8857687776877797U, 0x7767797677777777U, 0x9787776887567877U, 0x8667667777473776U,
  0x9499777795477674U, 0x7665767677777678U, 0x5778767557878757U, 0x7777658777777777U,
  0x7557769789786774U, 0x7865777787768876U, 0x7476777667868677U, 0x777757679777a4aaU,
  0x7777775777777877U, 0x6777567576777777U, 0x7777787778577677U, 0x7776777777777976U,
  0x7777447676877756U, 0x7775777775577777U, 0x63a7477776777677U, 0x7767668777565847U,
  0x7679777776767877U, 0x7775777787777775U, 0x875779758778778aU, 0x6777784887789768U,
  0x7777577777758967U, 0x6774a75775478777U, 0x7737777788787687U, 0x7767787777897768U,
  0x5877667486774785U, 0x6778777766765767U, 0x4777786577778777U, 0x78777777a7787577U,
  0x77a9794356876578U, 0x7764776677777777U, 0x9737478776864777U, 0x6797776757777677U,
  0x7787778774777787U, 0x7877677677787795U, 0x7777778778968767U, 0x8677677576777755U,
  0x7789767787877757U, 0x6777776877675777U, 0x5777775647577777U, 0x7776776779676777U,
  0x6779777777776775U, 0x5576788777578577U, 0x7778767778777678U, 0x7777767785777577U,
  0x777577676775787aU, 0x7987777977879777U, 0x767787b7cd677777U, 0x7777777778797757U,
  0x5775576879786877U, 0x7757776787777788U, 0x7747757787877777U, 0x6778797777787577U,
  0x7767777777576577U, 0x6777897977787987U, 0x7777777727777477U, 0x5767767777876777U,
  0x7777777878747889U, 0x7777777777576567U, 0x5777a68777778777U, 0x7777777777678757U,
  0x7778786778977575U, 0x9777687777767777U, 0x7777877777764777U, 0x5777867777677757U,
  0x8757775777877777U, 0x7777577787767778U, 0x7777777776767776U, 0x7777777777788567U,
  0x77977a7777767777U, 0x7877797777887778U, 0x4787775796776887U, 0x7768777757567777U,
  0x8779787767755777U, 0x7798867878787777U, 0x7877777678577776U, 0x7775797677777777U,
  0x7777787777986977U, 0x7777576777757777U, 0x7767777778667537U, 0x7777755777775777U,
  0x7777777475777775U, 0x8577777677764576U, 0x7777777677686777U, 0x5754577776765787U,
  0x9777677777769977U, 0x7764787777777778U, 0x7787678777775767U, 0x9777975876777977U,
  0x7978788777878977U, 0x7778977797877797U, 0x577a777567867777U, 0x7877777776776777U,
  0x8777747787676797U, 0x75a7a77977777877U, 0x9777867777777765U, 0x7787778777997777U,
  0x7677788787776767U, 0x7957769777867878U, 0x5678467777777797U, 0x7777888877976777U,
  0x6977788756777577U, 0x7787373777768777U, 0x7777757886777577U, 0x6774777877597677U,
  0x7777776778677787U, 0x77877757a9897777U, 0x6775789877776797U, 0x77a7778667775778U,
  0x77776878776a7777U, 0x7778676776776776U, 0x7797877777667977U, 0x767897a777866777U,
  0x7777867977777a87U, 0x8777778777977777U, 0x7776778977777877U, 0x7765755767667587U,
  0x7877576787796778U, 0x5776677776779799U, 0x7567767777886777U, 0x7677787967777878U,
  0x7876857797767877U, 0x77a5777767668577U, 0x5569877777777667U, 0x7777777745777489U,
  0x6777777757777777U, 0x7978576777877a89U, 0x7a77787777877767U, 0x7567877767559877U,
  0x7677784877775778U, 0x9877777777877787U, 0x8787777779757767U, 0x6785787777787658U,
  0x6558677874777777U, 0x6777977756776764U, 0x7778675667777787U, 0x7777778878677775U,
  0x5877768776868477U, 0x7757977779778876U, 0x7787777777887777U, 0x7777797777777767U,
  0xcc48777777987697U, 0x77776777796798b9U, 0x5796787967776797U, 0x7686677578777587U,
  0x7757577877796774U, 0x7788797785778799U, 0x7777776587777877U, 0x5775777856777778U,
  0x7577757776776676U, 0x7777888596787577U, 0x4777777975786868U, 0x6665987766776879U,
  0x7767577879797675U, 0x8787767787787777U, 0x7768779678797787U, 0x7898777777677776U,
  0x7777774675777787U, 0x7757758787777789U, 0x5697777777877778U, 0x7777477777697765U,
  0x3776787774677747U, 0x7875877768777875U, 0x7679769767457766U, 0x7577768777777676U,
  0x7647a7a776676668U, 0x677977a857789786U, 0x7776778778877877U, 0x7687788875787576U,
  0x7778777777747877U, 0x7777796677778779U, 0x7777676776977669U, 0x6777567787797777U,
  0x7777777767757756U, 0x7767875785677867U, 0x5775777797474775U, 0x7648777977777977U,
  0x7786797767897776U, 0x6967777887877778U, 0x7777676777777777U, 0x5777587878677777U,
  0x7998777869776777U, 0x7778585787875775U, 0x7777777679787777U, 0x6667767575977667U,
  0x7777777777777477U, 0x7657775776769758U, 0x7577778777877777U, 0x8769776777878758U,
  0x777897477775a78aU, 0xa578577786877777U, 0x4767777787788877U, 0x7777777777777779U,
  0x7677764777767778U, 0x6577787777777775U, 0x7757967777798677U, 0x67776576996a7777U,
  0x7777678497787577U, 0x7797767967487788U, 0x6587774567577865U, 0x6777777667777777U,
  0x8799767797777767U, 0x8777587777799777U, 0x7777567766677775U, 0xcc79766757577747U,
  0x76787777677775d8U, 0x7876777757777754U, 0x7687777757657775U, 0x6776876854777757U,
  0x8588776788757777U, 0xa777777797766784U, 0x7577777777767897U, 0x7877777757877777U,
  0x8876777687777897U, 0x7778787877765575U, 0x7976749767446766U, 0x6777777756776865U,
  0x7777977988877765U, 0x7678786777877777U, 0x7677777867778776U, 0x77959b8477777667U,
  0x7657875875777888U, 0x5877777794767786U, 0x7776877677777677U, 0x7777855877676777U,
  0x8755757777476777U, 0x7777776777677777U, 0x7679777779775877U, 0x7767957777777787U,
  0x7777777777777777U, 0x7777777777787777U, 0x8877787777767788U, 0x7747667758657775U,
  0x7875774777777776U, 0x7777577778977795U, 0xa887678887778797U, 0x7747847657877597U,
  0x7676777877697767U, 0x7778777557756766U, 0x5577757777777777U, 0x7767777777767777U,
  0x7777777877777766U, 0x7779777797777777U, 0x6677797777678697U, 0x77774487a8aa7957U,
  0x9876777577577777U, 0x7779647675755877U, 0x6777578877767447U, 0x7776776576777777U,
  0x7567879777877775U, 0x7777776776757947U, 0x7787377767687777U, 0x7776767777675577U,
  0x5777874767777687U, 0x7578797797877777U, 0x7777787777777678U, 0x7977787775776797U,
  0x7777677784667867U, 0x7977877757777689U, 0x8778647877777877U, 0x9867777777786754U,
  0x7887687755757777U, 0x7757786777757777U, 0x7676777777575777U, 0x7479777775774778U,
  0x9754777587778576U, 0x7977757777777796U, 0x7747778777778677U, 0x7677776775977967U,
  0x5759567777777777U, 0x7767779876776679U, 0x6757775777777777U, 0x7747777775777667U,
  0x4585575477757577U, 0x5766777777756777U, 0x8877767767775578U, 0x7676876578767778U,
  0x8878777757788787U, 0x7877778776677577U, 0x6787877777778876U, 0x7797777786786777U,
  0x6767577775766777U, 0x7687788778866677U, 0x7877877767567777U, 0x7787458776587677U,
  0x7677767777977587U, 0x8776787777777887U, 0x7777767757877875U, 0x7777777787777776U,
  0x6756765567775587U, 0x7777774577577745U, 0x7757d8dd59777677U, 0x8767678776577777U,
  0x5876776687777776U, 0x7785787777787677U, 0x7675898777777767U, 0x8777787879897767U,
  0x7787766777557777U, 0x8567777777777677U, 0x7776774737977777U, 0x8777767788767777U,
  0x7978879657777787U, 0x7777757577658757U, 0x8776766877777759U, 0x7797678868887857U,
  0x5768775777776767U, 0x7676776677777787U, 0x7777797778777577U, 0x7779869876779756U,
  0x7577877777778875U, 0x7777777777778767U, 0x7577787778875696U, 0x6577777886887777U,
  0x7786776754755777U, 0x8677777557766564U, 0x7669777777463767U, 0x9877796977786887U,
  0x7777777687777777U, 0x6878566777897777U, 0x7877777777777787U, 0x7975767677777787U,
  0x7777577767475777U, 0x7777577777775577U, 0x7777777778767776U, 0x7576675767778747U,
  0x7787777778777787U, 0x7757776787868777U, 0x7777668757767867U, 0x7678798777787787U,
  0x7945677777768777U, 0x7896776778857777U, 0x7777777557677779U, 0x7778767778778787U,
  0x8788779777778757U, 0x7777667777776677U, 0x7776877577777678U, 0x77aa9b7797659779U,
  0x7787776777786778U, 0xa7aa797757767667U, 0x9768777777858877U, 0x6887676576777887U,
  0x8577777777877777U, 0x7777767777777875U, 0x5777976777975897U, 0x7878777887787587U,
  0x7785775778677774U, 0x7745747479876797U, 0x7578777778769777U, 0x6777887775896967U,
  0x7577977787764875U, 0x8787767777777778U, 0x6756766877777777U, 0x7766776887787776U,
  0x7767667747787777U, 0x7787483779787687U, 0x8777797777677775U, 0x7787776877747877U,
  0x7778877887677789U, 0x7687677878776777U, 0x7698877677779677U, 0x6567577677677796U,
  0x7767557777477776U, 0x4777877744677768U, 0x7767767779777767U, 0x6777686677779877U,
  0x7757767777779678U, 0x7786777787788677U, 0x465767778a797777U, 0x7776777467757755U,
  0x7777778877777947U, 0x7766758897777797U, 0x567797777a677797U, 0x6877787576677777U,
  0x8756777747777777U, 0x6777678777877788U, 0x7776777779787777U, 0x7677969779867567U,
  0x7779587777876777U, 0x8787567747778778U, 0x7776797787786777U, 0x8778677789877777U,
  0x7679876777777998U, 0x5877777577776797U, 0x7475777777777877U, 0x797789a878779947U,
  0x7778775a77776777U, 0x4879777777775777U, 0x7567757775776787U, 0x7977777777775779U,
  0x7678777657776777U, 0x7776566777575578U, 0x7767777557777877U, 0x7675777786774776U,
  0x7477778797776877U, 0x7766777776677746U, 0x8786877777777777U, 0x6775777777767887U,
  0x7777777756768777U, 0x7778778879776477U, 0x6757777577778777U, 0x7877777978978757U,
  0x7578777777787777U, 0x7667558757777777U, 0x7787877667677777U, 0x4557867777579777U,
  0x9777987777577777U, 0x7787777778767777U, 0x4677674467575777U, 0x7767777777797777U,
  0x47a59a8777757777U, 0x8777777776767778U, 0x7777877757777777U, 0x8775857776778877U,
  0x8878777867775777U, 0x7977777877777776U, 0x9789789778777877U, 0x7787776777977777U,
  0x7778774597877777U, 0x9777787877797778U, 0x7877776777797777U, 0x8877765767687777U,
  0x7777779777577567U, 0x8777777888776687U, 0x7757877776777875U, 0x7876767787777878U,
  0x7677776777677777U, 0x7877797787787467U, 0x7879777857675777U, 0x7877756797797779U,
  0x7577777979798877U, 0x7886877757776587U, 0x7777687777777766U, 0x6777775777777777U,
  0x77766767c8dd7776U, 0x7777876776777797U, 0x8576777676678777U, 0x7886777877797757U,
  0x6777697777776776U, 0x6766867777787777U, 0x7777767687677657U, 0x9797777867777777U,
  0x7897969777788987U, 0x6787798768777787U, 0x7778777777777777U, 0x5876777777778788U,
  0x7877777878777777U, 0x6767777678767678U, 0x7769776476775677U, 0x7767777877977677U,
  0x777597677777b7b7U, 0x7787777877777756U, 0x6777777775767575U, 0x7779878777877877U,
  0x7787776777777678U, 0x7779786778577775U, 0x6977777778777766U, 0x7577777767777777U,
  0x7977777778777777U, 0x5677757779877777U, 0x7776767877977777U, 0x7777765578777877U,
  0x7777777677667777U, 0x6777774687576797U, 0x7777777647799777U, 0x7797555777785776U,
  0x7675777777677877U, 0x7877677777777777U, 0x7887987777774767U, 0x7476777778777777U,
  0x7757767777777787U, 0x7777767478867877U, 0x7777779877777569U, 0x7877778a77755574U,
  0x6777777677787777U, 0x7677787787775757U, 0x7787677787796757U, 0x7787767777867777U,
  0x9778777757777777U, 0x6797767777775777U, 0x8877785767777577U, 0x7787374777777775U,
  0x6777774768887667U, 0x7877775777877677U, 0x7777577897778767U, 0x7776657574787775U,
  0x8777857787667977U, 0x5787778787476678U, 0x89877a7677767777U, 0x577777a5a9897777U,
  0x7765777877888776U, 0x7499787677767777U, 0x5777877747567775U, 0x7775797777756777U,
  0x7777777757778877U, 0x7777998887777777U, 0x7767795775777777U, 0x7777766777777777U,
  0x7776777677758977U, 0x6777767778878677U, 0x7776577668677777U, 0x5777857774776776U,
  0x7777587775877797U, 0x8857777957877766U, 0x7769787778774778U, 0x9777777886777355U,
  0x7777787989775787U, 0x7778777777778777U, 0x4677777776677777U, 0x8977556797877677U,
  0x9977776677657777U, 0x7677777777656774U, 0x8667779957767677U, 0x9767776877777577U,
  0x7878777777578777U, 0x7776797978877797U, 0x8778777897798787U, 0x7785697775775797U,
  0x7967676747777577U, 0x7777777787778797U, 0x9a77777777767858U, 0x7776777977785786U,
  0x7576687777777777U, 0x7788967888777877U, 0x8777787667757777U, 0x5774879779777477U,
  0x77776a6677677877U, 0x7777877775658778U, 0x7977777787777677U, 0x7776968885767777U,
  0x6787767768776765U, 0x6777779777577786U, 0x7767777778777777U, 0x7778878577768777U,
  0x8777767777777776U, 0x7776887666777766U, 0x8577577578676677U, 0x8687978877787787U,
  0x6757777767785777U, 0x6777579777567677U, 0x7677777667767796U, 0x9779777877757787U,
  0x7767578778697757U, 0x8787557778856756U, 0x7775a8a777777776U, 0x7877777677877878U,
  0x5778787777756787U, 0x8978777675777777U, 0x7777879767777776U, 0x7777777987578777U,
  0x8778777577897577U, 0x6667567676887785U, 0x6777863747777777U, 0x7779777978777876U,
  0x7746777787777797U, 0x7787998777777778U, 0x7777678577777677U, 0x7677677877977786U,
  0x8777767776778677U, 0x9777785767876757U, 0x78577776a7a76777U, 0x8687577879777776U,
  0x7777577777777956U, 0x7777867676477777U, 0x7776667757777775U, 0x688777a777877777U,
  0x7854687777777576U, 0x6677775676787977U, 0xa679784776697777U, 0x6776878779875877U,
  0x6777768777787457U, 0x7778787677776787U, 0x8776677777777776U, 0x7677577779887876U,
  0x7678776787787875U, 0x7777775667776776U, 0x6877667787977897U, 0x8777785787677777U,
  0x7757587577777797U, 0x7779786777776797U, 0x7777877574677797U, 0x6677776775757776U,
  0x5677767777777577U, 0x7677777777779777U, 0x7886579877777777U, 0x7667777685776877U,
  0x7677777797977887U, 0x7777787977794867U, 0x9787577777575668U, 0x9767767777857765U,
  0x7977797776575866U, 0x7877778877777577U, 0x7777776577777879U, 0x7778766777787867U,
  0x7777974775676576U, 0x7677777557787977U, 0x8776777777677557U, 0x6799787667787777U,
  0x8677777786779777U, 0x7475477777777574U, 0x7778579886777787U, 0x5777678777877677U,
  0x5777867567767787U, 0x9777777677677796U, 0x7777577567687775U, 0x7877787778777768U,
  0x7877868777767776U, 0x6777677679585587U, 0x6787777776777688U, 0x9567677789757587U,
  0x7768677677778777U, 0x5677978787767778U, 0x5777767877976775U, 0x7577778777777787U,
  0x8767577777868786U, 0x6777779777759779U, 0x7777777787567777U, 0x6777797976777777U,
  0x7967776777757677U, 0x7777797777777779U, 0x7787778777787777U, 0x7677778698677867U,
  0x7977797785677777U, 0x7767877746777757U, 0x7777787777677779U, 0x9975777777577647U,
  0x7674777777777797U, 0x7777787787776777U, 0x7777776777768578U, 0x7679785757785797U,
  0x7877777777788797U, 0x7677767788a7a778U, 0x7779777757768779U, 0x7786977779786755U,
  0x7777777966777878U, 0x7977777577767767U, 0x7777797777678778U, 0x7777779777778767U,
  0x7987878798787786U, 0x777777797597c9ccU, 0x6777696766768977U, 0x9877777747777767U,
  0x5774678887578776U, 0x7779777877858876U, 0x7985777778776788U, 0x7777878778577797U,
  0x2497786787877777U, 0x7777878867777637U, 0x7787777747676979U, 0x7578775777777757U,
  0x8867687774678777U, 0x8775776697699868U, 0x76a77a6677568777U, 0x7777776577777754U,
  0x3611777768776477U, 0x7766877777777985U, 0x9778757777747767U, 0x5677787777777977U,
  0x7777677688778777U, 0x7776777967776777U, 0x75999a9978677878U, 0x6777777767787777U,
  0x7778747756779777U, 0x7777777878778a78U, 0x9766875677597797U, 0x5678787878877977U,
  0x7776778777747777U, 0x8769777777787777U, 0x677777b77b678779U, 0x6776547775967777U,
  0x4767677777887888U, 0x8687566678975775U, 0x7776877797747777U, 0x9667957877776777U,
  0x7578777899977877U, 0x5778965977867776U, 0x5777777877887877U, 0x8775879767986557U,
  0x7777775777776879U, 0x7886777778787767U, 0x7788877679778768U, 0x7877677776577777U,
  0x7777777577977775U, 0x7777877767777776U, 0x7477477777557796U, 0x6877476576777764U,
  0x7576777777766777U, 0x7778777747878877U, 0x7767877868876778U, 0x7979777777656777U,
  0x7779767777777788U, 0x6669787a78797777U, 0x5677765744465777U, 0x7778757776677577U,
  0x7677777776777774U, 0x8777787786777957U, 0x7876887679787787U, 0x8757565777749878U,
  0x7877577797778854U, 0x7478787675667776U, 0x7787777789677776U, 0x4676758677777768U,
  0x5767757977777777U, 0x7956797677777787U, 0x7779777677875757U, 0x5987776687647877U,
  0x7855765566777977U, 0x7877846777767858U, 0x7777777767885787U, 0x9a77578777777778U,
  0x6777777766677774U, 0x7767978798857797U, 0x7874757779797777U, 0x8777776777777778U,
  0x7777767777767777U, 0x7775757568777857U, 0x7777778777887776U, 0x7877755777777778U,
  0x7677886778777786U, 0x8755777797996a78U, 0x8979775777766767U, 0x5877776777757777U,
  0x7775777747679777U, 0x5567777768747a77U, 0x8687877577778867U, 0x7787877776777667U,
  0x7777777767777777U, 0x6767775577778977U, 0x7679988977778777U, 0x7657778577747756U,
  0x6777774577777776U, 0x6778889776577877U, 0x7777776777867676U, 0x7777767777577777U,
  0x7776687679577877U, 0x7777777877756779U, 0x7777777754767757U, 0x7476567778457677U,
  0x7777777667977774U, 0x8977888777447545U, 0x7777775777978779U, 0x6677673774867775U,
  0x7777777887768485U, 0x9676565577677757U, 0x8777876576678779U, 0x7686787777756767U,
  0x4777877974778757U, 0x7979777777a77a77U, 0x6777777767467777U, 0x77777687b7a77b77U,
  0x6866775777767867U, 0x7787777689877787U, 0x7777777778777777U, 0x8777777777779777U,
  0x6767767788778767U, 0x778777787877777aU, 0x7777776777778745U, 0x7778777768773378U,
  0x7777677678798777U, 0x8778776787876777U, 0x7777779779776787U, 0x8887676777777778U,
  0x5578967777777777U, 0x7777577877574766U, 0x7777767767766776U, 0x7778787777776744U,
  0x7787776677778778U, 0x7888777677776777U, 0x6778566777777875U, 0x9785787865779856U,
  0x7775777568656678U, 0x7777787777767775U, 0x4477575677777775U, 0x6776767767777847U,
  0x7777777757777776U, 0x7597787768787757U, 0x7778777775777776U, 0x5777778777767878U,
  0x7777877777747777U, 0x6775485476757775U, 0x787a777757675667U, 0x7777877777867777U,
  0x7977676657778777U, 0x7677787777568887U, 0x7788778777777776U, 0x7788677777797777U,
  0x7799777777478778U, 0x7777766789777775U, 0x67b7777767547777U, 0x5677778777776775U,
  0x8767787777787777U, 0x6777887777777977U, 0x7877777778778787U, 0x7877777787787976U,
  0x7788977778767677U, 0x7777776786777987U, 0x9776777767767778U, 0x7677787757777777U,
  0x7577777787777757U, 0x7476767677777776U, 0x7785877757678567U, 0x6779777667978777U,
  0x8778767767768988U, 0x7777777777679757U, 0x666687a7c8777777U, 0x7977776677674776U,
  0x7757777678777798U, 0x7755777776776977U, 0x7766777787777786U, 0x5777777867777679U,
  0x7577667776587777U, 0x7777878577676776U, 0x5577677547796577U, 0x8787777678757877U,
  0x6777777789797779U, 0x7787777877767677U, 0x7778878877798967U, 0x7777777777777767U,
  0x5987977857777577U, 0x6778787977776777U, 0x7577779776877767U, 0x6877678797677777U,
  0x8775777767787768U, 0x7777766878787777U, 0x6787777776677777U, 0x7784777778678777U,
  0x7587477877878857U, 0x8a87789778777777U, 0x777987776776c7ddU, 0x7977677776777687U,
  0x7867776576777585U, 0x7777665666787777U, 0x6797777778767777U, 0x7765777786577777U,
  0x8877778778787787U, 0x3377757776778678U, 0x7767787777776827U, 0x5457677778675777U,
  0x7747768776779667U, 0x9768786556787777U, 0x976775a777777777U, 0x6774757677767577U,
  0x8777777567777574U, 0x97a7777775777767U, 0x7777778777777787U, 0x7776777777787777U,
  0x7675776766897687U, 0x7977757757677787U, 0x7777877777767784U, 0x5677747798746967U,
  0x5766777777577777U, 0x7665777577775777U, 0x7777777878686588U, 0x6877757777767677U,
  0x7757568775788777U, 0x8787876788677767U, 0x6777977575767767U, 0x7767778777777779U,
  0x8777677777778667U, 0x7795877779786766U, 0x7767776778777777U, 0x7488637778797787U,
  0x6799777789877775U, 0x7787877988768777U, 0x7a77787757775757U, 0x867787a778aa7758U,
  0x7989777777775787U, 0x76757797a8777767U, 0x6787778777777777U, 0x7776977777567777U,
  0x7785677776777677U, 0x978877787877a777U, 0x7777678776779877U, 0x7777777768a97777U,
  0x676779775677777aU, 0x6877776977bb6968U, 0x7777877777766777U, 0x7777786787777577U,
  0x7777778667894747U, 0x7767786677777764U, 0x6777677777777797U, 0x77577776577577a7U,
  0x7777787777779567U, 0x7787677777666744U, 0x4667777776787776U, 0x6777757577576777U,
  0x7865778778777867U, 0x7777777776777777U, 0x7587777777767675U, 0x9777757787877775U,
  0x7757767797778777U, 0x7766779977678799U, 0x7757878777776657U, 0x7777767756787787U,
  0x7779777777777787U, 0x6775766875889779U, 0x5776977777777777U, 0x7578777777778777U,
  0xbb66677756875779U, 0x67778677777577a7U, 0x9777775777757657U, 0x7765695777777776U,
  0x7977779757777847U, 0x6756759865867777U, 0x7777776977877777U, 0x7779759787777777U,
  0x7799755787777777U, 0x7757757777798777U, 0x9777877778575777U, 0x7887647777779787U,
  0x7777775577777577U, 0x7775787777777777U, 0x7779878667777797U, 0x7767779877777767U,
  0x7757546577777777U, 0x7567757757787757U, 0x7777777775759778U, 0x8778777775777777U,
  0x8778777776567778U, 0x7875777767777777U, 0x9787777777778777U, 0x9777877777867977U,
  0x5767696579757777U, 0x7776679677766767U, 0x7777777778777777U, 0x7778877778675577U,
  0x7777777979775777U, 0x9797777566778776U, 0x7775777768847777U, 0x5767767677797798U,
  0x4777777733776747U, 0x9877678587797777U, 0x8777876778486779U, 0x7776776575778877U,
  0x7677775556778677U, 0x7778887765677577U, 0x7757777786777769U, 0x5679677777777577U,
  0x7877977767447678U, 0x7877877777a97785U, 0x778a977759987787U, 0x7886777777677767U,
  0x7777777767556777U, 0x7777579777776787U, 0x7777799887888969U, 0x7767777876867756U,
  0x6769779987c7cc7aU, 0x7777789787875757U, 0x7767787777777677U, 0x9787677677778777U,
  0x7877767857767867U, 0x7787657777777767U, 0x6757667777787777U, 0x7766678877775767U,
  0x7677777667757a77U, 0x7874875799778775U, 0x8887787767776789U, 0x7798776787778797U,
  0x7777677777787877U, 0x8777876777777796U, 0x8776757777678787U, 0x3677787847788766U,
  0x7768777967677747U, 0x7776787777778778U, 0x7797757777959789U, 0x7778778777776678U,
  0x7787888879879777U, 0x7775777676777577U, 0x8996765777757777U, 0x6787677789775777U,
  0x7777777775777878U, 0x7987897675687777U, 0x8797997778777776U, 0x7777789788777587U,
  0x9887777777888767U, 0x9788776877777769U, 0x6557778777877757U, 0x7777776677777768U,
  0x9776775966675777U, 0x7778776777777678U, 0x8a87778779879778U, 0x7777777786776767U,
  0x8787679977778776U, 0x77755774778567a5U, 0x7887797777576777U, 0x8557987a77677787U,
  0x7777777777786877U, 0x7768777777976788U, 0x7697775767777786U, 0x7987777877877576U,
  0x7777775777887777U, 0x7777777777979746U, 0x7677787786869788U, 0x4877775744677787U,
  0x7778778789767977U, 0x7777777789768886U, 0x7877778757777877U, 0x7477977678767767U,
  0x5787587567777777U, 0x5986777677977977U, 0x7778975777777777U, 0x7777776777777778U,
  0x8776877777767887U, 0x8777776779767777U, 0x6777878777967777U, 0x7776477778779898U,
  0x4678867777888776U, 0x6757777777775797U, 0x7777777776776778U, 0x7687767778877778U,
  0x8786787777777677U, 0x7777877777876767U, 0x7987787778687877U, 0x4674787777667776U,
  0x7776557776787766U, 0x7777877777786787U, 0x7787777899867779U, 0x8767577687777797U,
  0x4777776796797887U, 0x8788967767777677U, 0x9877797787785477U, 0x6576977767777777U,
  0x6679777877787779U, 0x7778777877774475U, 0x7777776777777777U, 0x7677687869877779U,
  0x9777777777967768U, 0x7687678767777777U, 0x8777876776876767U, 0x8876878797678787U,
  0x7777657877767897U, 0x7778777777787777U, 0x7766777758767796U, 0x7687767978677777U,
  0x8779777874747797U, 0x7877777787777778U, 0x7767777797656776U, 0x7787777777777877U,
  0x8777875757777677U, 0x7777597777777597U, 0x7887775767656777U, 0x7778779846776785U,
  0x5657777977877678U, 0x7577987767865577U, 0x8788567777677876U, 0x8777a78777796856U,
  0x7777877767779777U, 0x7756777798777675U, 0x5647747a75877877U, 0x7788687777787798U,
  0x7777676777777777U, 0x6787777757776777U, 0x7777784777456656U, 0x7777785785486576U,
  0x7579759778776796U, 0x7774777756777778U, 0x577577b7bb887777U, 0x7777778777776667U,
  0x7777777777787777U, 0x5787777787777764U, 0x7788787777778757U, 0x7777979967756677U,
  0x7775587575777777U, 0x6677577677998778U, 0x7778677676746487U, 0x7769877787774778U,
  0x7775779776776774U, 0x7767478677656777U, 0x7977787677777978U, 0x9787776775657777U,
  0x6677787677777765U, 0x7579777788477577U, 0x7797775777778777U, 0x7877776687878787U,
  0x7777778765788777U, 0x7577577777777797U, 0x6a67768777797746U, 0x7567875467777487U,
  0x8778878778778746U, 0x5465775777757777U, 0x7779747777756777U, 0x5875698866776777U,
  0x5757877877776676U, 0x7787778778776777U, 0x7876865778868876U, 0x5797777756775757U,
  0x7965667787675667U, 0x5775678777747777U, 0x6677677777779777U, 0x9776777687777885U,
  0x7787876777767877U, 0x6774669977774776U, 0x7767878957778778U, 0x8778876677767777U,
  0x5778667777777777U, 0x7777779767574765U, 0x8867977757766767U, 0x7776877477776577U,
  0x6777775775777787U, 0x6576677877787776U, 0x7767777776777477U, 0x7777887876777678U,
  0x7776759798977676U, 0x6778787458877666U, 0x4777677777777777U, 0x7777857777786778U,
  0x7957767588977787U, 0x8775677776578777U, 0x7677777777477767U, 0x5677775786877675U,
  0x7777797768747788U, 0x7978757787878977U, 0x6778677576775777U, 0x7875776777767767U,
  0x7677667778876687U, 0x7764678767777775U, 0x7767777777777977U, 0x5777877678757766U,
  0x7657777677887778U, 0x6877777567856777U, 0x8777777777576787U, 0x7779757777799677U,
  0x7777776777776575U, 0x7777787578777776U, 0x6777778778967888U, 0x6877577777677686U,
  0x7757777777777977U, 0x8778677675677489U, 0x7677746777669698U, 0x6777677658757747U,
  0x7747548757857775U, 0x8777777747677677U, 0x7767767589777578U, 0x7777777775776797U,
  0x5777777777788797U, 0x6675777587779974U, 0x7779777567777579U, 0x7766778898877758U,
  0x7676687777697874U, 0x6768777777776877U, 0x8877587977779797U, 0x9778678858777785U,
  0x6675787776977547U, 0x6787577755777787U, 0x5777777877677777U, 0x7769776767567778U,
  0x9779777787777757U, 0x7677677875757566U, 0x6866787677757877U, 0x4777756877767798U,
  0x8777767777788777U, 0x7879667797777577U, 0x777787757787777aU, 0x8947776477667777U,
  0x7777778767778797U, 0x7777774779678777U, 0x7767675475787777U, 0x7777875847747777U,
  0xb4bb775776676777U, 0x7778787776776677U, 0x5577877775777787U, 0x7777777566777774U,
  0x6777798577557667U, 0x8767777857775787U, 0x7995566788777777U, 0x7877777777777877U,
  0x4778897777777766U, 0x7877597896577757U, 0x7778776777878787U, 0x8797787777677777U,
  0x7755776767577679U, 0x8687787577777787U, 0x7888898777776767U, 0x7877978776667777U,
  0x7876777784878766U, 0x8767777758777777U, 0x7687777776747758U, 0x7797587577779675U,
  0x7777777846757757U, 0x5777756785775776U, 0x5777767745777877U, 0x7877767777778777U,
  0x7687667778785876U, 0xa777767778777887U, 0x7774778777786476U, 0x7777777777767778U,
  0x7777576587777877U, 0x7677777778877877U, 0x86977a7747577467U, 0x7777777778657777U,
  0x8a67776437747786U, 0x7775477787777775U, 0x8777777896876777U, 0x6776577747876577U,
  0x7477589787776677U, 0x7775777757777777U, 0x7777755787677777U, 0x7766768769777777U,
  0x7678766777474478U, 0x7757677767768877U, 0x5487777977577677U, 0x7777779787675877U,
  0x6777777757746777U, 0x7778775578757677U, 0x6797777477787879U, 0x7787597668777797U,
  0x7787687767677757U, 0x5797877787758756U, 0x4477776657877779U, 0x5767777797477757U,
  0x5877977757757877U, 0x7987797887777576U, 0x6786777777877776U, 0x6777655567676456U,
  0x7767679777787746U, 0x7677776777877576U, 0x7776877687567777U, 0x6955776677756567U,
  0x7797768778778777U, 0x7787674777777745U, 0x7777787777687767U, 0x7757677578787578U,
  0x7677767757777557U, 0x7777774877775657U, 0x6678757777667777U, 0x7778877977787776U,
  0x7777787675997775U, 0x7777779777767767U, 0x7967777777777776U, 0x5887776777778777U,
  0x7876777778757678U, 0x9867777777777977U, 0x7857777687787687U, 0x7777777585777777U,
  0x7797777777777787U, 0x7777777677577677U, 0x7778759776876777U, 0x7777b7bb79777777U,
  0x5677777777775676U, 0x7777776778774677U, 0x7677677755756577U, 0x7777676587786767U,
  0x7677775777766777U, 0x5776777777777787U, 0x7777878777758776U, 0x7777652577648777U,
  0x7777777777777775U, 0x7666778777775677U, 0x5768777876777777U, 0x7577677879777877U,
  0x7777786887677767U, 0x7777876767757677U, 0x8966877877757767U, 0x777a676748447777U,
  0x7756877789777778U, 0x77a9779477766977U, 0x7778776777567677U, 0x7757777797787786U,
  0x8797857667877977U, 0x7778885777767775U, 0x6877877777977776U, 0x7777777777473377U,
  0x7797755777977778U, 0x6676656777777678U, 0x8679677777677797U, 0x7779777879877777U,
  0x7775677757777775U, 0x9787775755776745U, 0x7768756777779576U, 0x7467977776777597U,
  0x77a5868777777797U, 0x7958777857977977U, 0x76765674877a7768U, 0x6777487787777778U,
  0x7777877779757877U, 0x6777767985769777U, 0x7777779757677777U, 0x8778785776776777U,
  0x8977977787767777U, 0x7768777577777778U, 0x7778777775477677U, 0x7577747976777777U,
  0x7588878777876756U, 0x5677777788577777U, 0x7857777775779766U, 0x7777575777877577U,
  0x7788878876757766U, 0x7877777796775777U, 0x7777577877677789U, 0x6747779a77877887U,
  0x7978797777957798U, 0x7579777777777776U, 0x87a8777785667777U, 0x7777777577776787U,
  0x7577776577777777U, 0x7775675677775677U, 0x7674879877787569U, 0x8777777877747777U,
  0x7778777777777776U, 0x6777677776777777U, 0x6677677757876777U, 0x9777776777787987U,
  0x7776777978975777U, 0x8687996777767767U, 0x8777776778867759U, 0x9757556777877977U,
  0x9777757477677787U, 0x5777777777787777U, 0x8777887755857676U, 0x6777777777776777U,
  0x7777877577777477U, 0x7778577775777777U, 0x6976777776797567U, 0x7777776767777647U,
  0x7768777777878767U, 0xa787778868477677U, 0x77587788a7ab7a77U, 0x6777587767877777U,
  0x7777778767677767U, 0x7657677775877976U, 0x7798757777777877U, 0x6776777977876788U,
  0x7778867766877778U, 0x7777795777777977U, 0x5775577788677477U, 0x7779757777776756U,
  0x7768677577787877U, 0x7777777767776777U, 0x7787777677676487U, 0x7874777677755775U,
  0x6776777787777799U, 0x8977677577778777U, 0x7777977777777779U, 0x7777769787767777U,
  0x7677777897877779U, 0x7988779777977877U, 0x8676778776677777U, 0x7779775577776778U,
  0x7979797777897798U, 0x4787787776777765U, 0x7877997979875737U, 0x7766777775777877U,
  0x6777787777777798U, 0x7678998767776779U, 0x8777797768776678U, 0x6775777767777777U,
  0x8977885754777877U, 0x6767575677887877U, 0x7777867779977657U, 0x7777766594777685U,
  0x7787888777777877U, 0x7777977875977879U, 0x7687977677776587U, 0x7475777777777677U,
  0x7778778778877747U, 0x7745738976777787U, 0x7677698588777675U, 0x7777797788766777U,
  0x7777797777779858U, 0x7877777676768677U, 0x9776777856777787U, 0x7777677776697686U,
  0x7797777877776777U, 0x8875857778777777U, 0x78777768787a7786U, 0x7477997787767686U,
  0x7767777757877779U, 0x77777a7777787758U, 0x8467747877777787U, 0x7675775577777777U,
  0x6779675677788777U, 0x5767677776757846U, 0x8767787767787777U, 0x7687877887779778U,
  0x7757756677679777U, 0x6578677777777578U, 0x7977666747857687U, 0x7777777777978777U,
  0x7788777778777767U, 0x67778766c7dd6787U, 0x7677887987667697U, 0x5787899777776777U,
  0x7979787799878777U, 0x8777886776776787U, 0x7878677777777777U, 0x6777757797778887U,
  0x7767777769775766U, 0x7676767757777776U, 0x7777777777787676U, 0x7767677677775777U,
  0x8777777847767977U, 0x7777868777777667U, 0x6697777677777776U, 0x5778877778777488U,
  0x7777777777667778U, 0x8977677877777999U, 0x7777756767877667U, 0x7786578777776768U,
  0x7786767887777797U, 0x8777777668767754U, 0x7786887775767798U, 0x7777778677777777U,
  0xa777676778777877U, 0x75787777777777a7U, 0x8777677677777977U, 0x7777777877685779U,
  0x5777767977788777U, 0x6877677767776775U, 0x7797677777778968U, 0x7477779977777776U,
  0x3673777a77776759U, 0x8867777777977777U, 0x5577877a87877787U, 0x7777987779879977U,
  0x7776797777777777U, 0x9777776777777677U, 0x8777877777797576U, 0x8776776877797766U,
  0x7437337877986777U, 0x8777787877777779U, 0x7897689777787767U, 0x8777776877767877U,
  0x7577779777757777U, 0x7787765777588747U, 0x7799777775778675U, 0x7877797886777788U,
  0x787797a777778879U, 0x7778787787777777U, 0x7776777777998777U, 0x6777877779778875U,
  0x7777677775877777U, 0x7777687777677767U, 0x7777778867777679U, 0x8787877867977779U,
  0x77797476bb986776U, 0x7778787777677777U, 0x7777778847867777U, 0x7557574788778777U,
  0x7677877497777776U, 0x7776976777876587U, 0x7757778778777597U, 0x7667757875777777U,
  0x667779a747337775U, 0x8779877877777877U, 0x8775777777797877U, 0x7787777777976777U,
  0x7677777776677777U, 0x7777647877677778U, 0x7777767775776866U, 0x7779777779777787U,
  0x7777776676997777U, 0x7777567677778777U, 0x5757777877786799U, 0x7777777777777676U,
  0x7467777887877785U, 0x7767667777769767U, 0x7787777777657679U, 0x7a77977777767787U,
  0x788857775879a7a7U, 0x7777777777777767U, 0x7788878777677778U, 0x7777797897777778U,
  0x5676776975757677U, 0x8787789977777965U, 0x7777574776588777U, 0x2357777778777777U,
  0x8678977887777737U, 0x8777777767777777U, 0x7777777787787777U, 0x7776877877777797U,
  0x5757777777767766U, 0x7767777887778877U, 0x6877577777778897U, 0x7765777877776777U,
  0x7777767756787777U, 0x5757774677866767U, 0x7577577777777777U, 0x7677787776657777U,
  0x8777777767787787U, 0x7667778799877676U, 0x7777767677576877U, 0x7757557874779676U,
  0x5667777787777677U, 0x8778778777877777U, 0x5867777777777589U, 0x8776775677977777U,
  0x7777777778557687U, 0x7797777877777787U, 0x7785765767777788U, 0x8777778777877757U,
  0x7975778767878866U, 0x7777777677578787U, 0x7576677767778795U, 0x7877777777779779U,
  0x7676767777777777U, 0x7777977777777777U, 0x7777786787777588U, 0x777777777a777777U,
  0x7477777777767767U, 0x7676777777787777U, 0x7775678757576768U, 0x7777775768967778U,
  0x6776777658977577U, 0x7757567666678775U, 0x8898577777777579U, 0x7687887767777777U,
  0x6774757775767777U, 0x7877757787867775U, 0x7777879767877787U, 0x6767777777777797U,
  0x5765776587774777U, 0x6777757767777777U, 0x7797778777799778U, 0x6876785747777774U,
  0x7777778657787767U, 0x8787777777765655U, 0x77a8977787755777U, 0x9777867875777778U,
  0x8777977777778777U, 0x7799797577788697U, 0x7757868757777876U, 0x7677589777875757U,
  0x7776677777767967U, 0x7775777977677787U, 0x7686776869777777U, 0x7767876776678777U,
  0x897a666777768778U, 0x8777779879779897U, 0x7777997779757779U, 0x9678756676777798U,
  0x7577877777887777U, 0x6866867778765775U, 0x7777777587876777U, 0x8567677988778757U,
  0x7887796776777778U, 0x7979777778778667U, 0xa7ba777799987888U, 0x7979777766879778U,
  0x7787778777977778U, 0x5777766777776777U, 0x7775779589897768U, 0x7777967777877776U,
  0x7755659776777767U, 0x7676577889777857U, 0x7765777688797777U, 0x8777787776767877U,
  0x8778897776777767U, 0x7777897776977757U, 0x7777555797666877U, 0x7677757777788778U,
  0x575777777a776787U, 0x7757777757775557U, 0x7777977a77776977U, 0x5677777757777777U,
  0x7776667777746778U, 0x7877877757976977U, 0x7767777777677777U, 0x7776769679777776U,
  0x5777679577875877U, 0x7777675877768877U, 0x7777768879777665U, 0x8777667777777776U,
  0x8777857576577477U, 0x7778777877767767U, 0x7779777787789777U, 0x5777877877779777U,
  0x7677777667797977U, 0x4777777787775656U, 0x4877778747477775U, 0x6967767477776797U,
  0x6777857769787497U, 0x8777777776777785U, 0xa756877767768877U, 0x7577677677777787U,
  0x5767577777777678U, 0x7677877577897777U, 0x7747777777b9777aU, 0x6578757775777777U,
  0x8677777875778987U, 0x7786867787888777U, 0x4677885797778777U, 0x6a57777777777778U,
  0x8787778777768777U, 0x7787776778677777U, 0x7777767777874777U, 0x7797777777777777U,
  0x77777779a7797679U, 0x7857676777775676U, 0x6666777777777787U, 0x9677477767767897U,
  0x7677877877777777U, 0x7778577577778777U, 0x7775857776777776U, 0x7786768777677757U,
  0x7887777797777677U, 0x7777967577777777U, 0x7797775787977879U, 0x5777777785777777U,
  0x7679677787777777U, 0xa87b777774667777U, 0x7777889977767797U, 0x6777775777765777U,
  0x8777777746797789U, 0x7777787777777786U, 0x6776777777787657U, 0x8776787758787777U,
  0x8875777776578677U, 0x7796777797778577U, 0x7777877787977778U, 0x87777766777a7677U,
  0x8889877757777787U, 0x5777658677757787U, 0x8677777777879779U, 0x7779586777664757U,
  0x7997777765979777U, 0x7778467477777757U, 0x6577777775775677U, 0x7767688977774577U,
  0x7877876647646744U, 0x7777787777577674U, 0x7877777677777779U, 0x6777777878777767U,
  0x7687787767876577U, 0x7788777778777757U, 0x8757687777697865U, 0x9776576775657977U,
  0x7777777777777587U, 0x7777787777777479U, 0x7778776777675776U, 0x6678987787596477U,
  0x678878787779977aU, 0x7787887776977776U, 0x5857767777777777U, 0x7967878777787566U,
  0x5777776797778497U, 0x8767678777777677U, 0x7678775777758857U, 0x6787497877777675U,
  0x7977677766788577U, 0x7777777777777a7aU, 0x7779777797676777U, 0x7874777877776787U,
  0x7777977776877776U, 0x8776767777777884U, 0x7767777878777977U, 0x7777787787777766U,
  0x7779577777777778U, 0x7777777677787774U, 0x7978677796768777U, 0x7777677797786776U,
  0x7774777777797777U, 0xa787786778777976U, 0x7787776487774896U, 0x6576678677776777U,
  0x7797897777777765U, 0x7757777777775787U, 0x7788585876767767U, 0x9767767777877778U,
  0x7858777777777577U, 0x7777777777779767U, 0x7655967777777777U, 0x7787677666876988U,
  0x7777877777776767U, 0x8888787765776578U, 0x7565776758877777U, 0x7887777677977787U,
  0x8777777777777776U, 0x7787767787777877U, 0x8776777488777877U, 0x5778787675858777U,
  0x75d77d7787777776U, 0x6777877777777777U, 0x7767786877867777U, 0x6977777877578775U,
  0x7578777778776778U, 0x5787777789777777U, 0x4867577786766777U, 0x7676677598666777U,
  0x878778cc6a467876U, 0x7777777777767768U, 0x5875775777676545U, 0x7576687777777676U,
  0x7777777777878767U, 0x7778757767877777U, 0x7487776867777569U, 0x7777777777576677U,
  0x7787777677777676U, 0x7875767788767777U, 0x7667776877776687U, 0x7787767877775777U,
  0x7877978898767565U, 0x7776788787787777U, 0x6887747555766757U, 0x7487776578777879U,
  0x7777787777995674U, 0x8577677776777757U, 0x7787778787765697U, 0x7757768778788877U,
  0x7777777775887766U, 0x7877788577599797U, 0x6887777477676777U, 0x6787677767755777U,
  0x9776765876774778U, 0x9477767776787777U, 0x8777485976977777U, 0x7787677777776667U,
  0x7777767776877777U, 0x7a97777779777756U, 0x6657888677778799U, 0x7757777777686786U,
  0x7767877766674737U, 0x7794774767777777U, 0x8776577799867767U, 0x7577777778877776U,
  0x7887778767986877U, 0x7977887784777777U, 0x9778687687777697U, 0x7b77668979777777U,
  0x66878877777678a7U, 0x7877977776767577U, 0x7559777887777777U, 0x7787677579766777U,
  0x7866777777787679U, 0x7797677777766777U, 0x8878767777677786U, 0x7857576747767797U,
  0x7677887786779787U, 0x7676777779787777U, 0x76577877777696a7U, 0x67777a8876677747U,
  0x6777655878777777U, 0x7774777887977776U, 0x5477777775577677U, 0x7777774788788877U,
  0x7876887778897798U, 0x7766777787787577U, 0x6777887765787767U, 0x7766766777876577U,
  0x7777777768776797U, 0x7777787777767768U, 0x8687878777487787U, 0x7667765566777677U,
  0x7767777778576777U, 0x7777877777787776U, 0x8767779867777685U, 0x7777576567777686U,
  0x7565877877776777U, 0x7777777777677866U, 0x7777777766877778U, 0x7877777777987777U,
  0x7787777777777767U, 0x9779777774877977U, 0x7777777777787798U, 0x7776777785777577U,
  0x7777797777588767U, 0x7777777788577777U, 0x7886777877777756U, 0x76777768b6cc5568U,
  0x7577778777767795U, 0x7677767777677977U, 0x9777777778467775U, 0x7756777798677777U,
  0x5577647779777779U, 0x7587766778777788U, 0x8777667777797858U, 0x7788777878c9cc76U,
  0x7777676787777796U, 0x7777785877777676U, 0x7778777768777777U, 0x7778887778777787U,
  0x8775778577777677U, 0x7775775777675677U, 0x8a77757768778679U, 0x565778767777a7aaU,
  0x7744777767777757U, 0x7577777877797767U, 0x8777757776787778U, 0x7777677777788677U,
  0x7778788877767856U, 0x7768657777887778U, 0x7777767778747777U, 0x7659776787777877U,
  0x5566778777877697U, 0x8797767877776666U, 0x8778787777778777U, 0x6776776775877797U,
  0x7876867677796788U, 0x7777698657776777U, 0x4755777767798677U, 0x9779777777565678U,
  0x7774778777877877U, 0x7977777675787577U, 0x6777777787475577U, 0x7769566677776787U,
  0x7777777776777777U, 0x8875687777777877U, 0x8766797777777786U, 0x7779677656747777U,
  0x7976779977657777U, 0x7778778777797776U, 0x7977787777777877U, 0x9779787977787875U,
  0x5777667877777775U, 0x9776877777777876U, 0x777578aa78777777U, 0x8777767777647677U,
  0x7487874767777769U, 0x9779777976787978U, 0x5778787578789777U, 0x7774777788797876U,
  0x7777777777777778U, 0x8768978857677679U, 0x7777786772777787U, 0x7787768777878879U,
  0x4777677877577777U, 0x7676675788776776U, 0x7777778887666777U, 0x777a776577677777U,
  0x7868977777877777U, 0x8677776877775777U, 0x7677687777877779U, 0x7777777475777777U,
  0x7888748767855775U, 0x7967795577677675U, 0x9797477777776856U, 0x6777778777777877U,
  0x7785777777988778U, 0x7757477586777887U, 0x7777764777267777U, 0x7677987876777777U,
  0x7787777674778785U, 0x7778765777799978U, 0x7787777577887777U, 0x7767877778765775U,
  0x7956788877657677U, 0x7789767777777877U, 0x6765877779677777U, 0x7777767666776775U,
  0x7798697677887577U, 0x8777697667767887U, 0x9977775576777774U, 0x6767777868767777U,
  0x9777876757565777U, 0x7776788757768776U, 0x8668776977788767U, 0x5798777477657777U,
  0x6767757775797776U, 0x7778777777767767U, 0x7687767777677765U, 0x6667777777777577U,
  0x7775587785777557U, 0x7789596656558577U, 0x7798787777778777U, 0x7777777777887777U,
  0x7776776679567668U, 0x7777775777777977U, 0x7977767797777777U, 0x7977787769777767U,
  0x7579887777656777U, 0x87b6ab7677797976U, 0x77777a7777677847U, 0x7757677776878877U,
  0x7879677969577777U, 0x7788677769777878U, 0x6887778667977968U, 0x7778758758776778U,
  0x7657877889688667U, 0x7777c7dd8a775775U, 0x7757877777797778U, 0x7776778677877877U,
  0x7777877775777777U, 0x7877777787777797U, 0x7776757776777775U, 0x7775776777778768U,
  0x7767657677776777U, 0x8778777778877777U, 0x7777777577778977U, 0x7857667485775757U,
  0x7777777775777767U, 0x7677775577977866U, 0x7676975778777757U, 0x7857579797778987U,
  0x7777777777777677U, 0x7877777677977577U, 0x7775777977777767U, 0x7767778779785777U,
  0x7679678777777576U, 0x7867877777877786U, 0x7676767777977677U, 0x7677777977755777U,
  0x8758777466767776U, 0x6678977787a7a777U, 0x7677477877677777U, 0x7777877797755866U,
  0x7777777779777878U, 0x7797778877475779U, 0x5777577685777887U, 0x6647778775778677U,
  0x7787487676757777U, 0x7877677867782772U, 0x7777798777777787U, 0x7757777877887977U,
  0x7977976787677778U, 0x4777798779787777U, 0x7757787775777777U, 0x7876777777777777U,
  0x3377774675766787U, 0x7677767777778646U, 0x7778787777577776U, 0x7788777686777697U,
  0x7667778776777777U, 0x7567987876777678U, 0x4576677678777778U, 0x8777677475877776U,
  0x7657777587677767U, 0x7777777777777977U, 0x7777877777776777U, 0x7867797765498877U,
  0x7777777777677878U, 0x5787777878777778U, 0x7787887b77776777U, 0x7775465546675757U,
  0x78b7cb5787778777U, 0x7776555577777786U, 0x7699897687778765U, 0x8978789777877566U,
  0x7877977777877799U, 0x87a5777878977777U, 0x8744777777778577U, 0x6797777747678776U,
  0x7657a97a77a57575U, 0x4798787777764866U, 0x7757759879774679U, 0x78777678a9777777U,
  0x7777877777778757U, 0x7777577677778778U, 0x7757767787777776U, 0x7787a76777647876U,
  0xa967777744777787U, 0x8867776597777777U, 0x7576777788778777U, 0x7677767775985775U,
  0x7477877777577676U, 0x7776979777788777U, 0x4767875577778777U, 0x6767686774776787U,
  0x8777757756467878U, 0x7897977957777878U, 0x6775877677876777U, 0x5777577777876785U,
  0x7777665787877777U, 0x9887875777775677U, 0x7777677777a78977U, 0x7777777766777777U,
  0x7777776776a77b77U, 0x7747577797767797U, 0x7758777777777785U, 0x7778467777657778U,
  0x8579777777747787U, 0x7874667677577777U, 0x7776797777777779U, 0x9777767777787667U,
  0x7777777677778779U, 0x7778777797787776U, 0x7777798777777756U, 0x7766778777777767U,
  0x6766777777777876U, 0x777a877877787797U, 0x7777676777777567U, 0x7767777777777757U,
  0x5676678877778777U, 0x7787577776777775U, 0x7777775675879668U, 0x9798687887779877U,
  0x7877677667677777U, 0x7776777677777577U, 0x7577767764756787U, 0x757a737577777777U,
  0x7777677777877777U, 0x7778786797777776U, 0x778a967777797767U, 0x7776775777667797U,
  0x7677877777867967U, 0x7768677758577877U, 0x7777777877777778U, 0x79797b7777666777U,
  0x7777786657887887U, 0x8766587748858887U, 0x9598786665657777U, 0x6777797777777767U,
  0x47547768767a7676U, 0x7947778877775777U, 0x7778777768457668U, 0x9977382277865677U,
  0x4777775787776757U, 0x6777876777776677U, 0x7778787758777777U, 0x7866877878767787U,
  0x7877877757765877U, 0x77777877876a7977U, 0x7867778775746676U, 0x7587774764677777U,
  0x7477777776777788U, 0x7787777777577877U, 0x8767777759777676U, 0x9777677776766677U,
  0x7777777678667877U, 0x7777777777776976U, 0x7777797877877788U, 0x7578776777777777U,
  0x6777777766775777U, 0x7757777667785777U, 0x7777775768788767U, 0x7877777758979777U,
  0x5777677777776777U, 0x4787879677577777U, 0x7586887777679767U, 0x9877878787577975U,
  0x7777777857776777U, 0x6677776778777777U, 0x9856787875774778U, 0x7757777567697787U,
  0x8787477987877786U, 0x7786787757876568U, 0x7557687774777755U, 0x9897776697865777U,
  0x8776678777884777U, 0x7777787787776779U, 0x8777776777877777U, 0x8757777586777777U,
  0x7777777768778877U, 0x7777797857776577U, 0xbb78777877577777U, 0x77777977868777a7U,
  0x8746687887786668U, 0x7757767777777877U, 0x7687677687777777U, 0x8777776777777784U,
  0x7677776777767775U, 0x8777877777777777U, 0x7679577776787777U, 0x6777877677877977U,
  0x7666777777777778U, 0x6677877757678877U, 0x6867779777877676U, 0x7767787787877787U,
  0x7777777a77776577U, 0x7777877777777876U, 0x7687777477577745U, 0x7754777777777778U,
  0x7857776455977876U, 0x7877777778787777U, 0x7777787777776675U, 0x6776877777777876U,
  0x5767776787777778U, 0x7777777778777777U, 0x6777777347777777U, 0x7677977786777797U,
  0x7777777778979678U, 0x7756777777789777U, 0x8787778687775787U, 0x7755676777767787U,
  0x7777755695797767U, 0x7777777777877747U, 0x97767878577a7797U, 0x7787578978775777U,
  0x6677797778776778U, 0x777797777a777777U, 0x7477767777877777U, 0x7777757757777776U,
  0x5767777777878977U, 0x7777797787777677U, 0x8777679777776777U, 0x7788a77867787777U,
  0x7777777777777777U, 0x7777767767677578U, 0x5799777679847777U, 0x7776777777778677U,
  0x6777777667786657U, 0x7776777877787897U, 0x5978476777757777U, 0x7577677766777778U,
  0x8747677678777877U, 0x7786977787679797U, 0x7777987767667556U, 0x7778675777777776U,
  0x5757777777777777U, 0x5998877777779776U, 0x777777877779c67dU, 0x7779777776777787U,
  0x8678987775767876U, 0x5777774757777757U, 0x7779876777767777U, 0x5775766777677797U,
  0x7747777777767777U, 0xbc56776577777578U, 0x77777778777645b7U, 0x5777779756779777U,
  0x6777775777775757U, 0x6777776867977797U, 0x6777777776687578U, 0x6776777776677867U,
  0x6889677757777787U, 0x97a7777777777787U, 0x7777688767777777U, 0x7866787767777877U,
  0x6778777777766779U, 0x77777a8777797857U, 0x7677668877777799U, 0x7777777787767777U,
  0x7887796777777677U, 0x7797777877777787U, 0x7777877777879777U, 0x8877768877877777U,
  0x8799977777797875U, 0x6777788977777777U, 0x9875877779947787U, 0x6879887879797766U,
  0x6677977777767777U, 0x8777677877777667U, 0x7867877777787777U, 0x6777778577887876U,
  0x7878777775677666U, 0x7775776767878677U, 0x7777778777797767U, 0x7777767778776577U,
  0x7777777777678775U, 0x777767b9cc7a8797U, 0x79a8777778787777U, 0x9867777689777777U,
  0x7668777777867777U, 0x9757876897777787U, 0x7767977877786767U, 0x9857765777757778U,
  0x7777777676778777U, 0x7895776437277558U, 0x9868877777867577U, 0x6677787778877767U,
  0x7777778777877777U, 0x7797787977746758U, 0x7777877777687577U, 0x7777777777777777U,
  0x7787777687778777U, 0x7678678767787778U, 0x7876885677677778U, 0x7877879788877877U,
  0x7777687777777767U, 0x8877787874877777U, 0x6777776766757977U, 0x7877677577567777U,
  0x6577787877877776U, 0x7776888755696765U, 0x7777757777966897U, 0x8776977795757897U,
  0x7776787675787866U, 0x6797798769676879U, 0x7769975677678777U, 0x6777778876775777U,
  0x7577777776777776U, 0x7778657677777746U, 0x6787769777777577U, 0x9776785678769676U,
  0x7889777777677787U, 0x5676778677777677U, 0x7777776777777877U, 0x6767877767877677U,
  0x7777677776776677U, 0x5787777777675787U, 0x7777798777797777U, 0x9767787775774777U,
  0x7787777a78877657U, 0x7777987776797877U, 0x7778777877678577U, 0x8785877767777697U,
  0x8757778787778656U, 0x7777977777777778U, 0x4677776777777777U, 0x7787777777966678U,
  0x7767777577777684U, 0x7777777777977777U, 0x9777776777777777U, 0x8877877787767787U,
  0x5776a77777777877U, 0x7777866777787777U, 0x7777775877798777U, 0x5797787678777787U,
  0x7787776777777487U, 0x7776777778778778U, 0x7677745877677777U, 0x7777765767778777U,
  0x7777777779a77977U, 0x7587776777777979U, 0x5777768567677797U, 0x7775778777899777U,
  0x7776a76777777757U, 0x7987778875777777U, 0x7868787779775677U, 0x7797877677777797U,
  0x7777777748779777U, 0x7777777776788777U, 0x7777775787677677U, 0x7769777777898778U,
  0x7798975777747767U, 0x7757878867777577U, 0x7867877977777757U, 0x6577597677797777U,
  0x7876797674574777U, 0x7977466775577777U, 0x7789775777777577U, 0x7777797588677777U,
  0x7777777887775766U, 0x8668578776677777U, 0x8979887a75797677U, 0x7498777787977777U,
  0x7958546776787645U, 0x8777779678767754U, 0x7755777776749777U, 0x4767677777795787U,
  0x7769876778567677U, 0x7887879677777367U, 0x7777679877777677U, 0x7747976777777765U,
  0x7776777777777477U, 0x7778586687477767U, 0x9773976777775777U, 0x7797766748667757U,
  0x7775775856677789U, 0x5474777577777767U, 0x7777867776879777U, 0x78bc776777367766U,
  0x5779777777777667U, 0x87777a7855777976U, 0x5669976778777787U, 0x5776787864777477U,
  0x5776876777677477U, 0x7777757766757777U, 0x7678777657777777U, 0x7776777777768767U,
  0x7779775877776777U, 0x7778677a77777767U, 0x7787789797777658U, 0x7477775877777757U,
  0x8475875774577767U, 0x6768777887775777U, 0x777777886677a77aU, 0x4777677677778677U,
  0x6767976777677777U, 0x7747887877678777U, 0x7777877746776754U, 0x9757877777775586U,
  0x7967577776978746U, 0x8767678777987777U, 0x4777777777777757U, 0x6787785774756777U,
  0x7745877778777797U, 0x6777777777768797U, 0x7877877776777777U, 0x7777679777787877U,
  0x5677989787579577U, 0x7777887775777776U, 0x7777887677766777U, 0x7767775777447677U,
  0x7777785875887787U, 0x7777776778a77777U, 0x7777877777767777U, 0x9757777657757878U,
  0x7777767777777877U, 0x7777777787766779U, 0x8757776677677767U, 0x7567988976a79946U,
  0x7777777767877777U, 0x7867755678759797U, 0x6779777797789777U, 0x8677676777777778U,
  0x7767766687787557U, 0x7777777777676666U, 0x7677889778787757U, 0x977787777757b7bbU,
  0x7877677797777758U, 0x6779777857767657U, 0x8a76787755777879U, 0x6977777788777787U,
  0x7677777678777787U, 0x8489694577757777U, 0x2275777778776777U, 0x7786777877687528U,
  0x77877779a7577777U, 0x7767777767678678U, 0x7767787767877657U, 0x7877777577768787U,
  0x7757878576767777U, 0x7778897777779865U, 0x7776676776778878U, 0x7787867766777777U,
  0x7777588779777777U, 0x7676777787767778U, 0x7777797777677677U, 0x8777777477776777U,
  0x7867757777776777U, 0x7677776777777787U, 0x6875336777568777U, 0x7797777777677777U,
  0x7777777787777677U, 0x9757787577767777U, 0x7776777566797787U, 0x7877777787775886U,
  0x7756777756775777U, 0x98777786677797a7U, 0x6777a79977877677U, 0x6778797777777765U,
  0x9767778758777776U, 0x7775777768678887U, 0x7777688865756777U, 0x4777777676777777U,
  0x7777766775777787U, 0x7778775787868777U, 0x6966778767757787U, 0x7777777877769777U,
  0x7777877745777788U, 0x7777546967767777U, 0x6677877778778779U, 0x6867977877878787U,
  0x8777745674747787U, 0x7697877776757777U, 0x7777777567767777U, 0x7777798764777778U,
  0x7765478577777767U, 0x7777777677786776U, 0x5477877687788776U, 0x7767777777777974U,
  0x7889777777777957U, 0x7777554756776777U, 0x8677874777578a56U, 0x7687667699869787U,
  0x7777477777754787U, 0x7785774786677777U, 0x7668777477967777U, 0x7887774677777767U,
  0x6677677777779787U, 0x7678987776767777U, 0x577778777687b7b7U, 0x6797778a57777777U,
  0x6565777777667777U, 0x7775567787767777U, 0x7677578777753687U, 0x7787677777678677U,
  0x7877879768777697U, 0x5774777746777787U, 0x5778777777547576U, 0x6776677677987777U,
  0x7777767677768978U, 0x7897887577756777U, 0x7787678776678887U, 0x7778788777799777U,
  0x7777776777867777U, 0x6757776777767777U, 0x7767776677878977U, 0x7777677777788757U,
  0x7777777777755657U, 0x877785987877a777U, 0x5757777787877777U, 0x7877777767777787U,
  0x7777776758777777U, 0x777775767774a767U, 0x6778777777767578U, 0x5777778797786777U,
  0x6777487677975777U, 0x6767757777777768U, 0x7767777877785777U, 0x787777879a787776U,
  0x8774677477775687U, 0x6778787767797777U, 0x7768757857777757U, 0x7775777676777786U,
  0x6576877767777775U, 0x7777677777577554U, 0x7977677779777775U, 0x6777777897777777U,
  0x7876877787578777U, 0x7777774777777476U, 0x7957787777777777U, 0x9687777877779977U,
  0x7778877767776877U, 0x5777778767778777U, 0x9776777878966877U, 0x7977577777778777U,
  0x6778587777777586U, 0x7787587777777678U, 0x7777777867477757U, 0x7779777797787798U,
  0x7877688978876787U, 0x6777976778778777U, 0x7757575756867777U, 0x6878757678776777U,
  0x7777778777677778U, 0x7786777777b7b78aU, 0x7777479776679777U, 0x7757777777787767U,
  0x7777777777777868U, 0x7846775777577767U, 0x7777777777878778U, 0x5757756555797777U,
  0x7487797776477777U, 0x5678576777774778U, 0x7674777757766777U, 0x7778757777977577U,
  0x7778677757779877U, 0x8877877777777977U, 0x9777675657767777U, 0x8877a78777777779U,
  0x7778755776779875U, 0x9777778975787557U, 0x7777775777976797U, 0x8587777765756577U,
  0x8777787787776998U, 0x8767677787895767U, 0x77778a7677776477U, 0x7786875477777857U,
  0x7799777767777778U, 0x7677777777577757U, 0x7675778687777777U, 0x7777749778777877U,
  0x7778777576777867U, 0x6977677777777777U, 0x7887767757777777U, 0x7777687567677757U,
  0x7976338777777887U, 0x7577665857547777U, 0x7567757779757787U, 0x7777977878777777U,
  0x79a7776579777796U, 0x9578767885887777U, 0x6776799977765887U, 0x7647778867957778U,
  0x7797773377997787U, 0x7788875777868779U, 0x7787787778757567U, 0x7877777877777877U,
  0x7697877777768777U, 0x6787767777977786U, 0x7876777977795777U, 0x7767877767777796U,
  0x7778677777976777U, 0x7777777787677577U, 0x8987787858777774U, 0x7768977799677777U,
  0x6677797887777767U, 0x7877677877767567U, 0x7777775577767677U, 0x7877777777787777U,
  0x7777567677477577U, 0x7775957777877777U, 0x7678777777777868U, 0xa778777755767997U,
  0x6788787777776779U, 0x7777575776577778U, 0x7777877777747855U, 0x7847767778777757U,
  0x7757777777787777U, 0x7977777776778787U, 0x7777677777977889U, 0x7768677777777797U,
  0x7877778767777967U, 0x7777777777787677U, 0x9777777777777777U, 0x7677888779797767U,
  0x678768778777a7b7U, 0x8777475776677757U, 0x7767777767579678U, 0x7776777776877877U,
  0x5777777777777777U, 0x8777777777777977U, 0x7777777977777877U, 0x4779777788877779U,
  0x6777778777777757U, 0x8777797777777759U, 0x7678777774877778U, 0x7797767777787778U,
  0x5587787777467777U, 0x5776875777767679U, 0x7477775778757767U, 0x977a667777867675U,
  0x7776779766695777U, 0x6787777877767767U, 0x7775855775777777U, 0x8777997777777675U,
  0x7777787777876768U, 0x7777777777677776U, 0x7657577587758876U, 0x7777227776777977U,
  0x7769757777854677U, 0x6777777579777776U, 0x9777777777677797U, 0x7757777777777777U,
  0x8777778777777857U, 0x7877887966777768U, 0x7976767665777657U, 0x776977a7777776a7U,
  0x7767787875997767U, 0x7557777777747877U, 0x6777776754677677U, 0x7777777577777876U,
  0x5787777777777779U, 0x7776766757757777U, 0x7777767677667487U, 0x7777764757787777U,
  0x778777777766a877U, 0x5676796777879477U, 0x7767774767648976U, 0x7777777797776776U,
  0x7767878777976677U, 0xa77877867777a977U, 0x7775677777776776U, 0x6957777788877756U,
  0x9777787768868777U, 0x7775877567767677U, 0x7555676577777779U, 0x9876777774777774U,
  0x7779777777777779U, 0x7778677785687777U, 0x7777877777977677U, 0x777777787779bb77U,
  0x7578877778957677U, 0x6777778766778775U, 0x7774755757678777U, 0x7979576776767777U,
  0x7787777887778789U, 0x7776777885677876U, 0x7577777757777788U, 0x7577677777774733U,
  0x77a8787778786888U, 0x7777878556876766U, 0x7797587787777687U, 0x7797764597775657U,
  0x7767777757777777U, 0x7777778777777777U, 0x6777777764677676U, 0x7777776777777757U,
  0x7878947767778777U, 0x7777767778777766U, 0x6787777787777767U, 0x8767747676777767U,
  0x7776777777797756U, 0x8797987776777777U, 0x7777747466777777U, 0x6676675678766777U,
  0x9577784757797477U, 0x5877777776777777U, 0x6777978767679677U, 0x5567778759677757U,
  0x5877777787777957U, 0x7776777875967778U, 0x8777777587777777U, 0x7678677877777677U,
  0x7567777769675677U, 0x7777775677779677U, 0x7677779777886577U, 0x7787877766867777U,
  0x7775756799798578U, 0x9967777977887868U, 0x5777787777757758U, 0x7777975778787777U,
  0x7767767697787877U, 0x6677777778867968U, 0x7577788578956657U, 0x8757777665876778U,
  0x7678777877777775U, 0x7778977777676777U, 0x7767886773877778U, 0x8776777757777675U,
  0x8775776777777777U, 0x7567877776978765U, 0x7677779758877789U, 0x8477477777778775U,
  0x7876977778757677U, 0x7656678778578877U, 0x7777787736747787U, 0x7577777777577675U,
  0x7767767777647877U, 0x7777776777877777U, 0x7877776778978777U, 0x7777779855577777U,
  0x7778788779774676U, 0x9998978777778677U, 0x7478777777c7dd5aU, 0x7757767779767677U,
  0x5797777776777577U, 0x5787777877776777U, 0x7779587677777766U, 0x7877786775758777U,
  0x7777789777977777U, 0x8476777787877778U, 0x7786975877897777U, 0x7776777775787776U,
  0x7777567675877647U, 0x7677787787777776U, 0x7876767777747767U, 0x7787667776767778U,
  0x7886876687777687U, 0xcc75777557776697U, 0x77677777777785b7U, 0x7678767887677776U,
  0x7477767767777766U, 0x7777777747676787U, 0x7885778978776777U, 0x7565867777675747U,
  0x7777777777788887U, 0x7776768777778878U, 0x7877777879775776U, 0x7757787777758757U,
  0x7777757777677778U, 0x7777678777677777U, 0x7767777777776877U, 0x7686678775777878U,
  0x7786a76777677487U, 0x7677477776777777U, 0x7777777877777778U, 0x7778777856787957U,
  0x5567776777768777U, 0x6777775777667787U, 0x9777777778777577U, 0x6577687795777577U,
  0x7975867777777777U, 0x7667574457777897U, 0x7667777777877777U, 0x9777897778657667U,
  0x7677676677547777U, 0x7777877777777777U, 0x8777777777777777U, 0x6767887787777677U,
  0x6778777567787777U, 0x7777885766767779U, 0x7797767677777877U, 0x8857977657477687U,
  0x4767578979778755U, 0x7677768779777777U, 0x6867977777877777U, 0x7777767777877667U,
  0x9797877777677665U, 0x7777777764576777U, 0x4787777877776776U, 0x8788777787697478U,
  0x7777797786777777U, 0x8777768777987677U, 0x5777778777876797U, 0x7877777768977758U,
  0x8777766977777888U, 0x8779777656677756U, 0x4767777577678777U, 0x8687777877577677U,
  0x7857786754779878U, 0x8767577779775787U, 0x7866797576567777U, 0x6777777757778798U,
  0x6477876777767754U, 0x7976778777879779U, 0x7767767777777767U, 0x7779778786777795U,
  0x7677796797587677U, 0x7777987776795777U, 0x7777775797777975U, 0x6779777777777797U,
  0xbb77777766768777U, 0x7767779777886677U, 0x7876776657777777U, 0x8977977787777786U,
  0x7777787779778877U, 0x7877786887775677U, 0x7867777777767675U, 0x8787779777877776U,
  0x7777777777777778U, 0x9888777799588789U, 0x6767887787687977U, 0x7777777767886777U,
  0x7687977777976857U, 0x7678777777777877U, 0x5655677977677777U, 0x8857777759766677U,
  0x7846767778789788U, 0x7767777789877787U, 0x7696566576787975U, 0x7777776857767878U,
  0x9777757777677787U, 0x4887676967578776U, 0x8787777777877677U, 0x8777777777778877U,
  0x7777475677a87775U, 0x7787467677776777U, 0x8776787877577777U, 0x9677797476778756U,
  0x5775667877777477U, 0x7977687876756856U, 0x7977776787777787U, 0x7776877477578777U,
  0x6877977767787779U, 0x776777a777777774U, 0x8775865575777986U, 0x7577557777657778U,
  0x7777776776788666U, 0x7777787447767777U, 0x7777878877876777U, 0x77667a7787777757U,
  0x6787777877678474U, 0x7777755775777777U, 0x7777767767777677U, 0x7785877777786867U,
  0x87778688aa758787U, 0x5577776577777986U, 0x7776678878777877U, 0x7776778986775776U,
  0x8877887755584487U, 0x7696777775786777U, 0x8766577777777777U, 0x7888677877777798U,
  0x6677787577775789U, 0x6777878779778767U, 0x7779777797578777U, 0x8777777679687797U,
  0x7775777777774774U, 0x7779677787678777U, 0x7765477675777754U, 0x7977778677798877U,
  0x6557898767975676U, 0x7765767876877778U, 0x5677797575875588U, 0xaa68688776777977U,
  0x7877777777797779U, 0x7777778767768677U, 0x7567777777777977U, 0x7798577765776777U,
