/**
  ******************************************************************************
  * @file    ann_756_data_params.c
  * @author  AST Embedded Analytics Research Platform
  * @date    Mon Apr  1 23:14:06 2024
  * @brief   AI Tool Automatic Code Generator for Embedded NN computing
  ******************************************************************************
  * Copyright (c) 2024 STMicroelectronics.
  * All rights reserved.
  *
  * This software is licensed under terms that can be found in the LICENSE file
  * in the root directory of this software component.
  * If no LICENSE file comes with this software, it is provided AS-IS.
  ******************************************************************************
  */

#include "ann_756_data_params.h"


/**  Activations Section  ****************************************************/
ai_handle g_ann_756_activations_table[1 + 2] = {
  AI_HANDLE_PTR(AI_MAGIC_MARKER),
  AI_HANDLE_PTR(NULL),
  AI_HANDLE_PTR(AI_MAGIC_MARKER),
};




/**  Weights Section  ********************************************************/
AI_ALIGNED(32)
const ai_u64 s_ann_756_weights_array_u64[71785] = {
  0xbf900d7ebfc56d7fU, 0xbede635fbf45581eU, 0xbde1edccbe8430f0U, 0x3e4336163d152f48U,
  0x3f57f2943ec31790U, 0x3fddb0483fa8e772U, 0x401cd8fc4005aa7cU, 0x404b34b84032c23cU,
  0x6766675665556675U, 0x5557557667447577U, 0x7655254476766675U, 0x4644745467564546U,
  0x5665346357735777U, 0x5456675755554574U, 0x6468444843764445U, 0x6566764675767567U,
  0x6766566676447886U, 0x6545586555576666U, 0x5557447788877555U, 0x6446475643756775U,
  0x7558575766868367U, 0x6654667765664764U, 0x6655465666785555U, 0x7766557767657644U,
  0x6466775375555566U, 0x5465657567465754U, 0x5455755684885466U, 0x7546547686777634U,
  0x5544545644644773U, 0x3665454555366456U, 0x8658756466654364U, 0x6655776466664455U,
  0x7636645756756774U, 0x6565687685676777U, 0x6666556756647765U, 0x4275655466654465U,
  0x8665565587745766U, 0x6467774646686645U, 0x7577456445644546U, 0x4547666565466566U,
  0x5565757688558668U, 0x6846757446647565U, 0x7555777776573411U, 0x5673556687536755U,
  0x5654467665663366U, 0x5754444554845445U, 0x4474676555457654U, 0x5774666576875655U,
  0x3666785445555587U, 0x6574367546667565U, 0x7455665556666556U, 0x6755727556757556U,
  0x5653546556446466U, 0x5784755556454466U, 0x7664545564864866U, 0x6776454654667457U,
  0x5566657565666666U, 0x4544448547765574U, 0x6566774577456555U, 0x6764666485555664U,
  0x6656584486545676U, 0x6675356578556745U, 0x6665665777756866U, 0x5556768675556578U,
  0x6444766867666665U, 0x6766666465654575U, 0x8767465574665466U, 0x6666553463885844U,
  0x7556565664347535U, 0x7566664475556555U, 0x7676664566447755U, 0x5765877756545446U,
  0x5574566444766746U, 0x6567a7aa77455474U, 0x6765647556563555U, 0x7547866646556644U,
  0x6557646565786865U, 0x4745778845664456U, 0x5787465565565555U, 0x5677555776564637U,
  0x5754667856457557U, 0x7667662523755666U, 0x6644656568655665U, 0x5746666645646558U,
  0x6576745485876675U, 0x6676667536656667U, 0x6655665674647675U, 0x6658475547456466U,
  0x6576656578565765U, 0x6667667635224655U, 0x7675464676556646U, 0x7656877756557475U,
  0x5668777755765764U, 0x6767556767665667U, 0x6644587767757677U, 0x5474876755545643U,
  0x4654666565466645U, 0x5675766766553366U, 0x7476656665667775U, 0x5664676465566565U,
  0x5654674475767657U, 0x7655764464446766U, 0x5565478666656766U, 0x5455656456445655U,
  0x8767575556574564U, 0x6656566645446644U, 0x6773877867646664U, 0x5566645544764664U,
  0x5567756676676646U, 0x5778787766677666U, 0x4564463476876577U, 0x5786467645466436U,
  0x3235775436654675U, 0x7658756666564654U, 0x7557644654666565U, 0x6677666655856867U,
  0x6657767755667574U, 0x6564565478686387U, 0x4477587556756666U, 0x6455556664566544U,
  0x6755586788767486U, 0x6866458447745676U, 0x6555567567645565U, 0x5577656447767656U,
  0x5664355448566647U, 0x7768767566776566U, 0x7755767866766465U, 0x8787677645566644U,
  0x5646456657657655U, 0x6776476554744576U, 0x7664345464457677U, 0x5656674566666877U,
  0x6676864655446666U, 0x7755654665665666U, 0x5587557768464666U, 0x5555776777766645U,
  0x7675a6bb47748566U, 0x7567688766673656U, 0x5444566756636677U, 0x6565566666666866U,
  0x5586656545666666U, 0x7466565664875644U, 0x6565866677794754U, 0x7675666657655664U,
  0x4576876578446657U, 0x6656678646664657U, 0x5756655753567467U, 0x7566565676777744U,
  0x5746745865575475U, 0x7675766753566867U, 0x5475654555666665U, 0x5546656678655656U,
  0x4566454433665646U, 0x4667555466355466U, 0x3455637546555543U, 0x5655664755556675U,
  0x5746757756476347U, 0x6664655854467576U, 0x8735567656745545U, 0x4566754664787564U,
  0x5573455546869947U, 0x6565786765677447U, 0x8666645535765675U, 0x6765887345668686U,
  0x6476578577546556U, 0x7865575777586664U, 0x7547675466567588U, 0x6567344447766856U,
  0x7555666655442734U, 0x8764687667334555U, 0x6655365667465466U, 0x8777685765755565U,
  0x8777774565544463U, 0x7757474576458565U, 0x5578547765566487U, 0x8868544576674554U,
  0x6567576536766884U, 0x5867655664666456U, 0x6556476765556477U, 0x3556775576766757U,
  0x4574766586554566U, 0x6566545567745668U, 0x5754567686846566U, 0x4633565555576556U,
  0x5544766766666754U, 0x4473666445546566U, 0x5555545565776557U, 0x6564656765856785U,
  0x6644637777655553U, 0x5464655454467456U, 0x8647667664456654U, 0x7547666557543466U,
  0x5875356778684447U, 0x5555557775588666U, 0x4655664665773576U, 0x6566444665674656U,
  0x6436765365666666U, 0x4454877579666576U, 0x5464545445486545U, 0x7566878858774575U,
  0x6686585656457665U, 0x7668656556736765U, 0x6777865576776744U, 0x6466555486676668U,
  0x7664666677765655U, 0x6565556667585457U, 0x5667654565545566U, 0x5567658877476556U,
  0x6547666454766566U, 0x6478655576668645U, 0x7666844875766667U, 0x7656646576856876U,
  0x6766667756555667U, 0x6546443565664654U, 0x5467444564466553U, 0x5557565666447667U,
  0x7556676567667667U, 0x6857776666757675U, 0x6754767765576578U, 0x5666688766546666U,
  0x7476655454746777U, 0x4374556654565758U, 0x4644545434666766U, 0x6786657675472248U,
  0x6667477646555766U, 0x7547545757676784U, 0x5577656677465666U, 0x7457346464566686U,
  0x6745766646646566U, 0x6455555675545464U, 0x4565446845338546U, 0x6465655468448689U,
  0x5466564654776768U, 0x5565877745768756U, 0x5855665667676464U, 0x6675688776764575U,
  0x6679565665786664U, 0x6644453464353354U, 0x3267544778445554U, 0x7655764776667645U,
  0x5554735764457657U, 0x7676475664766675U, 0x6776677645756676U, 0x7647657646666557U,
  0x5546746666566846U, 0x5564565655455443U, 0x97996a5445564464U, 0x3565666566764765U,
  0x3365567466574653U, 0x5555776656666566U, 0x8566547746775746U, 0x7655566477576576U,
  0x4466465565454657U, 0x5555576576555546U, 0x5526005756666756U, 0x5576774665656665U,
  0x5676646785686576U, 0x5667554655666666U, 0x6364578674664655U, 0x5666644465447357U,
  0x4866768879757765U, 0x6445456755534655U, 0x6675462266766567U, 0x5767665566455466U,
  0x7566657475867755U, 0x5586764645566656U, 0x7577654646546765U, 0x5755757776755576U,
  0x5766766665586567U, 0x5654545666656755U, 0x5664748688668555U, 0x6566456565666675U,
  0x8454565478768657U, 0x6665666565766746U, 0x6567466667566546U, 0x6654666776765657U,
  0x6774567776577656U, 0x5456556465474565U, 0x6667655686886545U, 0x4564575655667666U,
  0x6657666567576585U, 0x6766546867677756U, 0x7855664564547754U, 0x5754568657666656U,
  0x5666554354665568U, 0x3633533544556666U, 0x6646546665443265U, 0x7555677857656587U,
  0x6687566575656575U, 0x7676656468556664U, 0x5864655667666544U, 0x3334436467567844U,
  0x5545466564323442U, 0x7975464744466545U, 0x5565866677758888U, 0x7648548565576767U,
  0x8766466664566865U, 0x7876664666677654U, 0x7677756764656765U, 0x4536444574663665U,
  0x7467454466563454U, 0x9955456654665744U, 0x4656467567834595U, 0x7668485756445756U,
  0x6645875775666456U, 0x7675555565746657U, 0x5587367564565646U, 0x3422324454557668U,
  0x7456645656555543U, 0x8576486756465544U, 0x6477487855456555U, 0x6876757776667655U,
  0x4546565655655677U, 0x7756777777656674U, 0x7566645655656766U, 0x5554354354646445U,
  0x6446457554546645U, 0x6496884864446566U, 0x5545456765777665U, 0x4766657567757766U,
  0x4675767765666667U, 0x6556657556675667U, 0x5754667775465667U, 0x3534523543344455U,
  0x4465555554575764U, 0x4544637774655545U, 0x5455655666766667U, 0x6666656546566767U,
  0x7658766556655775U, 0x5765666586767656U, 0x7566644554444666U, 0x5524222333333354U,
  0x4556436543556446U, 0x8565569599584763U, 0x5674356867664745U, 0x5566557655565856U,
  0x6846577567667766U, 0x6644686756776768U, 0x6664657665577755U, 0x4566474554755544U,
  0x6663456654455676U, 0x5554666647234766U, 0x6664454577576457U, 0x6657565678674545U,
  0x5456665565866876U, 0x5655546756555556U, 0x6476654464764766U, 0x5675764545476465U,
  0x4666556565555776U, 0x4557565575666666U, 0x5767445755756766U, 0x5454666765645567U,
  0x6655466664456455U, 0x5444544745666555U, 0x6846577665675545U, 0x7666654356555666U,
  0x7845447654466646U, 0x8666667548559799U, 0x6644463466767656U, 0x6554546655664475U,
  0x4575547666676666U, 0x6686687666666567U, 0x6457775666676656U, 0x6675565446756557U,
  0x1155466657675555U, 0x6545776667646624U, 0x6564676656456677U, 0x5777667678835577U,
  0x5586554556446475U, 0x7646756676564544U, 0x4566566666675648U, 0x5365575665564565U,
  0x6755564455654546U, 0x4675686666766666U, 0x3457544466656545U, 0x6567557666656646U,
  0x5755856777675667U, 0x5547454455667646U, 0x5355556546656655U, 0x4665556554557445U,
  0x7625114766644476U, 0x7466656655645477U, 0x6654676446455666U, 0x6645577676576654U,
  0x7656566566665556U, 0x7577678676645776U, 0x4667574475776856U, 0x5644667556765565U,
  0x6445363453666666U, 0x4755656578457545U, 0x7766455576754566U, 0x5647464376676576U,
  0x5644576566674666U, 0x4786554677465474U, 0x6566666575766577U, 0x6676656645664643U,
  0x6687664644675575U, 0x8587676668566665U, 0x6457445477568576U, 0x7758867646666644U,
  0x7776766666675765U, 0x6755676666665555U, 0x5656575776787765U, 0x5566556557554664U,
  0x7766867586996675U, 0x5565655665767456U, 0x7866545765566877U, 0x7746666667666688U,
  0x6756855876744766U, 0x5664667566654488U, 0x4456456748777767U, 0x6668766665656564U,
  0x4744654655a7bb74U, 0x4666465357455554U, 0x8847564676666566U, 0x4766565676667576U,
  0x7677766686464657U, 0x6666764666655556U, 0x4564556755355546U, 0x7855676654756565U,
  0x6654754567569799U, 0x7754565464856876U, 0x6565476544445567U, 0x7567876756667666U,
  0x6455576545677645U, 0x5654557756766748U, 0x6546656566767564U, 0x2278866766545545U,
  0x5556764645776536U, 0x5454756666556668U, 0x7665675565645674U, 0x5666565755766567U,
  0x8876867787858566U, 0x3333634455567575U, 0x4644754466655633U, 0x9899796645646745U,
  0x6566664566644755U, 0x6565464845544666U, 0x4464577666665667U, 0x5777676566685565U,
  0x4456558776575655U, 0x4544447365566567U, 0x6675686664556666U, 0x5586996544575356U,
  0x4746676545865674U, 0x5544544738467676U, 0x7536455465565674U, 0x6556755465544676U,
  0x6746656656554566U, 0x6555443352746555U, 0x6746764666865754U, 0x5455979967666557U,
  0x6577545646576754U, 0x4456664666474445U, 0x6555446666655456U, 0x6545444675476565U,
  0x6667776565875865U, 0x6866553444334574U, 0x7777655555656446U, 0x4456644532766765U,
  0x5567554766555667U, 0x4556565665654666U, 0x7656848656765666U, 0x6666566665536675U,
  0x6556646854765665U, 0x5546564444435345U, 0x4746676656654874U, 0x5765656434445584U,
  0x6666566565663476U, 0x4746645755345548U, 0x7656465674656376U, 0x4655646554656766U,
  0x4674646655556776U, 0x6554444544343331U, 0x7644547657756746U, 0x6577755577463356U,
  0x3866565866586685U, 0x6555545744346575U, 0x6556457565645778U, 0x7765656646645566U,
  0x6476566454465577U, 0x4445776556457666U, 0x4367466646765545U, 0x5554656647683467U,
  0x7646558787457757U, 0x5567666686656574U, 0x4667666777456565U, 0x6454635588668755U,
  0x6436566564565468U, 0x4667866686584486U, 0x8833665364754457U, 0x8665555457676645U,
  0x8664675444536347U, 0x6668866664637634U, 0x6366664665566655U, 0x6568664654765556U,
  0x6654654866647764U, 0x6645775464674773U, 0x8799434577465677U, 0x6665564476465467U,
  0x7544567748544646U, 0x7767656744745676U, 0x6564674554556467U, 0x5678777777567666U,
  0x6645656577555586U, 0x5655566657756745U, 0x7445445567584847U, 0x6864557686676447U,
  0x7444655747446565U, 0x6764768746665765U, 0x6764666465458666U, 0x6654566564435568U,
  0x6766867666767464U, 0x6587786556466774U, 0x5555565544346545U, 0x6744744764566555U,
  0x6575665863776766U, 0x4664677846665754U, 0x5675574364565766U, 0x6445864656754875U,
  0x8756666686767646U, 0x5755656746665665U, 0x6874673555436657U, 0x5634556447538555U,
  0x7467655647735575U, 0x6678667667657756U, 0x6676566566676744U, 0x6576463444463374U,
  0x8766474555456663U, 0x5555667566556777U, 0x6665667754446368U, 0x5756675667536655U,
  0x4666667666566567U, 0x5646555465787766U, 0x4565576566765557U, 0x6676755566466765U,
  0x6576764764655574U, 0x6664665766466767U, 0x5676666567746666U, 0x6778666657566665U,
  0x8565557665775566U, 0x7866754556546567U, 0x5656464664546646U, 0x8767547665665544U,
  0x5776465566566777U, 0x6744567556656664U, 0x5576545666454622U, 0x4568565455664554U,
  0x6776686566777676U, 0x6765766556666556U, 0x6676453574765776U, 0x8767564877866676U,
  0x7657665666767776U, 0x6644675666778658U, 0x5666557667668646U, 0x6656786665656765U,
  0x5446746666567476U, 0x6567545665755456U, 0x7755655675668657U, 0x7768474564685876U,
  0x6767677567665656U, 0xc6cc585645646764U, 0x5466445666348566U, 0x6645664655666567U,
  0x7686675377555545U, 0x7665455465656866U, 0x5546675476566666U, 0x5546646865556666U,
  0x4467767668555564U, 0x7786996856656565U, 0x6666557867466667U, 0x7567556646644665U,
  0x6676556756656566U, 0x6577876676665665U, 0x6566565657666556U, 0x5675557758367465U,
  0x6765675664365465U, 0x554496aa57764664U, 0x5866566545768676U, 0x6574647644635466U,
  0x7646656676676667U, 0x6667544567747757U, 0x6665788667764666U, 0x4557556687576746U,
  0x7658576577785766U, 0x6756665855566676U, 0x6654445654435644U, 0x6787676757668577U,
  0x3575757646554666U, 0x4776676655567865U, 0x5746665756664375U, 0x6855565575766876U,
  0x5455546556774764U, 0x7768545616117556U, 0x6476776666686666U, 0x4355777756458574U,
  0x6667676554565475U, 0x5774857666656666U, 0x4455667745547786U, 0x6366574574676757U,
  0x5477756556665555U, 0x7555775644657766U, 0x8577556667756765U, 0x6658654753557786U,
  0x7634866646735666U, 0x6766767766876766U, 0x7844455657646665U, 0x7555436467368677U,
  0x5776446877666475U, 0x7576675646564534U, 0x5385675665766786U, 0x5465665578676766U,
  0x4667885488666666U, 0x5676666654644566U, 0x7648564576444686U, 0x6665645776375664U,
  0x6564477357586766U, 0x4675677567855347U, 0x6557745455568656U, 0x5467366786365655U,
  0x5656666647665666U, 0x5476777644755756U, 0x5556466354464676U, 0x6565765866644545U,
  0x8488665574646356U, 0x6664777546547456U, 0x5676674466657687U, 0x5665655666764556U,
  0x6688666777675647U, 0x6765476555764676U, 0x6665787866464656U, 0x6578676665645666U,
  0x4574886466556574U, 0x7657647766676667U, 0x7477676757666655U, 0x5655655764555664U,
  0x4687688656574564U, 0x4764776546776654U, 0x575664987a455454U, 0x6667676754757867U,
  0x5666989978455556U, 0x6555365567556666U, 0x3455575586566646U, 0x7676667578655765U,
  0x5355687556646667U, 0x5546666476654446U, 0x6757758888697657U, 0x4576656677556656U,
  0x6667561311757667U, 0x6656655576485566U, 0x5685767547555686U, 0x6754536677564465U,
  0x5764566846656575U, 0x4646667577867565U, 0x7746564465766644U, 0x5568537756755766U,
  0x5545576585985874U, 0x5657544764665566U, 0x6567645657664375U, 0x5657675687775567U,
  0x4565766674756676U, 0x6536467654666668U, 0x6765565444345457U, 0x5665588776788668U,
  0x5754454456544476U, 0x6445666655775566U, 0x5767866566546577U, 0x7645858766757764U,
  0x6575756666557565U, 0x5555477446646676U, 0x6686765576454545U, 0x6566576546645766U,
  0x5566666655663522U, 0x6567677476667667U, 0x5576675646666466U, 0x5556566568567644U,
  0x6457546555576665U, 0x7776747564786667U, 0x6757677577765677U, 0x4454776566767567U,
  0x5676676656756645U, 0x6666665566666466U, 0x7666766566765757U, 0x6665576567665667U,
  0x5646677565776755U, 0x5676764656745775U, 0x4465565677567577U, 0xe6ff586566656665U,
  0x6776666655676566U, 0x6666556666566677U, 0x6577567756655478U, 0x5677566667766667U,
  0x5666565566665655U, 0x6566567548666456U, 0x5667667666746756U, 0x8794bb7645565666U,
  0x6676666676766767U, 0x6576555565666566U, 0x6464675456746666U, 0x5565666757767565U,
  0x7766556576575467U, 0x6558454554446565U, 0x6666466457766656U, 0x5766262155655675U,
  0x5677555665775665U, 0x7656566756675685U, 0x5666745666755556U, 0x6564656567656756U,
  0x6647555577666577U, 0x4644654464446666U, 0x7777555545655765U, 0x7666644732767776U,
  0x6655666667665566U, 0x5575756677557667U, 0x5766657657675766U, 0x6655665577566567U,
  0x4545466675667676U, 0x4466644553655556U, 0x7567766567856667U, 0x76574464c6cc7847U,
  0x6665577766766666U, 0x5765566766665844U, 0x5664458665676765U, 0x7636657757555844U,
  0x6657565644565444U, 0x7656766444676675U, 0x7764685567775744U, 0x6647666677868874U,
  0x4577665545655656U, 0x4444576667866757U, 0x6465575665867667U, 0x6666576755578766U,
  0x7648756465467566U, 0x4565575576876676U, 0x6555665374677554U, 0x6647557776754722U,
  0x4324756548766666U, 0x4474766767665665U, 0x8667467668455675U, 0x6578347555668665U,
  0x7866674666675485U, 0x5564566477666586U, 0x7856565766555766U, 0x6685558755867665U,
  0x5667547455667845U, 0x6746747655657576U, 0x6646647744656866U, 0x8575656546556777U,
  0x3566677545455556U, 0x5666666487567666U, 0x7777755766644656U, 0x4476665466655675U,
  0x5544756686445766U, 0x6455556567656755U, 0x4654645666767867U, 0x6764564565556776U,
  0x6654775746364634U, 0x5747586557677666U, 0x6726227576565656U, 0x5563476776776674U,
  0x6655666656665564U, 0x6456866645644464U, 0x8456645675467547U, 0x6756876837685546U,
  0x6645443653677654U, 0x5544536456677666U, 0x7666665665645564U, 0x7558667666654577U,
  0x6656766666455666U, 0x6658566455775686U, 0x7546856747775665U, 0x4567654888656667U,
  0x6665566664755666U, 0x4465557758534755U, 0x5566663833755745U, 0x6567875558675668U,
  0x6566865656556777U, 0x5646764566785667U, 0x4655566565466546U, 0x5636666756466577U,
  0x6547754764676855U, 0x6464657586678764U, 0x56686577a7bb5735U, 0x6545785757757866U,
  0x6583876668866657U, 0x8647565766446657U, 0x6655866877764654U, 0x8576457657676755U,
  0x5644686568656687U, 0x5556448775666567U, 0x4765886756648854U, 0x4557554376454575U,
  0x5655445564766555U, 0x7577966665647577U, 0x6766748665666758U, 0x5676664776765556U,
  0x6666777566575646U, 0x7867575766647547U, 0x7868666687587555U, 0x6554664457666375U,
  0x4455444564565645U, 0x7666576778687458U, 0x5867668766557686U, 0x6676465545867877U,
  0x7666865655677754U, 0x2278665776464565U, 0x5653777665777736U, 0x6557454467454556U,
  0x7464676755446655U, 0x6767766645668655U, 0x5766556775788877U, 0x7874567755655565U,
  0x5547666566466578U, 0x3466636467547445U, 0x7766666564666547U, 0x4546666567585646U,
  0x6767665555577668U, 0x6584566456658766U, 0x6477876677575655U, 0x5675666775565656U,
  0x8666566656575545U, 0x67a6bb8955644457U, 0x4764866677668646U, 0x6667786455657758U,
  0x5465667875557566U, 0x6567766655465566U, 0x5644665466446477U, 0x5445456666655656U,
  0x6757455675666544U, 0x7777283374666665U, 0x6765656467667845U, 0x5646664555665867U,
  0x7655655444657856U, 0x7656756576577667U, 0x7556846555673546U, 0x5645666645366665U,
  0x6674765667767576U, 0x5767644622675555U, 0x5565656675646767U, 0x6655657754847845U,
  0x5755565784555656U, 0x7665857865746765U, 0x5566645656466787U, 0x5566674465766846U,
  0x6667655555674465U, 0x5646764658645665U, 0x4574447646766655U, 0x6688677466677678U,
  0x7656575666666466U, 0x7766676866776776U, 0x5553565657666765U, 0x7645465555634457U,
  0x6765865775346576U, 0x8778676665474556U, 0x7656646767766567U, 0x6666687566366466U,
  0x4555567676665565U, 0x5666766655445667U, 0x5556655455454666U, 0x7664775746474555U,
  0x5487655467575555U, 0x6456567567537788U, 0x6455677666455568U, 0x4464566557576454U,
  0x5787746665576567U, 0x7676578537447555U, 0x6763648446856767U, 0x6657458658686733U,
  0x5664567745766667U, 0x5576564544566646U, 0x5766557785666555U, 0x4654867766877666U,
  0x5558676554556757U, 0x7777464466568677U, 0x7545554436667665U, 0x4678556666446666U,
  0x4644677755687656U, 0x6666656667564455U, 0x5664568566777668U, 0x6447546445656366U,
  0x6564566667666474U, 0x4657546555456654U, 0x6456774556556566U, 0x4466876858666665U,
  0x4565675745675768U, 0x7557666675588647U, 0x6555664753566765U, 0x6767567645645355U,
  0x6675453455544747U, 0x7554546665378454U, 0x4777567547776475U, 0x7577667557545665U,
  0x5656352257767767U, 0x6665657775556837U, 0x5666557776756465U, 0x6455466667556764U,
  0x6565674356445566U, 0x6575667655866666U, 0x5866768576667465U, 0x4665875634455565U,
  0x6845556688535556U, 0x7655466557657675U, 0x4467556585375475U, 0x6875857756446555U,
  0x6565556767866865U, 0x6565566876676564U, 0x4566657677554465U, 0x8656767667865577U,
  0x7667665684775477U, 0x8766676644656566U, 0x6676554765545744U, 0x7755667866365557U,
  0x6655657565543564U, 0x4746666564546656U, 0x5755745546655755U, 0x6567867657676667U,
  0x667578576696aa45U, 0x4357666357656657U, 0x5564576578645657U, 0x6466666668656576U,
  0x6556667756746736U, 0x6645635556766656U, 0x6444465666656886U, 0x6666756557336556U,
  0x6546744666767589U, 0x3544455684576663U, 0x3465657776576553U, 0x5777657855767767U,
  0x6746636656767746U, 0x5764564464566674U, 0x5554656556574476U, 0x9954765565347458U,
  0x6555757677545565U, 0x4446446766566846U, 0x5766565456776675U, 0x6855766644558865U,
  0x7866556645677688U, 0x6654656654676775U, 0x5776576575766646U, 0xa8aa796676866666U,
  0x8477765854574578U, 0x4545555555456658U, 0x6744656656546645U, 0x6676455665546554U,
  0x6468646787665546U, 0x7887674456545656U, 0x5657576566767778U, 0x6558464746556464U,
  0x6777566554654854U, 0x6466676845465564U, 0x7657545575555555U, 0x6644876667758665U,
  0x8547654655556666U, 0x4565563553554675U, 0x8577577666556645U, 0x6555787788666466U,
  0x6677656656665655U, 0x5465585674666654U, 0x5656666476665566U, 0x5764666654875667U,
  0x6554666666654666U, 0x5565436566767774U, 0x5476454776665765U, 0x5576775443766665U,
  0x4665466565565567U, 0x7868667665567766U, 0x6565667576675675U, 0x7664667676775576U,
  0x6665576556665655U, 0x4455657766878978U, 0x5566765666657465U, 0x6755665666755656U,
  0x6654685666576654U, 0x5776566445656567U, 0x6666656665576467U, 0x6765645754866576U,
  0x8674576776665666U, 0x5755747767868778U, 0x6776555566666766U, 0x6666657665564377U,
  0x7765667746647747U, 0x4766657655666787U, 0x7666656566645674U, 0x6567666545766656U,
  0x4665566677664775U, 0x7888674564576767U, 0x4575685676475666U, 0x4575465544776488U,
  0x5786765664676666U, 0x5665575464665767U, 0x6547655765675646U, 0x4645665744775647U,
  0x5577678566644654U, 0x7566557657645555U, 0xdc78575766775556U, 0x66665765666666c5U,
  0x4556766666645667U, 0x6666776743645864U, 0x7654756666567756U, 0x6766565656576465U,
  0x6458446666646677U, 0x5566664467556465U, 0x3734755846545757U, 0x5654665545347864U,
  0x6655555445644577U, 0x4463665455667656U, 0x4545744556786757U, 0x7654767588675656U,
  0x5766556467476677U, 0x7756333656767476U, 0x6445334743665676U, 0x5456644545646657U,
  0x4355448655337465U, 0x5767775665686676U, 0x5655556664686655U, 0x7766666476456755U,
  0x4764555643668566U, 0x4544565746656565U, 0x4453153354655435U, 0x4677566657735853U,
  0x4676646556644666U, 0x4467446675664467U, 0x7563544547456665U, 0x5674785657557553U,
  0x6575468568777675U, 0x4546544665565554U, 0x5665473633474653U, 0x5655665465456666U,
  0x6575565554676756U, 0x5777675565867757U, 0x6565677656644667U, 0x7664575665757667U,
  0x5866767766576656U, 0x6667456476767584U, 0x6576656686995446U, 0x5534767578764764U,
  0x5654446456555664U, 0x6565444657344466U, 0x7875665545666846U, 0x5666667688664466U,
  0x7546457664876864U, 0x5454558566667745U, 0x5466764566346664U, 0x5657676554655565U,
  0x5464553544444485U, 0x4665446545645664U, 0x7566455575656667U, 0x5657677765677666U,
  0x6665565446646755U, 0x7766676576877657U, 0x5667646587757588U, 0x6656756555667685U,
  0x4553465676564855U, 0x4545475635867765U, 0x5675555656745677U, 0x5566554766468464U,
  0x6477466566663454U, 0x5557767876576457U, 0x6445454785346657U, 0x4754545666554554U,
  0x6756656667656664U, 0x4466654356444665U, 0x6665866566675546U, 0x5566667775656646U,
  0x6555347557565544U, 0x6777565554455647U, 0x4577446457645777U, 0x7545644645766665U,
  0x7644368758767656U, 0x6666574457656465U, 0x6575665684345566U, 0x6676675575666465U,
  0x6537757758436465U, 0x6546435665474655U, 0x4644646654657776U, 0x3443576755755746U,
  0x7755475575556756U, 0x6758378677775766U, 0x5575766677556486U, 0x5566665666576566U,
  0x5645646574775678U, 0x4565979968554374U, 0x4566646656567555U, 0x5765463664455566U,
  0x4556658657554655U, 0x8756666756855845U, 0x5765674877658788U, 0x4457667766776665U,
  0x5564764577377768U, 0x6667473344746566U, 0x6776565665464577U, 0x6546446475664456U,
  0x5654576545666755U, 0x6587774866567665U, 0x6556664564677686U, 0x6466675465757866U,
  0x3766566666766577U, 0x7646656898998965U, 0x4766767667565656U, 0x6555656558656454U,
  0x5677565644558866U, 0x6546444575876645U, 0x5465546654676666U, 0x6565475343567665U,
  0x3655674555765644U, 0x4686777765766678U, 0x6546445355676455U, 0x5576573366666545U,
  0x4566654485475646U, 0x6577666646646675U, 0x4245456565684755U, 0x6554675645445444U,
  0x6465646554645444U, 0x4455645476676654U, 0x7656756656554674U, 0x6676676465786656U,
  0x6446844576657378U, 0x8745467665655744U, 0x6564447454576674U, 0x5646635465563434U,
  0x6546765456555766U, 0x7676585555765677U, 0x6545655466555677U, 0x5463556564664786U,
  0x8788886865655566U, 0x7658564566666476U, 0x3454654554557555U, 0x5454554546464345U,
  0x5666636457557546U, 0x6654675655467576U, 0x6657757457656676U, 0x5666565477567756U,
  0x7557666876757768U, 0x4665446666766576U, 0x6463756466574678U, 0x5555746874547467U,
  0x7698997866676666U, 0x7675666567665466U, 0x4666467585666755U, 0x7656645466667666U,
  0x6756764655657647U, 0x6775775674667768U, 0x6765574445644557U, 0x6676455588667567U,
  0x7666758854587676U, 0x6667574587786658U, 0x7585565476576676U, 0x6577666586484568U,
  0x4464577666435444U, 0x6445553876556565U, 0x6866545533575577U, 0x4556645656744543U,
  0x6786548588586777U, 0x4537664575876467U, 0x8676665644545676U, 0x4656446745476666U,
  0x5664568644666778U, 0x5466568766655756U, 0x5665665676547366U, 0x6648655565474465U,
  0x4766847746446544U, 0x6445566657656665U, 0x6668535754846786U, 0x6456874565656747U,
  0x4667457666567645U, 0x6676687655664586U, 0x6657746666545775U, 0x5675557577486456U,
  0x8767666544866466U, 0x4785755567675454U, 0x6468867566566365U, 0x7676565675774634U,
  0x8455654647664675U, 0x4566865676557567U, 0x5468747677666654U, 0x7475574656667547U,
  0x4575566657662622U, 0x5686674356534455U, 0x7775746665568537U, 0x6755654555887766U,
  0x6657555485557634U, 0x5544456666557555U, 0x4564885535675465U, 0x9a68335765675666U,
  0x6476555454666696U, 0x4446447757876766U, 0x8658446766755665U, 0x5767666756656664U,
  0x4656775556656755U, 0x7657737655565786U, 0x6664674674667555U, 0x5567644376468775U,
  0x4454746765765645U, 0x5445567446556766U, 0x7566356556778545U, 0x8677655565446864U,
  0x6656768856565765U, 0x4466547465545786U, 0x4578667676777457U, 0x7776777875776656U,
  0x5635655656545565U, 0x7566686486675766U, 0x5663747865556746U, 0x4445746588456456U,
  0x4566547655765555U, 0x5664767687684655U, 0x5666668756566666U, 0x4646868866447645U,
  0x8646547576645656U, 0x6563765654665664U, 0x6676446655547677U, 0x5655754554656744U,
  0x6575555655467578U, 0x6845576768776655U, 0x6765554455664464U, 0x6667654534576645U,
  0x5566676435635467U, 0x6857656455667567U, 0x6777775765576777U, 0x7466665646456477U,
  0x6466656647657635U, 0x5665577765677747U, 0x5576574546557657U, 0x7667556565765666U,
  0x7665757765466554U, 0x6664467445774654U, 0x5474567656666467U, 0x7456455666667765U,
  0x6764646567546855U, 0x6454877665667677U, 0x5546546574764566U, 0x6566756867869953U,
  0x6567465577775665U, 0x7667566567656746U, 0x6855556753644556U, 0x4657565574466454U,
  0x4864646474676666U, 0x5544656544435445U, 0x4856656654656466U, 0x668776776677a6bbU,
  0x5664657767776767U, 0x7677676665867776U, 0x7668564656678667U, 0x5676574565786866U,
  0x5767757456645766U, 0x5465665556765456U, 0x6654646544656767U, 0x6665646655865654U,
  0x6765644566664677U, 0x6657666766775666U, 0x5656566666657645U, 0x6655654566565545U,
  0x7487776555656476U, 0x6544636745343345U, 0x3333775657765454U, 0x4666874674657836U,
  0x3475578665656644U, 0x5767865647566566U, 0x7755686577564776U, 0x6686677677676785U,
  0x7776585856645686U, 0x5755556665575466U, 0x4555776454445646U, 0x6765576665846565U,
  0x5564656575564587U, 0x6776456655466686U, 0x7646767865876766U, 0x5475644775666557U,
  0x5654755669558555U, 0x7635655766667677U, 0x6556556843575567U, 0x6654766654775566U,
  0x4665774665754757U, 0x6656756666656665U, 0x7675455787665456U, 0x5667666466646667U,
  0x5645353364796774U, 0x5444555554666655U, 0x6544442433435555U, 0x4755555755645565U,
  0x6375778743547475U, 0x6786786766665676U, 0x5655654676657667U, 0x6566565746574667U,
  0x4546556676766757U, 0x5778777666666656U, 0x6657465533657476U, 0x6765564545654475U,
  0x7555887756747636U, 0x6465665555748666U, 0x5644545767665646U, 0x7764756445735686U,
  0x5566676566535665U, 0x4444464565464634U, 0x764676555695aa65U, 0x4853776754756665U,
  0x7657647686566668U, 0x4657666687654787U, 0x5666565677557478U, 0x6877655667547665U,
  0x4645854765656686U, 0x4535553558773565U, 0x8557666688688599U, 0x6657566567664566U,
  0x8776778647665567U, 0x7665558566765765U, 0x6765566765655754U, 0x6556667456557666U,
  0x8867456576564676U, 0x2255548746665645U, 0x5566786586667636U, 0x7465476555575758U,
  0x7537756655568538U, 0x6645676545668657U, 0x6766364377687646U, 0x6856646656575664U,
  0x3456686655473475U, 0x3622586687475456U, 0x4546444585476464U, 0x5756675634447767U,
  0x7666656845655786U, 0x5687457486457855U, 0x6476466677774767U, 0x5644546356655477U,
  0x8666656646785466U, 0x5685884776655566U, 0x8757467667575665U, 0x4466676656565547U,
  0x5653656656547665U, 0x5365577764554544U, 0x4664355577676866U, 0x6577578569775567U,
  0x7556545458655545U, 0x7587252264765656U, 0x6447456636768646U, 0x6667675666374446U,
  0x8766665656466566U, 0x7657555567747765U, 0x5456657665565656U, 0x8667357485687567U,
  0x7455756565665546U, 0x6755658699587755U, 0x6766558457556543U, 0x7546665576545855U,
  0x6366657567566665U, 0x5676455576765547U, 0x5447764556666655U, 0x6567444544445756U,
  0x8776536555545565U, 0x6788765826236576U, 0x6877655766457557U, 0x6756665464777557U,
  0x6866656577857777U, 0x7565676466555566U, 0x5785556566766858U, 0x4466755366445536U,
  0x6756454564575465U, 0x4468667766483367U, 0x5844766678676457U, 0x4566455467674674U,
  0x7556645756746575U, 0x6666666687668668U, 0x5674556666756874U, 0x4665557467645434U,
  0x5886685464476644U, 0x5746665764643633U, 0x5644556677468846U, 0x4544666756668645U,
  0x8657686555657556U, 0x7845466645657776U, 0x5677675556755774U, 0x6767565555764547U,
  0x7755668647665566U, 0x4576765867877846U, 0x5454456556645656U, 0x7677486646867656U,
  0x3786786667555465U, 0x6547566478546668U, 0x7577788767575666U, 0x6557475455675466U,
  0x2623457635777655U, 0x6577655545566666U, 0x4665577663664547U, 0x3665657677566466U,
  0x5546558688677555U, 0x4465647657786764U, 0x6454776768675764U, 0x8474464775578567U,
  0x7798ab6875446364U, 0x5544647676545377U, 0x6653564476575657U, 0x7576665476565584U,
  0x5464655657445675U, 0x7565546677747767U, 0x6667665574856546U, 0x8576576564774654U,
  0x5466284655645554U, 0x6664584744654766U, 0x6656855758665466U, 0x7445657487677678U,
  0x5665785666667766U, 0x5587675476767668U, 0x6766455566557566U, 0x5667456666646666U,
  0x4686652522766577U, 0x6656555476566777U, 0x6475788777856855U, 0x4485653666455656U,
  0x6574575657554667U, 0x5456635444856667U, 0x6566477465765644U, 0x5466356686436764U,
  0x7743685577765556U, 0x6456677466558576U, 0x6666457666558665U, 0x5546764766657877U,
  0x6667546646757467U, 0x6565666778656667U, 0x7885577654765656U, 0x7646564465456456U,
  0x6654566658363476U, 0x5576547645865775U, 0x6645678456876664U, 0x6776376775686668U,
  0x6574757555575577U, 0x4466577464547655U, 0x3465655665764775U, 0x3544465677664457U,
  0x6446547635755654U, 0x7675657768668546U, 0x6665556555457455U, 0x7647864747754555U,
  0x6367546767656434U, 0x5746455456765566U, 0x5574575556466646U, 0x8766545755776665U,
  0x7457547555544684U, 0x6666556755757546U, 0x5742357644646655U, 0x5554654655566566U,
  0x7655766865545444U, 0x8745554645775675U, 0x4355445486556667U, 0x9799864865545567U,
  0x6446666665444564U, 0x7567476746666576U, 0x7657645554646645U, 0x6564676766676565U,
  0x5667636755646754U, 0x7667445447466545U, 0x7646556546856667U, 0x6556347776545568U,
  0x5574478644457554U, 0x5766565678776656U, 0x6566666666587455U, 0x5646464664566765U,
  0x7876675566565455U, 0x6556876554765567U, 0x6777674553446564U, 0x6656848846566435U,
  0x5666876657756756U, 0x5445656665655757U, 0x6666474547555465U, 0x5745657556655565U,
  0x6767656786654466U, 0x4646566656657547U, 0x6623436856446746U, 0x668656a7aa475746U,
  0x6746666656457744U, 0x5646737686475755U, 0x6754646667355776U, 0x6566557674744677U,
  0x4646676753366577U, 0x5666744444446543U, 0x5567566655447645U, 0x7765776597676977U,
  0x6667777667666645U, 0x6667554558567546U, 0x6657865566655765U, 0x6555446666656556U,
  0x4656465665675476U, 0x7457565545456654U, 0x4556447567556767U, 0x5556567464764477U,
  0x4767455657556655U, 0x6766766565446756U, 0x5456566476476676U, 0x4676775744755565U,
  0x4336663666565654U, 0x4565554444456744U, 0x5765777766467656U, 0x5666654654648665U,
  0x7658657676545677U, 0x5678665664775777U, 0x5666756755534445U, 0x6576586455656557U,
  0x4453645663478687U, 0x5876556576476646U, 0x3378658677676756U, 0x6766565477567747U,
  0x6656666545766675U, 0x6566665455556666U, 0x4744777654567767U, 0x6556656766457556U,
  0x4454635455475555U, 0x4686556677444433U, 0x9799556566668687U, 0x6554566656557567U,
  0x5465664766556568U, 0x5556556747665557U, 0x6576566786677566U, 0x5566766667654546U,
  0x3443435245445646U, 0x4575446744435434U, 0x45a7aa6956556547U, 0x6476675656656754U,
  0x5746676657663685U, 0x6676546657444575U, 0x7667464567555666U, 0x6547776854677556U,
  0x6645556577667766U, 0x4555655744656765U, 0x5457375475664474U, 0x6555667666467766U,
  0x5766854666775754U, 0x7764676658558687U, 0x5376476467655475U, 0x4676665566567656U,
  0x4567676564366666U, 0x5675664775556468U, 0x875674a7aa687674U, 0x6457554677768646U,
  0x6587573567365664U, 0x6667766756547667U, 0x6664644677344576U, 0x7564756486654566U,
  0x6466676776765855U, 0x4555466587758866U, 0x6456776627236565U, 0x4554587576764767U,
  0x7785576766656746U, 0x5445588657864553U, 0x6544745677666456U, 0x7777764576767667U,
  0x3545546776455447U, 0x4456864645664654U, 0x4445765655979978U, 0x6566656466546576U,
  0x4546356767876756U, 0x5666667634334566U, 0x5544536677466664U, 0x4764586667667655U,
  0x5657546635765467U, 0x6666647765683454U, 0x5555567676483622U, 0x8754667677566675U,
  0x5565665586445547U, 0x6666657764556566U, 0x6785457575656865U, 0x4556754465673565U,
  0x5654367856465666U, 0x5666456657756576U, 0x5775686364646457U, 0x6765645775566676U,
  0x4565765666657647U, 0x3656646756457766U, 0x7466665674556456U, 0x7566464684545648U,
  0x5635854547665565U, 0x4766556866646754U, 0x4653555677657656U, 0x6645556678577656U,
  0x5465656745455574U, 0x4655676446467456U, 0x6656746667667466U, 0x7566575766586455U,
  0x4586476766556654U, 0x6696aa5866684645U, 0x7777754645746565U, 0x6664555676776665U,
  0x7556665644765577U, 0x5565456864665667U, 0x7564665475667454U, 0x4436554575675746U,
  0x4575677565558455U, 0x4465435665686667U, 0x6567654566564844U, 0x5756777566665446U,
  0x8655657666456655U, 0x7468655666557757U, 0x5666567567566646U, 0x5754667665585537U,
  0x7466767676486555U, 0x3476666677665655U, 0x7446776475677458U, 0x5655656556437646U,
  0x7465575476677577U, 0x5856646576665565U, 0x6663656765546487U, 0x6656667877566865U,
  0x4465645456656744U, 0x4645674598997855U, 0x7866466556656378U, 0x5476644547753775U,
  0x7565554466466555U, 0x7765668774784777U, 0x6647485566556755U, 0x6664666634655657U,
  0x5666444555678767U, 0x8547457846575555U, 0x6456875567567567U, 0x6774684665667555U,
  0x6577554765555657U, 0x5686747757557666U, 0x7866456666555445U, 0x5446554664766885U,
  0x4366555576866676U, 0x5665665554584366U, 0x5553744445865656U, 0x4665685465565446U,
  0x4464857847653674U, 0x4657445566674665U, 0x5557545356656568U, 0x6466666454664666U,
  0x9947566656664466U, 0x6666774586676694U, 0x8546736656665566U, 0x3555545665655776U,
  0x5575566766555574U, 0x5668545666764754U, 0x5644345466576656U, 0x4546685666785765U,
  0x2633767887785565U, 0x5567676655647568U, 0x3674666555447476U, 0x6676865665477565U,
  0x5557464567575655U, 0x6354464644748645U, 0x6665847557755657U, 0x4474576455877566U,
  0x5554534644566656U, 0x5666776766857656U, 0x7566257546766676U, 0x6458777568555366U,
  0x5655576675767755U, 0x5566447546655776U, 0x6753564667666456U, 0x5745757666776666U,
  0x5486363358466576U, 0x7776576565467667U, 0x6564664765575564U, 0x6666544545657757U,
  0x5576666554664743U, 0x5667765544647645U, 0x7767676678566665U, 0x4544564446647668U,
  0x5586679799583556U, 0x8765448488556646U, 0x4776468754668555U, 0x8677556574664676U,
  0x8756776765466468U, 0x5557865657667776U, 0x7766568888884855U, 0x5754766575354566U,
  0x6677747856555576U, 0x6767766766685666U, 0x6856666775456566U, 0x6576667577555544U,
  0x6666668635886576U, 0x6456885554874767U, 0x4566848688657677U, 0x6855555654645444U,
  0x7764666766665557U, 0x6664675564644766U, 0x7677867576676456U, 0x6645656674656465U,
  0x6777568656356475U, 0x6666576866565466U, 0x5656655643554545U, 0x7564766654566546U,
  0x6578445764372511U, 0x6766767644446537U, 0x6757655665555686U, 0x6747776666666464U,
  0x4654675567677547U, 0x4557538665786556U, 0x6555455654865756U, 0x2278657744645656U,
  0x4655657566666657U, 0x4575587536757666U, 0x4685677767456656U, 0x8676567657554475U,
  0x6666467487655565U, 0x5554696564756567U, 0x5755856545647654U, 0x3556647676766674U,
  0x8777467664675655U, 0x7668666764667667U, 0x6644754476763656U, 0x6656766758547666U,
  0x6674756587766664U, 0x5576657954647555U, 0x6765473463654567U, 0x5625336655664644U,
  0x6765655546664678U, 0x6876665576465556U, 0x6667646846666576U, 0x6767488757686785U,
  0x8764866757645756U, 0x6765665764666765U, 0x5654666556666675U, 0x5756453353774564U,
  0x6575564665665665U, 0x5654585577476566U, 0x4754656765667666U, 0x4553766666677664U,
  0x6554656644675544U, 0x6655467467867576U, 0x6667657776576475U, 0x6666764522565556U,
  0x5764675576667577U, 0x6566677545535867U, 0x5457565566446667U, 0x7676655676776766U,
  0x6567446557567667U, 0x6754757666576456U, 0x8667687677776576U, 0x4735556477546655U,
  0x4664877654766777U, 0x6766667556444466U, 0x6556545465445575U, 0x6656655564666656U,
  0x6466675567456446U, 0x6566656666674665U, 0x6778665765564555U, 0x5644757666361177U,
  0x5777646676655566U, 0x5566774666677677U, 0x3576566364564564U, 0x6667456667667846U,
  0x6576666756744675U, 0x6767757856665566U, 0x6665465567645767U, 0x6656666646553434U,
  0x5756644766656657U, 0x5755566575456646U, 0x5675567676765657U, 0x7687575477664555U,
  0x5554367576666657U, 0x7666666745767766U, 0xbb69458556766655U, 0x46555556766645b7U,
  0x6566486655766656U, 0x6557668557656666U, 0x5666555764886577U, 0x5666454576455576U,
  0x3346433668756665U, 0x5566645553664666U, 0x94aa436664546666U, 0x6556656776666645U,
  0x6566566445746546U, 0x4565647545677777U, 0x7756566557437564U, 0x5657786766544666U,
  0x4555465656647666U, 0x6687446556645555U, 0x6645345545555655U, 0x4666575676666744U,
  0x6667644574466565U, 0x7565575775455676U, 0x5555465685446667U, 0x5446665545546767U,
  0x5455445657467684U, 0x4465765676777667U, 0x5654353366447576U, 0x5556757766456667U,
  0x6534664465765566U, 0x5546765686466567U, 0x6476876656754447U, 0x7866875676667756U,
  0x7665667578678767U, 0x5724546686576547U, 0x7677676467555454U, 0x6645757666556675U,
  0x7465766756485355U, 0x4577667567454744U, 0x4545566587767658U, 0x5686676457676477U,
  0x5766557865674766U, 0x5644666475667786U, 0x6656437758677747U, 0x6757777546656647U,
  0x7755567555543466U, 0x5678765867788757U, 0x5666586666577577U, 0x5556764557466666U,
  0x5646677777667779U, 0x7745734446676556U, 0x7465675454455575U, 0x7477466446456566U,
  0x4776564686684546U, 0x6466774574554676U, 0x6745455676556466U, 0x6565566744566666U,
  0x5665455455456645U, 0x5466656664567855U, 0x6546545736662522U, 0x6748756645577546U,
  0x6456546665655546U, 0x5466558644666556U, 0x4554546776674645U, 0x8655666575767566U,
  0x4565546478556556U, 0x9953467664635574U, 0x8847555565566656U, 0x6666385576565576U,
  0x6755547546747756U, 0x8754675776546687U, 0x6667757656678486U, 0x5654567655666777U,
  0x4565647765876764U, 0x6688544866356655U, 0x5586576486666655U, 0x6454864736674564U,
  0x6464667575665554U, 0x6645775356755556U, 0x6535786647657566U, 0x5644655688777746U,
  0x7646857766775644U, 0x5724217457566568U, 0x5674758778547464U, 0x5556566768378675U,
  0x7676566754746667U, 0x6578655676565544U, 0x4645666767567546U, 0x5667555655646476U,
  0x4658765688657678U, 0x7654453455676645U, 0x5664665844756665U, 0x6534767655465667U,
  0x6756465634756666U, 0x6756574455534565U, 0x6544664588446877U, 0x5767664565637558U,
  0x5674566644655766U, 0x6566784554766655U, 0x5434568754765454U, 0x6566546676763665U,
  0x6554556446445554U, 0x6634445543464366U, 0x7487457664674666U, 0x4755673444454543U,
  0x5656646654677567U, 0x6657646686765757U, 0x4664667856664757U, 0x5776566676845676U,
  0x7646766557557566U, 0x5765575664665555U, 0x4555866366657675U, 0x6675446655666666U,
  0x6446655565587744U, 0x7667757767665467U, 0x6566565655756768U, 0x5656456867447766U,
  0x8576455564665766U, 0x5436665657534556U, 0x7976467855665645U, 0x6666445666567687U,
  0x7836457676656677U, 0x6655665476668664U, 0x5544556467556565U, 0x6757468657884556U,
  0x7764565457677767U, 0x5466576666776676U, 0x6688655666565456U, 0x6756666556555776U,
  0x7766766857557666U, 0x7547476575676776U, 0x7655646676646443U, 0x7564576457756766U,
  0x4677677776757855U, 0x7566546588657667U, 0x5655464445875654U, 0x6456676554654476U,
  0x5455465658765545U, 0x5686555775667765U, 0x6566764566664546U, 0x5666676467877566U,
  0x6766666767666656U, 0x5565645645545466U, 0x4535446654567765U, 0x5658546746465655U,
  0x67b8ba4975467576U, 0x6645876656476666U, 0x7778466677566685U, 0x5644555666665477U,
  0x4687577675666664U, 0x5566766656667647U, 0x7776675754557564U, 0x5465656875555645U,
  0x5567545654644466U, 0x7555776656646666U, 0x5675665585687465U, 0x5447767766456476U,
  0x8556555445455455U, 0x6568765675656846U, 0x7866574556556575U, 0x5456456576467566U,
  0x6774684644457565U, 0x6854865676456537U, 0x6456766677647865U, 0x3565457666555556U,
  0x5575776454768675U, 0x6655677646667465U, 0x7686557656444376U, 0x6665666666444556U,
  0x76766455b7bb5763U, 0x8866666867655345U, 0x8746655666454555U, 0x4654756566546588U,
  0x6666476656664645U, 0x4745557875578466U, 0x5766456647674543U, 0x5677767566564666U,
  0x5565774663363367U, 0x7755654757654576U, 0x4567676555647356U, 0x4577646655545656U,
  0x6665765774646564U, 0x6566656546645664U, 0x4476576567566687U, 0x5366655656656665U,
  0x5566678745553533U, 0x4657677757756546U, 0x5445665667754644U, 0x6667465467656565U,
  0x6655446755664566U, 0x6666675667756565U, 0x6465678465557767U, 0x3365666644676546U,
  0x5665566656775756U, 0x6466665465556756U, 0x5665655576547669U, 0x5666657664578576U,
  0x6665447487554464U, 0x5655546657657667U, 0x4756764465666567U, 0x4444463384586586U,
  0x4576566546666655U, 0x4344667466667657U, 0x3644446766457554U, 0x5565445564546557U,
  0x5567465655467456U, 0x4644356464547663U, 0x5568666867655767U, 0x6674774466868778U,
  0x5466647656556544U, 0x6475766664666876U, 0x6787565676544655U, 0x6336446366766465U,
  0x6566765485575644U, 0x4564666644446455U, 0x6486655666446556U, 0x6666b6cc57457774U,
  0x4576787667566776U, 0x4644666656556657U, 0x5656866644676565U, 0x7546767565655766U,
  0x7563467577575444U, 0x6565666565665583U, 0x5565756667447446U, 0x7665574566447665U,
  0x6767565578566646U, 0x5476658666564465U, 0x6755656655565587U, 0x6666577665556677U,
  0x7664657776557778U, 0x5886785766756554U, 0x7756666777646477U, 0x6676474547224465U,
  0x4775667646757666U, 0x5565574455656775U, 0x5454666635545666U, 0x7643667667665457U,
  0x5648745478445475U, 0x7576767787667656U, 0x5656476445564455U, 0x6757545687564344U,
  0x5258644644556666U, 0x3466547586766566U, 0x7677545575745566U, 0x8558644754664765U,
  0x4657456668566453U, 0x6576463565434564U, 0x7377668846436577U, 0x4454755854663634U,
  0x6862444545377355U, 0x8666564466776575U, 0x7675674667446768U, 0x6477656677656555U,
  0x6668657664547666U, 0x6688766788585555U, 0x9986544644655553U, 0x8745857676757887U,
  0x4565746556735656U, 0x4466563676567647U, 0x6645555476448847U, 0x7567554365774486U,
  0x5565678767566564U, 0x6655585756744556U, 0x4644546755457846U, 0x5667686466886658U,
  0x7665468478566565U, 0x5566574477576566U, 0x5456467657767864U, 0x7556686776656664U,
  0x6556435556756667U, 0x8766756755655744U, 0x6688995567446354U, 0x7664456665777877U,
  0x6564746674647545U, 0x4667676456784555U, 0x8666667764667567U, 0x6656645866767586U,
  0x5756848856775674U, 0x7555557766774465U, 0x5866383267475666U, 0x8577666676444465U,
  0x6745574676856775U, 0x8767777645844546U, 0x7787567766676554U, 0x6467478655564645U,
  0x6555676478888856U, 0x5575876687474766U, 0x4565767689556656U, 0x7677567746465477U,
  0x7576576765547564U, 0x5656474635566448U, 0x6687555644678866U, 0x6465557377657566U,
  0x3676465344667856U, 0x5656665534646465U, 0x6676876798997957U, 0x5676666744754375U,
  0x5647876656576377U, 0x6546667664557545U, 0x7667646766647654U, 0x6558574476876767U,
  0x6554364744755767U, 0x4576566765546656U, 0x7748854654464466U, 0x6567646676665466U,
  0x7675684465654564U, 0x8677665634456468U, 0x6756758666666668U, 0x5686765675657656U,
  0x6667446465585555U, 0x4766675475677786U, 0x7666556657469589U, 0x6765657566565465U,
  0x7876575676766755U, 0x6646664656665765U, 0x6656655555455468U, 0x7755777545765775U,
  0x5365675655446545U, 0x9978444565465565U, 0x76664544665774a5U, 0x7574665756664377U,
  0x6864555666775657U, 0x6476645564655666U, 0x6555646657665786U, 0x7686687747555453U,
  0x8476655755535475U, 0x5656846855465355U, 0x5664455575764676U, 0x6554548775467545U,
  0x4746766864456656U, 0x3656645756356477U, 0x7656665554666656U, 0x5566788876856447U,
  0x6667665565447455U, 0x8798aa5765566574U, 0x6676667654645663U, 0x5756568666445476U,
  0x8557567534565667U, 0x4566648866765857U, 0x6655648566467687U, 0x6766456666555555U,
  0x5754656456566655U, 0x7665342176766857U, 0x5476666845666766U, 0x7466766666566666U,
  0x6566666575556647U, 0x6665666656665644U, 0x5544664465565555U, 0x5578676466656474U,
  0x5776564485665566U, 0x7565476665646765U, 0x7766567667677647U, 0x7668674585555746U,
  0x7678456466466577U, 0x6666774555667567U, 0x6747575575674556U, 0x6657766655758756U,
  0x4545545655756466U, 0x4757667577546887U, 0x5476765756655577U, 0x6755567655766568U,
  0x5754576577465746U, 0x7656744566675666U, 0x6775476774476656U, 0x7557764667657667U,
  0x7556776644666666U, 0x5566756676969957U, 0x5665667677545766U, 0x6675665655675666U,
  0x6366756756656466U, 0x7567655676666787U, 0x5673656776565566U, 0x5553666667645765U,
  0x7657564476555656U, 0x4656866556555555U, 0x6656656766675466U, 0x6765665675667866U,
  0x6666355656667667U, 0x5654575646556766U, 0x4558554756477776U, 0x4565475658666657U,
  0xdd68556645665656U, 0x67564466764665b7U, 0x5667484545545757U, 0x6766666775575467U,
  0x4764764565566665U, 0x5766675666665866U, 0x6567686666767766U, 0x5656675767676574U,
  0x9887597656668776U, 0x4657663666688457U, 0x7645655834655666U, 0x5576456755666645U,
  0x4774657667565644U, 0x4655664556745854U, 0x6466776856756757U, 0x6565645555655766U,
  0x5774446666647745U, 0x7855746876666765U, 0x6666676458465476U, 0x6665845777745786U,
  0x7786864566757665U, 0x5576445657666474U, 0x6547678889576657U, 0x6566636676574656U,
  0x4655878775564476U, 0x7665666876655655U, 0x4665666785464555U, 0x6488878865574646U,
  0x4656667665667647U, 0x5846656665566565U, 0x6476667576886665U, 0x7477767655555667U,
  0x6586576644566656U, 0x6555766565565765U, 0x6666566666754764U, 0x8677656655757765U,
  0x6665674655656556U, 0x5568767666455466U, 0x5486546745647654U, 0x5763574645575566U,
  0x6655655586886875U, 0x7567766656877656U, 0x6576647777573746U, 0x5666757665766667U,
  0x5555768857566457U, 0x7476675476466655U, 0x5434665565466576U, 0x6665656556667664U,
  0x5766546665b7bb69U, 0x6776667556468567U, 0x6665774767766655U, 0x5445566647558777U,
  0x6467554655546776U, 0x4745545657765864U, 0x7454656645565566U, 0x7455576447656656U,
  0x5854464385567588U, 0x6578666557677766U, 0x7636465468545457U, 0x6566657753787677U,
  0x5554457677664746U, 0x7737565566676547U, 0x6865466655567767U, 0x9977675654685666U,
  0x7446775765876785U, 0x5545578676734546U, 0x6576865447846846U, 0x5677563456656747U,
  0x4465445346756778U, 0x4665576456756657U, 0x6675687746665556U, 0x2623466578773654U,
  0x4755356564746566U, 0x4645666555577665U, 0x5445677557454754U, 0x7657866867478666U,
  0x8568668767666854U, 0x6755446655486676U, 0x5576556557465577U, 0x7655664564677746U,
  0x6744367855666676U, 0x8766574555755676U, 0x5744755667574675U, 0x7755656654466457U,
  0x8586684556564465U, 0x5655665548755776U, 0x7674466664857768U, 0x7744868868665676U,
  0x7856658734466667U, 0x6866666866474565U, 0x4655765667445655U, 0x6575656464556746U,
  0x6866466677653655U, 0x5565675565687536U, 0x3445764844567646U, 0x7676573646657676U,
  0x6776577656846557U, 0x5486467766676565U, 0x6665576465666767U, 0x5665466766856566U,
  0x6458876843566776U, 0x6554556654776768U, 0x6745673533766776U, 0x6644876536876367U,
  0x4366576665868776U, 0x6645545666447674U, 0x6564566555656868U, 0x6557676566755555U,
  0x7667555754556764U, 0x5475454577686676U, 0x7446666657543465U, 0x7443646647858968U,
  0x6486456546657656U, 0x5556457565566555U, 0x6765684386776756U, 0x5665548777668745U,
  0x4456766566565465U, 0x5845645567666544U, 0x6476454577766786U, 0x4664567677781623U,
  0x5786563566466677U, 0x4676455776575367U, 0x7567668545566455U, 0x6765776666446775U,
  0x5666576666676664U, 0x6565754846656665U, 0x4466545587674555U, 0x6487566575774656U,
  0x7787755657545545U, 0x5566663665766865U, 0x6566666777786677U, 0x5568554665667667U,
  0x8677774677766478U, 0x6557657764665666U, 0x3722565765548668U, 0x5467654656656667U,
  0x3557668568667746U, 0x4574667645786844U, 0x6645756766434367U, 0x5534648666666565U,
  0x6676685644367676U, 0x5453757766575566U, 0x4545446365546548U, 0x6567546875657676U,
  0x6544775684553675U, 0x6666656455666576U, 0x6468677665786775U, 0x5747545345546576U,
  0x4465644564474656U, 0x4766465465566665U, 0x666598aa78464667U, 0x6477565664666667U,
  0x6657567655755765U, 0x6766445578456656U, 0x5767555567475567U, 0x4766467467555655U,
  0x6846466548655464U, 0x7577866665566366U, 0x4556642522746647U, 0x6655767655558678U,
  0x5766666656768578U, 0x8766565557566656U, 0x6574667657556666U, 0x5756655666676675U,
  0x6877567676656764U, 0x5476766746666466U, 0x4445663547446567U, 0x6755466568766554U,
  0x7657645575564686U, 0x6666465637466677U, 0x8657467556665774U, 0x6764556558557788U,
  0x4676644556445585U, 0x8464686476677445U, 0x8757664645989958U, 0x8666566544565677U,
  0x4688657544566656U, 0x8657766787477776U, 0x5666776645664344U, 0x8468465674465455U,
  0x8756655665566657U, 0x6555754574687556U, 0x4765656756644534U, 0x7786458876786765U,
  0x4544746555445465U, 0x6675565544456766U, 0x5864555465657865U, 0x5644676456685676U,
  0x7778665666768766U, 0x4363658757446677U, 0x8667656467675644U, 0x5664867576455665U,
  0x5564766775468666U, 0x5664668767676466U, 0x6554545756664656U, 0x4435634477555756U,
  0x6677664577455544U, 0x8599655744566656U, 0x8457747865676745U, 0x6877688865655566U,
  0x4555476564765576U, 0x6665554563646666U, 0x6656766766767656U, 0x4655455466465876U,
  0x7866466656755746U, 0x6524228498776866U, 0x4664666766564557U, 0x7676467487475565U,
  0x7685686557556658U, 0x8645545565447658U, 0x5554456476556776U, 0x7786768767684675U,
  0x4567766445656767U, 0x6667261174567668U, 0x6665776755646555U, 0x6875777457887366U,
  0x4667644474566577U, 0x6666565646656676U, 0x5664456856645766U, 0x8677777856676636U,
  0x7757455465676766U, 0x4656668588758766U, 0x7747556457875644U, 0x5566665687678667U,
  0x4746565478446585U, 0x7567557766565456U, 0x5656654646766687U, 0x5777477786888756U,
  0x7676566546665646U, 0x6765666724227474U, 0x6476776464666555U, 0x8645666666765666U,
  0x5566544455666756U, 0x6746675667655454U, 0x4464655545455576U, 0x4766675477657568U,
  0x4476666467575667U, 0x6486567655353377U, 0x7678756555756645U, 0x5666576765554456U,
  0x6587665665666867U, 0x5466778755476574U, 0x6767467667575456U, 0x5664565756657588U,
  0x7966456567755466U, 0x675665474544a8aaU, 0x7647676546466676U, 0x5665466547665654U,
  0x7555675468555677U, 0x7675565476576576U, 0x6666575466446677U, 0x6745635576667676U,
  0x5565466544466467U, 0x5574764655666666U, 0x6766468465555686U, 0x7856667576566665U,
  0x5646656846875565U, 0x8665647657534566U, 0x6576765645767467U, 0x6445655765666666U,
  0x3532757667584544U, 0x6675666746645755U, 0x5664655855456656U, 0x5675677556764567U,
  0x3656655766555666U, 0x6545845736674665U, 0x6566886847646767U, 0x6755643463687655U,
  0x5456655744675667U, 0x6865557656747545U, 0x6586588566646676U, 0x6564676657855655U,
  0x6544757764676667U, 0x5665777856565444U, 0x6467466587557465U, 0x5646555664663646U,
  0x4676556754654756U, 0x5557676545775554U, 0x6566666645654746U, 0x7568655665876765U,
  0x6446456565767776U, 0x6665656766657676U, 0x7665667655766554U, 0x4455666865755545U,
  0x5564757665677756U, 0x5574674464565665U, 0x7575676677464547U, 0x8746348557566668U,
  0x5664765766777656U, 0x4655565566646677U, 0x4585586566575576U, 0x6566467776755674U,
  0x6635344646446657U, 0x3554656647655755U, 0x7556665476656657U, 0x8545756677666855U,
  0x4685765554655566U, 0x7566756655665587U, 0x6654455467775456U, 0x6554676655544648U,
  0x6767676566363287U, 0x7746445576778676U, 0x7664576656667766U, 0x6576676575648668U,
  0x8766467665566667U, 0x6367585656867647U, 0x5566557534567645U, 0x7645566664556565U,
  0x4455655666546555U, 0x7477475466747666U, 0x6655466465754556U, 0x5685556535578776U,
  0x5855667766565566U, 0x5656567465463544U, 0x5672485547556656U, 0x9968665656545546U,
  0x6544656877555494U, 0x6774773765676777U, 0x4556547666436765U, 0x7577354447555644U,
  0x4743655546665644U, 0x6886366567667586U, 0x5456474546743555U, 0x3634445435566455U,
  0x6544744555754565U, 0x7464877854576655U, 0x5566656654445545U, 0x6664565467554756U,
  0x7778857854555345U, 0x6775467374757465U, 0x6776458756654755U, 0x6686765853656577U,
  0x7663676787865668U, 0x5655666766666567U, 0x4466466655666756U, 0x5675576546657756U,
  0x7665577766446576U, 0x7746655545546755U, 0x4543665646656645U, 0x6754546664577678U,
  0x5668554767564534U, 0x5775475476675765U, 0x7644657768444466U, 0x5665546546855655U,
  0x5655554467585465U, 0x5666677664676666U, 0x5374656766565553U, 0x5858466588746756U,
  0x5567655435755676U, 0x5765766568584775U, 0x5467565356554765U, 0x6667554555566566U,
  0x5766546665346544U, 0x7667545664988a44U, 0x5476556436455377U, 0x5555455566774847U,
  0x6635666677556765U, 0x5567346557747744U, 0x6666566865657345U, 0x4486645466865765U,
  0x5646548766766667U, 0x5767346566577669U, 0x5657566486648755U, 0x5676664564484463U,
  0x4776874444768556U, 0x5664786576778768U, 0x7657766675754655U, 0x8787746677665557U,
  0x6876635644467666U, 0x6556687656545468U, 0x6757566645666665U, 0x5754666477755644U,
  0x6667675765576766U, 0x6647754455554776U, 0x5578577667666767U, 0x4466566648546676U,
  0x6657753457676646U, 0x6656676456655645U, 0x3467664457646556U, 0x4756666566674435U,
  0x7745676746875665U, 0x6766765777675566U, 0x7866775657765766U, 0x6677767676655564U,
  0x6668565775545455U, 0x6676765467777766U, 0x2422654666545755U, 0x4664764566655775U,
  0x4665767564654574U, 0x6444656778554464U, 0x7645776567576756U, 0x6675645757554664U,
  0x6657465557676675U, 0x4664655767646575U, 0x7635114774675656U, 0x4656864565654446U,
  0x6665657587576744U, 0x5775855546765745U, 0x7778555557665667U, 0x6655575576546674U,
  0x6657456553556656U, 0x5545654566447664U, 0x6545363255665665U, 0x4646556755666754U,
  0x4555655766856756U, 0x5567566556566645U, 0x7645446557566566U, 0x4765664556567865U,
  0x4466658666565766U, 0x6644755846647666U, 0x5554453423566555U, 0x5744465765564446U,
  0x7867556566768667U, 0x7567766666655474U, 0x4565676556556645U, 0x5657656657646666U,
  0x6565656676677757U, 0x6644655648775554U, 0x6465656697996655U, 0x6845565466666654U,
  0x6556646567656466U, 0x6666446445465556U, 0x6766667644674675U, 0x6766565466666566U,
  0x7666565674776744U, 0x5655566546666667U, 0x6766355565a7cb65U, 0x6656766665556674U,
  0x6675565654446767U, 0x4665565755566565U, 0x4556565664465566U, 0x6856574565664565U,
  0x6654754755665777U, 0x6458565567566767U, 0x5673547686784633U, 0x4574566675668767U,
  0x6467765466765645U, 0x8767755656656745U, 0x7666675566774745U, 0x6767765756456665U,
  0x7477564664667664U, 0x2248653644566464U, 0x5654757567456756U, 0x5555755565666456U,
  0x6767646556446455U, 0x8866646756866676U, 0x4374877666567656U, 0x5676474576467757U,
  0x6443665664543365U, 0x4533658565665447U, 0x5646766567546546U, 0x7753675465565554U,
  0x6566674584776766U, 0x5658774776675647U, 0x6676554556666668U, 0x4365545677863587U,
  0x4665576477784566U, 0x6755346866667686U, 0x5467666775865666U, 0x7667456565745688U,
  0x5667764456665755U, 0x4564787546756866U, 0x6457687654544664U, 0x7665665568476454U,
  0x5554564566753554U, 0x7677364454676645U, 0x6466478648546377U, 0x6667457576566647U,
  0x7677656476664466U, 0x5567445677567777U, 0x5646455656556675U, 0x6456666767685658U,
  0x6666567554557646U, 0x6886776755654346U, 0x6645475454557664U, 0x6475787655557366U,
  0x7766764456544636U, 0x4465756778648777U, 0x6657566467674676U, 0x5476647575776556U,
  0x7755857657445657U, 0x6544765677996456U, 0x7555457663655466U, 0x5566876775446856U,
  0x8676557664665664U, 0x4445666586564633U, 0x6567567685558645U, 0x5773676466657654U,
  0x4565676465674544U, 0x4563545766658856U, 0x6466667634546646U, 0x4565676457466544U,
  0x8757676665658877U, 0x6666767664656556U, 0x5346766476664747U, 0x5765756655666645U,
  0x6685783543645456U, 0x7567576567781712U, 0x8855568778666677U, 0x8656755456666446U,
  0x6778455853556766U, 0x7486667576685555U, 0x5675664666656775U, 0x6657675477345465U,
  0x5448864776367643U, 0x4464477578653474U, 0x6566365446455466U, 0x7777367657766646U,
  0x8657675647655674U, 0x5547465675565477U, 0x4575475757566656U, 0x4563647777466477U,
  0x4733685766853754U, 0x5665665556566455U, 0x5465556757657665U, 0x6646656756765655U,
  0x5677676657654645U, 0x7665566755667756U, 0x7564546566455756U, 0x7557557845676556U,
  0x7824237785454376U, 0x6575564854674664U, 0x4545655656776856U, 0x6355753566464565U,
  0x7577566488746565U, 0x6444656676446667U, 0x4754686664646568U, 0x7755765767576666U,
  0x5567577653685464U, 0x4556555466564564U, 0x4456848667664444U, 0x6543555476354556U,
  0x6655755767756566U, 0x5877664664665665U, 0x7676666544456664U, 0x6576467658566586U,
  0x6567677765567867U, 0x4655575665675545U, 0x6676466564576666U, 0x5666686554564565U,
  0x7566654555754843U, 0x6566654545546656U, 0x6667686776758756U, 0x7466655758567546U,
  0x8745545647326847U, 0x5754566655467577U, 0x5675676668564466U, 0x6756446565545565U,
  0x5665578656637577U, 0x4666676556663656U, 0x5686777676877677U, 0x6666776746867757U,
  0x7765676665774488U, 0x6655356567664457U, 0x6864774644447676U, 0x4454466466467586U,
  0x7765757756456767U, 0x4654466845845576U, 0x5765866675756676U, 0x8756776556666677U,
  0x6636445646582422U, 0x3555656655546646U, 0x5554666686346676U, 0x8656565665564545U,
  0x7654664555575555U, 0x7558454478535675U, 0x6764767677877654U, 0x9969757766656467U,
  0x5754567876777796U, 0x7465656346657766U, 0x6567767658563654U, 0x6686477637567777U,
  0x5575686488674478U, 0x5686565467667457U, 0x8856546748777867U, 0x5755545644645655U,
  0x4667656756756646U, 0x6556453476665674U, 0x6766567476666757U, 0x4642865754637876U,
  0x7867557846667657U, 0x6755547755686644U, 0x4676647766556767U, 0x7885885876587656U,
  0x6645573577556585U, 0x4454855737655785U, 0x4687756676574476U, 0x5766656667556566U,
  0x6644664645655665U, 0x7655676675676457U, 0x7675643566856666U, 0x5666484468565646U,
  0x7655875665666756U, 0x5788668766587666U, 0x6654763465766555U, 0x3374754555656664U,
  0x5666576554766468U, 0x6575655475647566U, 0x5567655554564656U, 0x6475576855775665U,
  0x6545676344766667U, 0x7855775568554676U, 0x5455586646666656U, 0x5466556656656666U,
  0x7568765776545547U, 0x4665745566744875U, 0x6675574466667767U, 0x5565745563876676U,
  0x5545757576674665U, 0x5677666786477567U, 0x6556546667546667U, 0x6767657565656367U,
  0x6556576854646678U, 0x5456455557767654U, 0x6768454544655557U, 0x6865676564858878U,
  0x5455656576666777U, 0x7767687565465568U, 0x6755568547667665U, 0x4867456776546765U,
  0x6545765567557656U, 0x6775465645666776U, 0x7466667775656756U, 0x7647674476663533U,
  0x5645866667644655U, 0x5447656656557667U, 0x6755756644546656U, 0x4646856666554347U,
  0x6668766746655556U, 0x6666446677655645U, 0xab57666764666565U, 0x6666547668664795U,
  0x6657565856677644U, 0x5656656545764776U, 0x7567556664766765U, 0x4865684576575655U,
  0x7766766744465655U, 0x6656456678665556U, 0x8789686765768676U, 0x6854664676876477U,
  0x4475655766675484U, 0x7667356755476567U, 0x6765546564448746U, 0x7466675664675566U,
  0x4576358455444565U, 0x6535675564667656U, 0x7625235478654855U, 0x6766763855546576U,
  0x7677577634765645U, 0x4455485676665564U, 0x6675576747553455U, 0x5567875444775455U,
  0x6766664465355756U, 0x6455756655656576U, 0x6677969958766775U, 0x5566455445777657U,
  0x4466665665677466U, 0x7675878745656755U, 0x5476857575575557U, 0x4567676657766658U,
  0x7856566745436767U, 0x4756447647344664U, 0x6768552622763563U, 0x5767465645765675U,
  0x6543656574754676U, 0x7566585466767854U, 0x5664577578544557U, 0x5565676356756664U,
  0x6775787676466257U, 0x7658766646767465U, 0x54665754b8ba6a43U, 0x5646448565756647U,
  0x5576455544645646U, 0x6755446447466554U, 0x7668555576765747U, 0x6686554475657646U,
  0x6565677756766674U, 0x7666666766566766U, 0x6767566655474474U, 0x4776556575776765U,
  0x6655565567566645U, 0x6676644665664664U, 0x6664586565674565U, 0x6357645756546665U,
  0x6566676655878765U, 0x7876544576765456U, 0x4765666456568687U, 0x6736556546556686U,
  0x5465657576656743U, 0x4765455557455555U, 0x5365565366767665U, 0x7654486456773644U,
  0x5646556656666666U, 0x6756555755565555U, 0x5464546767666656U, 0x5644456475465846U,
  0x4777476466464764U, 0x6457764565567574U, 0x7456566664674577U, 0x6856638756658667U,
  0x5444865754575665U, 0x5566567565456545U, 0x5567476675765655U, 0x6564655644564577U,
  0x5446534655765644U, 0x4475766554675677U, 0x6654478754555556U, 0x8876555277646654U,
  0x6566566676766577U, 0x7735325475546645U, 0x6855556566655354U, 0x6456674846666564U,
  0x6464354563575545U, 0x5544554364546656U, 0x6766685366546555U, 0x5547656678555666U,
  0x6856658758757764U, 0x8656565546678666U, 0x4556864745755667U, 0x6666567456534576U,
  0x6766766657554656U, 0x5667446655675555U, 0x6658486547656655U, 0x7656777467566667U,
  0x6656366454468547U, 0x4686463634647677U, 0x6465676564557567U, 0x5645536566676647U,
  0x6763484854566566U, 0x7756786666676564U, 0x6555666677565357U, 0x4667465445554645U,
  0x4546446465475546U, 0x6634575686896767U, 0x5765665556647675U, 0x7555646634666543U,
  0x5455566656656566U, 0x6655655465577566U, 0x6656768677567677U, 0x4532556444667547U,
  0x4675776566656576U, 0x5667465467353354U, 0x5356667666866687U, 0x5774747746576646U,
  0x6535666766666545U, 0x6676765665666664U, 0x6755465857534556U, 0x6765566556567677U,
  0x6877767446674554U, 0x4753554776563623U, 0x6545665565655546U, 0x5856554757745757U,
  0x4677767547675674U, 0x7855755865476568U, 0x7768767885657546U, 0x7776454486564565U,
  0x5366586766654376U, 0x5655545467676654U, 0x5555645464654546U, 0x5665665545765656U,
  0x5587877666645556U, 0x7757666656776456U, 0x5566544566568676U, 0x6555647677665655U,
  0x6554686556665476U, 0x5446543576466536U, 0x6766654776764456U, 0x4666656748646566U,
  0x7546466486668876U, 0x5444776764458856U, 0x5666576675754656U, 0x6455675564566668U,
  0x7854448657747766U, 0x4665455565646775U, 0x6547655557665765U, 0x6877786856756745U,
  0x8666565554665776U, 0x3553886656677756U, 0x4466677847556537U, 0x6566775466667756U,
  0x4766959968666664U, 0x5664565546666766U, 0x8766657664676775U, 0x5686465465787858U,
  0x5556548445755666U, 0x3666657557566556U, 0x6555536465655574U, 0x4644576648765646U,
  0x4554873822777757U, 0x5545546556777867U, 0x6476665656565756U, 0x4656676666756567U,
  0x5576666666575476U, 0x6566564446744544U, 0x6654345445565555U, 0x6875775636647677U,
  0x6457545456776585U, 0x5676644577575655U, 0x4566565476456745U, 0x6646564445555546U,
  0x5765635745667476U, 0x4656466745745755U, 0x4478756445445445U, 0x5566767567444666U,
  0x5464576665a8aa88U, 0x7777567565576676U, 0x6666765667676665U, 0x5655657777446588U,
  0x5756764644667666U, 0x5445566668677566U, 0x5755677476656666U, 0x6567645877575677U,
  0x3476344555754665U, 0x5865664655678645U, 0x7645555466644553U, 0x4565745575558577U,
  0x6547765664586465U, 0x6667355757775556U, 0x6545566676675586U, 0x5578666767667866U,
  0x5466655576647557U, 0x7666654645444667U, 0x6667567666764677U, 0x5566565556654666U,
  0x7656646666665655U, 0x7745555656577646U, 0x5665566466787676U, 0x4844674557456567U,
  0x5677465547544645U, 0x5655557564435665U, 0x7667675564685464U, 0x6566776567466565U,
  0x5654563665557455U, 0x4576565455567465U, 0x6755557456655576U, 0x76a8aa5855856765U,
  0x4634754564664476U, 0x7666455643564445U, 0x7487786346766766U, 0x4564566666456555U,
  0x6468588576684564U, 0x7856667754455666U, 0x5666754447767768U, 0x4544251176556488U,
  0x8587667765447755U, 0x4546344656766567U, 0x5753655647537476U, 0x6646755556444464U,
  0x6575864654765655U, 0x5567657678446565U, 0x6455676667575767U, 0x8656446465665466U,
  0x6564557676555665U, 0x5676566786466367U, 0x6666675668653677U, 0x6675656566646564U,
  0x4465767666446457U, 0x5657767767546676U, 0x5546667756564556U, 0x4654756537335465U,
  0x5645554344766855U, 0x6566875566555546U, 0x6356676654645445U, 0x5554665467654754U,
  0x4674568764657666U, 0x5554575356646658U, 0x5656556665655477U, 0x7666755647979968U,
  0x5678375685776586U, 0x5467546765465453U, 0x5664535645645565U, 0x5356647646545586U,
  0x8776556676775877U, 0x4566665566465565U, 0x7644765665564655U, 0x7856555675762622U,
  0x7656646656577576U, 0x7666675776665776U, 0x4666575677466646U, 0x5766666477456545U,
  0x7656655567566654U, 0x6764556567665575U, 0x4386676566665475U, 0x5365677787655466U,
  0x5584677778785555U, 0x5856677866565655U, 0x4765665577678488U, 0x5466557656546456U,
  0x5445535767674676U, 0x6656665677676644U, 0x2722455665555646U, 0x5654476668577576U,
  0x7647445657448665U, 0x5757456447656564U, 0x4377646655556586U, 0x6465767668475436U,
  0x4567557657565765U, 0x4575664665674665U, 0x55a8bb6866867666U, 0x7645556665475767U,
  0x6475556666464686U, 0x5765674856766664U, 0x5577766875546567U, 0x7576684466578557U,
  0x6567457458885866U, 0x3465556564557546U, 0x6377566664667766U, 0x6645647587484567U,
  0x6645745675557656U, 0x6456656667667467U, 0x7566766747654673U, 0x4765445575646654U,
  0x6567756675567657U, 0x6468655646866665U, 0x666564969a887655U, 0x5666666666556556U,
  0x5566475446546554U, 0x7777544756657756U, 0x5766566667476545U, 0x5657657757667685U,
  0x8536647766658678U, 0x6666576665557767U, 0x8556674627247455U, 0x8846657675663676U,
  0x7565666464555556U, 0x7565866566543586U, 0x7467755688665764U, 0x6655662564765846U,
  0x6657555655565467U, 0x7435744467547545U, 0x5367576655989978U, 0x4667866686544648U,
  0x5534556535665545U, 0x5766566544456458U, 0x6765654766646844U, 0x5674646776688446U,
  0x5745444656564646U, 0x8767665554766576U, 0x5655567865685533U, 0x4766756558455665U,
  0x5776567776664675U, 0x4565868867654756U, 0x5877768678658856U, 0x5686667565545586U,
  0x4677456577567645U, 0x3377666656556666U, 0x6755867657654654U, 0x6546766785785585U,
  0x5476756664465656U, 0x4766567556575664U, 0x7475456477787466U, 0x4565766465556645U,
  0x6354556666654634U, 0x7455665645655545U, 0x7747457458577675U, 0x5775546565767656U,
  0x6767446645766676U, 0x5645455566667476U, 0x7545876864887476U, 0x5655656657555464U,
  0x6577574557445565U, 0x6435556554655667U, 0x5466446566664855U, 0x4556544666656566U,
  0x6655666666667768U, 0x6654565476665554U, 0x5765663663556767U, 0x5553658789887655U,
  0x6466556465666655U, 0x6666b7aa68657666U, 0x6664767766675786U, 0x5568678765666465U,
  0x5667574367666665U, 0x4663765666685466U, 0x4676656674565678U, 0x4666776687787847U,
  0x7677655664575466U, 0x57576695aa665665U, 0x7876766457556466U, 0x3566646575566466U,
  0x5667467577775663U, 0x6578748647755765U, 0x6347454674874544U, 0x4564546767765766U,
  0x7575555487686454U, 0x7656664554336644U, 0x5347755555554466U, 0x6478486665466686U,
  0x5766477554656566U, 0x5577677656647558U, 0x6566465766776466U, 0x5664565644345477U,
  0x5565657465575456U, 0x7666654867748754U, 0x7556566685457677U, 0x6466766744556566U,
  0x6646746753676477U, 0x7555566566477657U, 0x6635665666774466U, 0x5677665654464664U,
  0x4457665776444574U, 0x5546767678665443U, 0x5563465555447744U, 0x4565666554464644U,
  0x5575676575362444U, 0x6566665667656547U, 0x4564766557545544U, 0x4467757754776666U,
  0x2147544554557466U, 0x4586576556667746U, 0x5557547565676647U, 0x4664865646455456U,
  0x5746735666864755U, 0x4676764667656487U, 0x4565667486547656U, 0x5565476576563654U,
  0x3521786676755667U, 0x5665577677558745U, 0x5764677367666757U, 0x5675654586668575U,
  0x4564573656767647U, 0x6666545546655566U, 0x5465577448656477U, 0x8557777666576766U,
  0x5455664875667544U, 0x6745785754565634U, 0x5675565775764665U, 0x5658564556447566U,
  0x7776565657666655U, 0x5646564666546666U, 0x6565666666485666U, 0x6566577566766667U,
  0x5656a7aa87665766U, 0x3465777765567667U, 0x7755647666646755U, 0x5465664666445765U,
  0x8468646455666677U, 0x5866565665665566U, 0x5576547656656447U, 0x6554536566556566U,
  0x6765375544765566U, 0x5786576766576577U, 0x5766557575666467U, 0x6446556567464465U,
  0x6466636586667556U, 0x6473553656554466U, 0x5477655755544654U, 0x5554786776766757U,
  0x6653766474884355U, 0x5467646745647657U, 0x4445535567544537U, 0x4556545567766446U,
  0x7666885445767557U, 0x5476858556447656U, 0x5845665675774656U, 0x7657756475674654U,
  0x7578665666648953U, 0x4746544543867656U, 0x5666735565646667U, 0x6746645544765456U,
  0x4645567748684453U, 0x4365467456775554U, 0x6667554487767644U, 0x5653673667747776U,
  0x7555454454547767U, 0x6768866865666566U, 0x5744756674464775U, 0x7567864486656666U,
  0x7644554766755565U, 0x4463754666746733U, 0x7478665655656765U, 0x5345654454776647U,
  0x5665565566656668U, 0x5466378868557566U, 0x6777566567887767U, 0x6567577767775745U,
  0x6654767657766544U, 0x6767444475546676U, 0x4446767777776656U, 0x3523566657666765U,
  0x5663566667766466U, 0x6744565656556663U, 0x6655575476554575U, 0x5643434665645546U,
  0x4477644644656755U, 0x6756645364578887U, 0x6656656868676587U, 0x7796aa4846654567U,
  0x6746555665655574U, 0x7448454648746766U, 0x7574664754656445U, 0x6777467544765555U,
  0x5666666564654455U, 0x3653668668557573U, 0x3453666566634553U, 0x6576968868777664U,
  0x5445666677667765U, 0x5755566464556667U, 0x5444886566775775U, 0x7578464665566556U,
  0x6455577766565645U, 0x3564554786685655U, 0x6655566655667667U, 0x4776873656655675U,
  0x6644537555766374U, 0x5646555655573655U, 0x4674476478567666U, 0x4565586686586455U,
  0x6667678778636667U, 0x6566565666866954U, 0x6875565644656556U, 0x44557674a7997866U,
  0x5576767745576456U, 0x4685585674785434U, 0x5486466666746655U, 0x7768767677665655U,
  0x6657737676558476U, 0x5556855565776868U, 0x6746765677867556U, 0x6555856677273354U,
  0x4386355586466675U, 0x7746447676577744U, 0x7677766756875766U, 0x7677555678455656U,
  0x4435576746757664U, 0x6467657776445635U, 0x6754558655765565U, 0x7878785566574823U,
  0x7646666556657565U, 0x7764667655765666U, 0x6446768768665567U, 0x7777554775667867U,
  0x6467667464664555U, 0x6544447665564456U, 0x4444565566544674U, 0x6755647858576655U,
  0x7665556657766665U, 0x6765646558637676U, 0x4765764466544486U, 0x6574776657557666U,
  0x4476664576667567U, 0x6566776566667756U, 0x5666657734678776U, 0x4676454466764655U,
  0x4353655667666466U, 0x6756665766456645U, 0x5657376667775666U, 0x6666576555546865U,
  0x4457674666646655U, 0x5576864566354553U, 0x6748664445656467U, 0x5754767556555665U,
  0x6565567836756574U, 0x6655665647576774U, 0x4564764664666746U, 0x6764656877665757U,
  0x4665767657664648U, 0x6577875664656657U, 0x7678b6bb89545665U, 0x4576864467555858U,
  0x4466566757243764U, 0x5476876557765465U, 0x6545665455477556U, 0x5677667776784577U,
  0x6456446665656764U, 0x5636446545774575U, 0x5455762622664674U, 0x8678776757567567U,
  0x7777667647544568U, 0x6774677265775556U, 0x5645567846534665U, 0x6566467576677557U,
  0x7656736474666446U, 0x5564578765765765U, 0x4574446546335646U, 0x7656547665565456U,
  0x6453446666756635U, 0x7656554585656666U, 0x5666766657464455U, 0x8746576767665565U,
  0x6454645678567544U, 0x7656647564676736U, 0x6766557587758756U, 0x4467565565565566U,
  0x6646655666578757U, 0x6666465544436467U, 0x6557545665548766U, 0x5856476746666746U,
  0x4565456655646487U, 0x5464476636545564U, 0x76555466575894aaU, 0x3674674556655644U,
  0x4446675356456366U, 0x7467446558767666U, 0x5646766666776656U, 0x4546666666565565U,
  0x4554535657467546U, 0x7664645768767668U, 0x8867764677775665U, 0x6866636766437776U,
  0x6646535456676544U, 0x5566635666545656U, 0x5678645564677745U, 0x5577785667656656U,
  0x8477887556666756U, 0x4833767687654645U, 0x6755646654656766U, 0x5667766556776664U,
  0x5666648677477668U, 0x6635656756688656U, 0x6656768775756555U, 0x6654545656667556U,
  0x5686656475655454U, 0x66a59a4955557745U, 0x6655567576555465U, 0x5667553682686576U,
  0x3546546766568467U, 0x5666654674664465U, 0x7775665646556556U, 0x6765655465756763U,
  0x7465456557666655U, 0x4464363376787755U, 0x6567667845545676U, 0x4676663564438656U,
  0x4667776666686566U, 0x6476564556755654U, 0x5768866766666746U, 0x7666554678686667U,
  0x6446655656476576U, 0x6646354734645576U, 0x5778555645576756U, 0x6545755664769544U,
  0x6785784655647768U, 0x5665768675777568U, 0x4655576455656788U, 0x6455445646345366U,
  0x5775546456467465U, 0x6555777767675575U, 0x7556766655447554U, 0x4666645656658767U,
  0x4655766665666554U, 0x6647775486885766U, 0x6665646676674646U, 0x4655565556676685U,
  0x5555566666477864U, 0x7854465787473365U, 0x6767875567445377U, 0x6656786663786666U,
  0x8688584586656677U, 0x8678555454866467U, 0x7876564457766665U, 0x4664567667546687U,
  0x6765855477567856U, 0x4656555666589699U, 0x6567467546573543U, 0x7645677587665454U,
  0x4674775457587664U, 0x6768655568574455U, 0x6658685536646768U, 0x5667558646767754U,
  0x2286764454564666U, 0x6566865765767625U, 0x7645574766773676U, 0x8668637576688647U,
  0x5576556676656565U, 0x7547654687866656U, 0x5555756454463465U, 0x6556575557765457U,
  0x8499666767556567U, 0x5754555666674564U, 0x6665536677766576U, 0x5656776678856664U,
  0x5674756557565565U, 0x5777675567666656U, 0x7665547856676466U, 0x6567666668666644U,
  0x5635436466765763U, 0x8758856866675566U, 0x6677574756666666U, 0x7654435466477554U,
  0x6565667458648656U, 0x6566665556665656U, 0x4677768776885665U, 0x8555656646745665U,
  0x6654575654667866U, 0x5766657667746656U, 0x6484564464657568U, 0x5667454465486566U,
  0x6765544643845765U, 0x6678584544575877U, 0x6468665777675856U, 0x8466677756576765U,
  0x6446568899556532U, 0x4466767654577435U, 0x5566854854448656U, 0x7645777755453775U,
  0x6654665566565567U, 0x7454648566657654U, 0x7764675636445477U, 0x5556546654776755U,
  0x7876546857895377U, 0x6666365756644677U, 0x7345643663554585U, 0x7786655766747757U,
  0x7687566666634775U, 0x6676668446447666U, 0x7745554556436555U, 0x5556666686677554U,
  0x4645655666667666U, 0x5534664566647468U, 0x5655456647847778U, 0x7656645676447578U,
  0x7668674865556456U, 0x7654456764754586U, 0x5575565465676676U, 0x5666777666555354U,
  0x7687456556657476U, 0x5474476555658556U, 0x5774585674637556U, 0x6667555445744677U,
  0x4647465667655364U, 0x7777675466565674U, 0x7655567646765766U, 0x5455557547664545U,
  0x6666775777466456U, 0x4564656654665575U, 0x6544655576665567U, 0x6776665657567777U,
  0x6666655654665666U, 0x5546825646758677U, 0x4445765854867656U, 0x7855487844455644U,
  0x4565656766664657U, 0x4646568864667877U, 0x4476547566764454U, 0x8466565656655664U,
  0x5456755856546536U, 0x5654554477756655U, 0x5654567687664576U, 0x6536116777464648U,
  0x6776675645586656U, 0x6774787397885766U, 0x6464785766466767U, 0x6657546487645458U,
  0x6756555686656666U, 0x7487674563786765U, 0x5457766646554564U, 0x5566687654557555U,
  0x5677576635777757U, 0x5485665556885664U, 0x5766746666777856U, 0x6786455655765563U,
  0x4865556558545864U, 0x4665665645445846U, 0x7746664566536777U, 0x5755674745576565U,
  0x6466356466564586U, 0x4667556766549845U, 0x8665745567755486U, 0x7546778876367757U,
  0x5657675648544657U, 0x5465677667676566U, 0x7745667766677657U, 0x6654676634654355U,
  0x5476566566675654U, 0x6844667676456587U, 0x5556656466664766U, 0x6766668745886767U,
  0x5865765647646747U, 0x5567555286887765U, 0x5746464667666655U, 0x7466755777887684U,
  0x6686667645655456U, 0x6768667756657578U, 0x4554654654663656U, 0x5676665755447666U,
  0x5556566557756666U, 0x6576567745565656U, 0x5364666566566567U, 0x5575666666654734U,
  0x6647556676657645U, 0x7666556656886666U, 0x5676665646565555U, 0x5654647547547676U,
  0x6464666758476455U, 0x6576676665675677U, 0x5665767668666766U, 0x7567675766764666U,
  0x6655465656667765U, 0x5556567666766866U, 0x6577676567678765U, 0x6665666686677667U,
  0x7655544655576576U, 0x5567674765865754U, 0xc6dd574646435474U, 0x6775677486675667U,
  0x7756664756676546U, 0x5756786757656746U, 0x4555664476675776U, 0x6667538766556567U,
  0x5866667456666546U, 0x5665666755666658U, 0x7556675455464567U, 0x5867676656747554U,
  0x5666563545666657U, 0x6555788776565556U, 0x6645574665575565U, 0x5576654767666467U,
  0x4756576674674756U, 0x8654745656655577U, 0x7678a6aa68676755U, 0x6767667477566454U,
  0x5665877854867755U, 0x4576565666745564U, 0x7665767678685586U, 0x5555654676877766U,
  0x7556665554757776U, 0x7554665757657854U, 0x4675656443575557U, 0x6655665654756655U,
  0x6745768567566665U, 0x6776776556546488U, 0x6687866676875666U, 0x7655656656555645U,
  0x7776786766655455U, 0x6666776667655465U, 0x4655565343664344U, 0x5665465645557555U,
  0x5575646764646663U, 0x4754677757545467U, 0x4457676546455766U, 0x5555568767544664U,
  0x6777464546556455U, 0x6574446667575877U, 0x4573474565658766U, 0x6357645544565675U,
  0x6666586754755555U, 0x4665545576556665U, 0x6543556775467467U, 0x6654535566445434U,
  0x6476766657555656U, 0x7756665746655765U, 0x5777676567668799U, 0x6653664557667665U,
  0x6434756676445575U, 0x6647647667575565U, 0x5465666653667676U, 0x5786674574846636U,
  0x6766776676467676U, 0x2254446657566657U, 0x6566766766656624U, 0x4646436657467766U,
  0x4356678556666565U, 0x3646666534457668U, 0x5664887567784578U, 0x7766555465556777U,
  0x5665585445666554U, 0x5743475555566666U, 0x6568676544656767U, 0x6455667487775467U,
  0x5444545744555644U, 0x6654556666556656U, 0x6644466454554534U, 0x5676676467456454U,
  0x5654567667545655U, 0x6487876444455564U, 0x7478653675555446U, 0x6555564554665466U,
  0x6675545675766675U, 0x5546644764577455U, 0x5548576766786647U, 0x8687878868676565U,
  0x6556553575665666U, 0x7576b8aa7a465666U, 0x4666785556666866U, 0x7655546655466846U,
  0x6587675755758766U, 0x5486577854566646U, 0x5666568676466535U, 0x5664577888685565U,
  0x7767665555667755U, 0x7678554556556565U, 0x5567566654446656U, 0x5564676567454766U,
  0x5687585546554577U, 0x6664666756565655U, 0x6755666767775566U, 0x4546665564546456U,
  0x4546435466355556U, 0x7477465527226466U, 0x7778644576657688U, 0x5676665556566746U,
  0x4746765655666767U, 0x5777456657678766U, 0x6556665766665677U, 0x5656455656556676U,
  0x7655675546564455U, 0x7665555744474454U, 0x4764566477574565U, 0x6555575567564576U,
  0x6478467766554655U, 0x4774666565667547U, 0x7574556555646477U, 0x7467367565555666U,
  0x7866565676477687U, 0x45667566665496a9U, 0x6856656864566767U, 0x5656665665588777U,
  0x5677765565678675U, 0x6546335477556667U, 0x5865576554755565U, 0x5665545567657766U,
  0x2267544757566546U, 0x6556676754445527U, 0x7665554566567545U, 0x8755666766445656U,
  0x6875644766764684U, 0x4585667765554667U, 0x6687686665666667U, 0x4557646765557567U,
  0x2623866766576575U, 0x6686654466436565U, 0x8665457457648756U, 0x5766557755547544U,
  0x8668665477666654U, 0x6777767866557685U, 0x7646657776676564U, 0x6476647655877776U,
  0x7667566686777857U, 0x7635635677766665U, 0x6566668485575444U, 0x5655778756457447U,
  0x5657664535466665U, 0x5654667765634577U, 0x6588665754768777U, 0x5564575646578556U,
  0x4565477844557576U, 0x6466544476557867U, 0x4546575455736665U, 0x8644444644775565U,
  0x4655445525754754U, 0x7877674466656557U, 0x5554455675467664U, 0x6664665634657435U,
  0x7647447666685654U, 0x7867644468446456U, 0x5434676656744476U, 0x6544557876868756U,
  0x5576667755554744U, 0x6476655676756566U, 0x5475555455567476U, 0x6467554465434555U,
  0x6666567675864666U, 0x6864665556665476U, 0x5675467754654474U, 0x7775446656655564U,
  0x5666758676665764U, 0x6765587645647566U, 0x7446565665675664U, 0x6565465666764655U,
  0x4874556666474565U, 0x8664645676774644U, 0x7565764765557466U, 0x4474674664446764U,
  0x5664468556746746U, 0x4374476664445775U, 0x6576746777645565U, 0x5566566667556688U,
  0x4466657554677578U, 0x4637557677667766U, 0x8545656657777666U, 0x4465467657775574U,
  0x4684678767453766U, 0x7576357657855557U, 0x5755476676667766U, 0x6753776665666664U,
  0x4677664655446457U, 0x6545475767565455U, 0x4665668656557456U, 0x6655666574646456U,
  0x7666547664775554U, 0x5344645646767767U, 0x6565677656454567U, 0xa8bb597647446745U,
  0x6555585467765477U, 0x6746666875668768U, 0x6486676557644555U, 0x5467665668555466U,
  0x4565656875466486U, 0x3444555476466555U, 0x6677566655676657U, 0x6668778678666658U,
  0x4684777557547375U, 0x5664557748566455U, 0x7363776635653444U, 0x7645646665756745U,
  0x5474556776565467U, 0x3546677566675566U, 0x8667566686765666U, 0x4464748845666756U,
  0x4644656568666666U, 0x5435655656366466U, 0x7766656676644553U, 0x7678576567674463U,
  0x4745546864566556U, 0x7655574665756646U, 0x4786365425576665U, 0x6686668488554567U,
  0x5854556676456564U, 0x7377656667554765U, 0x7585667567776666U, 0x7667665778645766U,
  0x7675547654678655U, 0x4564456467875855U, 0x6556475566365564U, 0x7765656536225666U,
  0x6767556567667746U, 0x7587656545555445U, 0x6767876556675556U, 0x7747666477675664U,
  0x5558736865576888U, 0x7555577646668758U, 0x6854666465446556U, 0x7676776877371266U,
  0x4646557656446466U, 0x5566757665676666U, 0x6554666655658865U, 0x7764577544666648U,
  0x7845746676766645U, 0x5666655468557587U, 0x6866665475578656U, 0x6666655766788887U,
  0x6633776656675575U, 0x4658658866665666U, 0x5765674555664565U, 0x4655874667764864U,
  0x6567557574867877U, 0x6555444655445455U, 0x2267683734645646U, 0x5756566567667727U,
  0x6655466675676657U, 0x3456566557668755U, 0x6677877667675766U, 0x6674466576666867U,
  0x4645554665756666U, 0x6664665554755455U, 0xa6aa587665564655U, 0x8656787687655664U,
  0x7576764465555556U, 0x5567566766567656U, 0x7766754677455465U, 0x6675666566657556U,
  0x4565575566666675U, 0x6566665665655864U, 0x6666885455446466U, 0x7676776766483667U,
  0x4675457368584564U, 0x7456665675774675U, 0x4476665666566675U, 0x4565766757566575U,
  0x7864667553755876U, 0x5566776643657455U, 0x7667466574456466U, 0x5665757768548675U,
  0x6667444755587666U, 0x4665556567565476U, 0x4556478456745776U, 0x5576673377886758U,
  0x7567475565754547U, 0x7488458587667666U, 0x666766b7dd674564U, 0x5766545656576565U,
  0x6846567644657867U, 0x6675477774664486U, 0x5657464455656566U, 0x4456565756665576U,
  0x7667676667667454U, 0x6754467666455666U, 0x4754678638337456U, 0x7755664754665576U,
  0x7556468656466657U, 0x6646558455565767U, 0x7587667656753555U, 0x8675676655646576U,
  0x5575666665668754U, 0x6755666456576565U, 0x5765646755575556U, 0x4546453446647566U,
  0x5675567566755644U, 0x7355656475665454U, 0x3545567687876745U, 0x7554665645474465U,
  0x5665366764456556U, 0x6655757646765765U, 0x5645848755574554U, 0x5345646764765475U,
  0x5556575456646554U, 0x6665467456647858U, 0x5755765644666465U, 0x4744653567576666U,
  0x5375666647666466U, 0x6766564666666675U, 0x5555857766755565U, 0x4865555786574557U,
  0x6655544576537446U, 0x5565655566464567U, 0x5744677766445557U, 0x4645536664765664U,
  0x6577658787556445U, 0x3523546746674765U, 0x6766576757544555U, 0x6576668566565566U,
  0x6764866536535456U, 0x7766676567666567U, 0x6556776756757764U, 0x6667466465546476U,
  0x6544476456665666U, 0x6648237667655664U, 0x4675575775467658U, 0x8776668666667576U,
  0x5676666676767666U, 0x7465664665656657U, 0x5577477367555556U, 0x7587678789678664U,
  0x6646767747757566U, 0x7666374465564588U, 0x5756775666557755U, 0x5777676646765765U,
  0x6867677856466687U, 0x8866666566566766U, 0x5567765556558456U, 0x7666477767667647U,
  0x5644656557666656U, 0x7666762533465477U, 0x4854566468575376U, 0x6656466375567566U,
  0x4476647767755775U, 0x5468778656545655U, 0x4557775767457576U, 0x4665675666676756U,
  0x6564565466666665U, 0x5665766794aa4665U, 0x8856675554656664U, 0x6744656635565475U,
  0x7547646566366666U, 0x7676447568667556U, 0x3446555557656654U, 0x7545547564455365U,
  0x6656546545675647U, 0x7667466453253465U, 0x6656764876566775U, 0x4775877666666665U,
  0x6665666754656645U, 0x7776455573557766U, 0x6522447674567857U, 0x6564774442324343U,
  0x6976566565645545U, 0x6664876766679689U, 0x4555575676566567U, 0x5667666554666667U,
  0x8666666767678676U, 0x6686666556767565U, 0x3574467585565677U, 0x5875766456664444U,
  0x4444774644676457U, 0x4576566668776644U, 0x4547755656764777U, 0x5466565756665546U,
  0x6745667567767646U, 0x5455566645666665U, 0x3333334466647766U, 0x6644566655345523U,
  0xd7cc587585564357U, 0x5647775665566575U, 0x5575668477655656U, 0x5866684467655577U,
  0x6677666666756557U, 0x7677565646545755U, 0x5444454444535656U, 0x6456366685556656U,
  0x6444558746654455U, 0x5755556776774665U, 0x7467676574554566U, 0x6665764875687666U,
  0x6366667666656557U, 0x6556576764646656U, 0x4555545464364565U, 0x5644544645434544U,
  0x4466363463654665U, 0x7575665557564454U, 0x6786775544656656U, 0x4646746677644545U,
  0x7746666666667846U, 0x7675676666666656U, 0x4433433333563444U, 0x6656445655764564U,
  0x8766675532556576U, 0x6678865676575675U, 0x5755675557568648U, 0x6666667687578656U,
  0x7765467567767447U, 0x5657674685567565U, 0x6656556688666655U, 0x5645666666554566U,
  0x4664775776996475U, 0x7746447544578656U, 0x6746576688674673U, 0x7677574465435555U,
  0x6487564646874556U, 0x6746577665566676U, 0x5565556776668676U, 0x6574585467655455U,
  0x7565764674474565U, 0x5574775444666567U, 0x5776574554455566U, 0x6456554765556557U,
  0x4676556577455647U, 0x6786667666576676U, 0x6655756853767666U, 0x7574565447554665U,
  0x7675564666662422U, 0x6674686665676567U, 0x6565655666874467U, 0x6675667676464664U,
  0x6544446464685386U, 0x5566775565354363U, 0x7767675775773666U, 0x9958556666777685U,
  0x3464656755765696U, 0x4445745666663466U, 0x7756647766746764U, 0x4454566465585675U,
  0x5676777576764676U, 0x5555777656467656U, 0x4684675676566564U, 0x2622657877646767U,
  0x4754875655467554U, 0x5643645487564444U, 0x6766458776764756U, 0x6586674764755665U,
  0x7767656555656678U, 0x6556446376764667U, 0x7765867574565666U, 0x5643456534547564U,
  0x7565684564745566U, 0x5545757575565746U, 0x6564664454755655U, 0x5755437578767735U,
  0x5446564464664556U, 0x8577667766486577U, 0x6644455755666676U, 0x6666978979645746U,
  0x4756657776644445U, 0x7477786847564486U, 0x5775556477455546U, 0x5863758567555675U,
  0x7576668646665586U, 0x7586475666666667U, 0x6688675484467557U, 0x6647573622546466U,
  0x5656665766567657U, 0x7845666476557775U, 0x7665847644786746U, 0x4486486535677466U,
  0x7567556656566673U, 0x6646666645467357U, 0x7444545776355665U, 0x4578656756656677U,
  0x6576584866576655U, 0x5677665474554566U, 0x5748544566756656U, 0x7547546676785765U,
  0x5765764676454665U, 0x7457355478544673U, 0x6665584466564567U, 0x5656868765483478U,
  0x6553655764466547U, 0x5873575554664555U, 0x7465776866567685U, 0x4664656776775666U,
  0x7667658476765676U, 0x8666667677666565U, 0x4434544554658454U, 0x5465455544668398U,
  0x8656867766555566U, 0x4646476487765545U, 0x7676686636664566U, 0x6868657746646764U,
  0x5766777486657566U, 0x6567435577678688U, 0x5534655646555655U, 0x5564666475766745U,
  0x6877767767575643U, 0x4565747766685567U, 0x6665466587558665U, 0x4557556567644565U,
  0x5466765737587675U, 0x7564665645546555U, 0x6488756766663646U, 0x5646437665553656U,
  0x4666657364676655U, 0x6466686577666767U, 0x6456565557544665U, 0x6567566567666746U,
  0x6556566665546646U, 0x7556546476667667U, 0x4455667666547745U, 0x6685754776577576U,
  0x7646577583765764U, 0x6656556746566656U, 0x6686587755656656U, 0x5578675576467655U,
  0x7567554444536756U, 0x5657555567755766U, 0x4567574467775556U, 0x8667468864556577U,
  0x5554565575855665U, 0x8665576767574665U, 0x5567455557557546U, 0x5656566677766556U,
  0x6555556444546555U, 0x5574666554555476U, 0x664564b6bb596443U, 0x4554766666666678U,
  0x5585674566547366U, 0x5555565486536776U, 0x5756466655756476U, 0x5755674656467566U,
  0x8657475357546557U, 0x6565755574476445U, 0x5556656336237766U, 0x7447764568757544U,
  0x7556556664556575U, 0x3644565665675478U, 0x5667567655466573U, 0x5767554657676676U,
  0x6576658567556766U, 0x4465665764657668U, 0x3555466556868875U, 0x8545646666766476U,
  0x5765774766575654U, 0x6654645765766577U, 0x6456666566447768U, 0x7866567555656655U,
  0x6677455655677687U, 0x6865784465664654U, 0x874544768458b6ccU, 0x4445655455547677U,
  0x7576477577456667U, 0x7856686655567676U, 0x8557654643865686U, 0x6667474665676657U,
  0x6655475467675755U, 0x8857677567666656U, 0x7656544756778876U, 0x6656565556745756U,
  0x6678445766676754U, 0x6747566687764555U, 0x7866667656766667U, 0x4454556656646665U,
  0x6657456734654446U, 0x2622656444745565U, 0x7547666754888877U, 0x6778563554667666U,
  0x6447656556568566U, 0x6766656765588646U, 0x5767758767777847U, 0x8455564767567665U,
  0x7666547456665554U, 0x6546336755657656U, 0x6586575577665567U, 0x7765564574655664U,
  0x4544555554766666U, 0x7767664464654657U, 0x6675566668464453U, 0x4674556467564764U,
  0x5554566664685476U, 0x6376665555656576U, 0x6656557766565475U, 0x6788765663558656U,
  0x6566577464685666U, 0x7686575556776465U, 0x6657765556556557U, 0x6655846676896854U,
  0x6767765655546766U, 0x5643453532557667U, 0x6655567567545475U, 0x6466567767675466U,
  0x6666765775766546U, 0x5555456555757654U, 0x3777756747766577U, 0x6566676765776864U,
  0x6554545655555543U, 0x6656667657565666U, 0x6876667848866466U, 0x7776636665566676U,
  0x7645843765646566U, 0x4665776546777667U, 0x6646675665658876U, 0x4676566654665458U,
  0x7665778656555686U, 0x6665556765684467U, 0x6666467666654666U, 0x5566746765777766U,
  0x4688556466766576U, 0x7647566664576554U, 0x5856566767445654U, 0x3454656575455386U,
  0x5865647574445535U, 0x6858655545675566U, 0x5666654445467667U, 0x5658546476547666U,
  0x7667866654657455U, 0x5756655576575564U, 0x8648766576658586U, 0x6646536375576687U,
  0x5554476664634478U, 0x6666577545767646U, 0x4575767656773465U, 0x4586775674554547U,
  0x7566576467756656U, 0x7656666666767436U, 0x6555475654866657U, 0x4454375655755654U,
  0x9699545656666666U, 0x4566756766548445U, 0x5867455757666476U, 0x4535455557778456U,
  0x6665678745434564U, 0x7664764764756733U, 0x5553757956567655U, 0x5455364465544466U,
  0x4455456655566844U, 0x7587654676565755U, 0x4765656664776747U, 0x5475865556764665U,
  0x8646676577674585U, 0x7657656856678476U, 0x5545545545545565U, 0x4666366545875766U,
  0x6655354565654475U, 0x4557675553757775U, 0x8676786686576789U, 0x4456476477665665U,
  0x6545547647646634U, 0x6456553557756756U, 0x6456466845678786U, 0x5474666645575544U,
  0x4768646588656686U, 0x4575558666666676U, 0x5588665546665767U, 0x6575665557767666U,
  0x5564556676666666U, 0x5666766565657765U, 0x4654556465767857U, 0x4574563455456447U,
  0x78656767869a5636U, 0x4635675637555445U, 0x6656557565445577U, 0x8765564756746477U,
  0x6754766645544674U, 0x4757666658646577U, 0x6655646657577767U, 0x8766655765656786U,
  0x6756667455253357U, 0x8555663365766676U, 0x5745567557675754U, 0x7756745487366675U,
  0x6555865654656866U, 0x4667566674465354U, 0x5666576656576557U, 0x4476665564454376U,
  0x6776654476668588U, 0x7687566675456665U, 0x6654676666448565U, 0x7356675666537648U,
  0x7846857845676776U, 0x7466573666666676U, 0x5857764764663467U, 0x2245655456654556U,
  0x4744555756675427U, 0x5775684666557546U, 0x5776776665455653U, 0x5677688866555666U,
  0x6556565466756778U, 0x6577494467566457U, 0x7666576676565554U, 0x8488675767746666U,
  0x7748865767457564U, 0x7577466446584564U, 0x7856554555565556U, 0x8774655547665666U,
  0x7768685576757867U, 0x6747766875665465U, 0x4668566465565566U, 0x7676886575566647U,
  0x7766565645458766U, 0x4564775884635675U, 0x7665546668655748U, 0x3486646669466655U,
  0x7666855655674576U, 0x5453768779746665U, 0x3464567487673664U, 0x7675262265756777U,
  0x6544557646576765U, 0x4876565456646676U, 0x6677656676768866U, 0x6856545444656666U,
  0x5665676766746666U, 0x4457756666786755U, 0x6566363366455465U, 0x7757568699672564U,
  0x6656545666556566U, 0x6767656774684357U, 0x6877676775587567U, 0x6657664666784686U,
  0x5546766666647664U, 0x6585665664656844U, 0x6674555635448448U, 0x7766677666545457U,
  0x5566485647666445U, 0x7564656687565553U, 0x5655864665877757U, 0x6657447556656568U,
  0x7464556646547666U, 0x6555475444655478U, 0x5755654464545437U, 0x6687566663455766U,
  0x8476666675796558U, 0x6865575675768754U, 0x5387686646756667U, 0x8466675455567566U,
  0x7456455735665766U, 0x5666764676667856U, 0x6858556674666755U, 0x664667655765a5aaU,
  0x6558676567466576U, 0x5455647757876567U, 0x6557776557666745U, 0x6476764666864667U,
  0x7887664565664667U, 0x5555647754644675U, 0x6766486565565667U, 0x5585556456455566U,
  0x8667364445867748U, 0x5564558666644466U, 0x8576475476888676U, 0x6776474446645646U,
  0x7778766766555736U, 0x4556644853665565U, 0x2622447776666576U, 0x4766555567774767U,
  0x6786463765675667U, 0x4456756774776676U, 0x3554676466663744U, 0x6675574576867665U,
  0x7565577865755644U, 0x6655555567776746U, 0x6767556655675736U, 0x7757565544878878U,
  0x5665566757867856U, 0x7757455758766545U, 0x7587667766666767U, 0x4683766745567547U,
  0x5476476466467555U, 0x7846457677675656U, 0x7474375465477686U, 0x7635646756766745U,
  0x7667785756466568U, 0x7866446685667747U, 0x5456655676565665U, 0x6766667555556666U,
  0x5865776565665544U, 0x4663556656864644U, 0x4544766666587757U, 0x7664475755566868U,
  0x4675486547544645U, 0x6686567465785476U, 0x5376755565644656U, 0x8466557578465756U,
  0x7757554344654673U, 0x5564675585436676U, 0x5346676545446567U, 0x6646564565546464U,
  0x4466656475675586U, 0x6748245455563466U, 0x5665464567677665U, 0x5755568566656655U,
  0x4574645665666444U, 0x4644556646664564U, 0x6536445665575654U, 0x7554764564556565U,
  0x6456656654555467U, 0x7647565563666466U, 0x4667565554744565U, 0x7765456577684543U,
  0x8666567757456466U, 0x7545655544666655U, 0x6574776665752423U, 0x6675445536545645U,
  0x6655545674557456U, 0x4556777764665777U, 0x5576454554666755U, 0x7747764465847457U,
  0x7645667756765566U, 0x9988784376554566U, 0x6845758665665795U, 0x8658637557665567U,
  0x4365876675688577U, 0x7876557766768644U, 0x5555776477778746U, 0x6578584557566667U,
  0x6743767775474566U, 0x9799786757654475U, 0x5836643654576546U, 0x5654566467557456U,
  0x5666444556564464U, 0x6677755574556654U, 0x4546755775554487U, 0x6567767764745546U,
  0x5465784683377566U, 0x5644455655668664U, 0x5668755655566657U, 0x4464667675665556U,
  0x6666766656664644U, 0x6655757557665754U, 0x6666546577574566U, 0x4474556588665675U,
  0x7857655555656565U, 0x8746979979666656U, 0x6756675676655566U, 0x7757876556556635U,
  0x5686585655646776U, 0x5676658767664666U, 0x4568666656665876U, 0x6587466567466687U,
  0x6468666555756655U, 0x6674464645565646U, 0x6775574555537768U, 0x6765564665575466U,
  0x6566464576546757U, 0x5566565557556766U, 0x5656777776876656U, 0x5755456655345468U,
  0x6654444655556566U, 0x6446576555446656U, 0x6656466555846765U, 0x6677745684785465U,
  0x4676446577655776U, 0x6767566647656567U, 0x7456577865576566U, 0x5745576446464345U,
  0x7655564664765686U, 0x7767656456454567U, 0x7756845876675678U, 0x6686677578474674U,
  0x7557566766565566U, 0x6646554655565446U, 0x6457665576566456U, 0x5465665746656655U,
  0x5865654656668666U, 0x55756665766596aaU, 0x7644646655766635U, 0x4643555745447655U,
  0x7466665545765764U, 0x7765466675767657U, 0x6678766456664565U, 0x6866576675755667U,
  0x3255675667776787U, 0x5554656666664534U, 0x7456666576656555U, 0x5566755665766547U,
  0x6657656576645765U, 0x5665555666756446U, 0x7656657757556754U, 0x5855455464657446U,
  0x5666464655677764U, 0x5455577666675555U, 0x5544466664664654U, 0x4676565584678567U,
  0x4456555656655456U, 0x6655645465468646U, 0x6665666456574576U, 0x6677645787867767U,
  0x5796aa6943645668U, 0x4364765664666657U, 0x4475657754667665U, 0x6575766646747557U,
  0x5566755655854567U, 0x6565474376556756U, 0x7665443643666655U, 0x5866766856447467U,
  0x4655355575776666U, 0x6665655565644555U, 0x6656447456646557U, 0x6756456655665756U,
  0x6546445555465446U, 0x5533654477564458U, 0x6766577456647554U, 0x5556745554655655U,
  0x5666566444474444U, 0x6666655656466557U, 0x6578365357753756U, 0x5774456655675557U,
  0x5655446577665465U, 0x6654658757677786U, 0x6678755466555456U, 0x6767536475557666U,
  0x4655756556566655U, 0x5765744347547647U, 0x7765654355674575U, 0x6556576544344565U,
  0x5744446565565566U, 0x4758656666476687U, 0x7777677665656643U, 0x6546565687676766U,
  0x7668676467453463U, 0x7487766456765755U, 0x5665667645554466U, 0x5455676656646556U,
  0x7777548747566536U, 0x6975666645755667U, 0x6745667775557688U, 0x5576665764675666U,
  0x4654565477463522U, 0x7676575577563764U, 0x7657556777855655U, 0x4675556556374674U,
  0x5655645558656767U, 0x5768656665446676U, 0x7667645456645666U, 0x4376666786675675U,
  0x5544767766647656U, 0x6675766676666755U, 0x5657665675674466U, 0x8675584566454666U,
  0x8776776665545566U, 0x5676675478565656U, 0x7688787445675466U, 0x8877555665567457U,
  0x7656666666567667U, 0x5346554566565665U, 0x6765557857455644U, 0x6566435666566666U,
  0x5686675576766865U, 0x5544545776736566U, 0x5655466574465356U, 0x5628216766467766U,
  0x7857666766758765U, 0x6754368655665686U, 0x5765557675686465U, 0x8778556645557565U,
  0x7567456666467665U, 0x7666555575546686U, 0x6676667575666467U, 0x4484263367576666U,
  0x7646778855756766U, 0x6866658546746756U, 0x5577655666476485U, 0x5665365665647555U,
  0x6676676556556776U, 0x6645546667764666U, 0x6846445487676555U, 0x767877b7cb585654U,
  0x5574766645866666U, 0x7465666576465467U, 0x4567565467745576U, 0x5766548857666657U,
  0x5575546465557657U, 0x5534535544464464U, 0x6647766455466443U, 0x6566658844336454U,
  0x6767766865454654U, 0x6745676656546464U, 0x6675887557546776U, 0x6544664464676667U,
  0x7547676566577677U, 0x6567758666664647U, 0x6657547664764776U, 0x6554764687685577U,
  0x5566658577765576U, 0x5663764684556655U, 0x7866458763656567U, 0x6574466675685467U,
  0x5865767456456565U, 0x4564665576456687U, 0x5666556454458568U, 0x4676664567778788U,
  0x7564674476576667U, 0x5467457667647546U, 0x4766646567586677U, 0x5746675568545586U,
  0x6857755665647645U, 0x4534666676474547U, 0x1256556445634586U, 0x6857477568646716U,
  0x6675656757777766U, 0x7754666764545566U, 0x5566667756766647U, 0x6886455465546655U,
  0x6675876646766476U, 0x5756484464445676U, 0x5777474365647455U, 0x3575865687677666U,
  0x7765636665544647U, 0x5755677766668657U, 0x6667787767467667U, 0x5587675573655566U,
  0x4564566855475856U, 0x6766667668667866U, 0x6747335556455767U, 0x6646868846655677U,
  0x6667565385678577U, 0x8857687688574565U, 0x7475564576567767U, 0x5466767876754665U,
  0x6456777568666576U, 0x6633646847455467U, 0x7745365655665766U, 0x5757666677446756U,
  0x5476565475638587U, 0x6776768757647865U, 0x5675457576676757U, 0x7866657575676666U,
  0x6477555655777857U, 0x4756566546676657U, 0x755666b8cb497547U, 0x6566674654767666U,
  0x7567674666748447U, 0x6746566475586555U, 0x6744746764655756U, 0x5857456556667666U,
  0x6654646667556476U, 0x6666564557665556U, 0x7667755444566465U, 0x7666767676674566U,
  0x7867576667667696U, 0x7586766565576558U, 0x5764855687668656U, 0x6646766876774755U,
  0x6677566776665566U, 0x5353655477566766U, 0x7577556764655665U, 0x8768676866666546U,
  0x6646767667546586U, 0x5477776555666566U, 0x7568765765465334U, 0x7764676566674446U,
  0x4456548646646677U, 0x6677447667753765U, 0x6575587576465743U, 0x5674787666877576U,
  0x5655864566644656U, 0x4675777646456775U, 0x8566567556666544U, 0x6668766476776464U,
  0x6655744445554654U, 0x6654755656347556U, 0x5545756676554676U, 0x8568857586685873U,
  0x4476656776665666U, 0x5566757856865576U, 0x5778585465876646U, 0x4476886647465766U,
  0x4465767545445656U, 0x3522667546564365U, 0x7787466745566568U, 0x6555666548765667U,
