/**
  ******************************************************************************
  * @file    ann_762_data_params.c
  * @author  AST Embedded Analytics Research Platform
  * @date    Fri Feb  9 21:15:15 2024
  * @brief   AI Tool Automatic Code Generator for Embedded NN computing
  ******************************************************************************
  * Copyright (c) 2024 STMicroelectronics.
  * All rights reserved.
  *
  * This software is licensed under terms that can be found in the LICENSE file
  * in the root directory of this software component.
  * If no LICENSE file comes with this software, it is provided AS-IS.
  ******************************************************************************
  */

#include "ann_762_data_params.h"


/**  Activations Section  ****************************************************/
ai_handle g_ann_762_activations_table[1 + 2] = {
  AI_HANDLE_PTR(AI_MAGIC_MARKER),
  AI_HANDLE_PTR(NULL),
  AI_HANDLE_PTR(AI_MAGIC_MARKER),
};




/**  Weights Section  ********************************************************/
AI_ALIGNED(32)
const ai_u64 s_ann_762_weights_array_u64[102340] = {
  0x3eeefaf3bef3d7f3U, 0x3f3584d0beb7febdU, 0xc0268d5fbf0c5d54U, 0xc023aa31c0253b5aU,
  0xc020c7d1c022b0d3U, 0xc01de50ac01f566eU, 0xc01b0244c01c73a7U, 0xc0181f7dc01990e0U,
  0xc0153cb6c016ae19U, 0xc01259efc013cb52U, 0xc00f7728c010e88cU, 0xc00c9461c00e3785U,
  0xc0098d02c00b6e9bU, 0xc0066c13c0084d0bU, 0xc003ec0dc005a4d7U, 0xc0011ba3c0027aa9U,
  0xbffc11a9bfff2fc5U, 0xbff55e84bff96a37U, 0xbff08f9abff3a4a9U, 0xbfeafc55bfee45ffU,
  0xbfe4aceabfe78c7aU, 0xbfdf713abfe25400U, 0xbfda61c7bfdb9ddbU, 0xbfd3d939bfd6e51aU,
  0xbfce2090bfd05f20U, 0xbfc9bc02bfcb1175U, 0xbfc255e7bfc570e3U, 0xbfbc5362bfbedd0bU,
  0xbfb6ff4ebfba0d9bU, 0xbfb19b8bbfb495b5U, 0xbfab9a8ebfae8d83U, 0xbfa5df41bfa90d23U,
  0xbf9f4cbebfa398d5U, 0xbf995fe6bf9c2e16U, 0xbf93c1d0bf97a50cU, 0xbf8dc77abf9070b6U,
  0xbf890cdcbf8b5594U, 0xbf83c280bf85eb4dU, 0xbf7a02d1bf80a9d3U, 0xbf6ec05cbf73e74eU,
  0xbf617341bf690f2eU, 0xbf573ab9bf5bcc64U, 0xbf4c9325bf52a630U, 0xbf3fab58bf461bacU,
  0xbf341211bf3a0d34U, 0xbf292975bf2ed664U, 0xbf1ce90abf233d60U, 0xbf1183e9bf170e73U,
  0xbf05de11bf0bd75bU, 0xbef4b4d3bf001f72U, 0xbeddfeacbee955d9U, 0xbec6f047bed26e35U,
  0xbeb028d9bebb7ee9U, 0xbe9942ecbea4c636U, 0xbe828e4cbe8dfb40U, 0xbe570ce2be6e00eaU,
  0xbe2984a8be406ed8U, 0xbdf7f743be12cad6U, 0xbd9c5b1dbdca1c5eU, 0xbd01ce11bd5d5e31U,
  0x3c5643bfbc182cebU, 0x3d6c86ae3d114c07U, 0x3dd0d2583da3995bU, 0x3e1619783dfe5102U,
  0x3e43d5383e2cf019U, 0x3e7179573e5a7cb5U, 0x3e8fadf73e84398eU, 0x3ea6828b3e9b070dU,
  0x3ebd1d573eb1e72fU, 0x3ed41df13ec8684bU, 0x3eeb67d03edfd455U, 0x3f0148983ef70152U,
  0x3f0caed33f0712f2U, 0x3f188c2e3f12a151U, 0x3f23d68b3f1e2fb1U, 0x3f302c9b3f29e11fU,
  0x3f3c0d883f361623U, 0x3f4712443f41c6e0U, 0x3f52093a3f4c5cadU, 0x3f5ea0ef3f57f841U,
  0x3f6a139e3f64735bU, 0x3f75e16b3f7022d3U, 0x3f80afc83f7b95e1U, 0x3f86a24c3f839a64U,
  0x3f8c08bc3f896248U, 0x3f920d6e3f8ef7bfU, 0x3f9840593f95440cU, 0x3f9d37b43f9aa134U,
  0x3fa28f393f9fb518U, 0x3fa8d4e13fa5c2c2U, 0x3fae9d6d3fabc42aU, 0x3fb47dc23fb1871eU,
  0x3fba7e0b3fb74f66U, 0x3fc11c583fbde34bU, 0x3fc614a23fc36018U, 0x3fcb45dd3fc8e7c7U,
  0x3fd161e43fcea106U, 0x3fd708653fd4ad64U, 0x3fdd2d8b3fda0a91U, 0x3fe264793fdfa5e5U,
  0x3fe8a1cd3fe58bf2U, 0x3feeeb183fec750cU, 0x3ff414273ff1a4cdU, 0x3ffa6f163ff7b65aU,
  0x3ffe8fd33ffc2513U, 0x400289094000e2f6U, 0x400557a54003fc10U, 0x400839e940071241U,
  0x400bd38a4009bd47U, 0x400e1c76400ca6d8U, 0x401099bf400f1229U, 0x4013de6e4012df8dU,
  0x401691a540163834U, 0x4019e45540184e36U, 0x401d2dac401b66c5U, 0x401f7e9f401eb6ccU,
  0x402221a940210814U, 0x40253a8940243a61U, 0x40280a2e4026b61bU, 0x402ab5c04029a620U,
  0x402e0d2d402c88e6U, 0x40313432402f6badU, 0x4033bfd840324e74U, 0x4036a29e4035313bU,
  0x4039856540381402U, 0x403c682c403af6c9U, 0x403f4af3403dd990U, 0x40422dba4040bc56U,
  0x4044e4e040444436U, 0x4047f348404681e4U, 0x6a6c7677404964abU, 0x807d77746d72716fU,
  0x6b6e6e7274747780U, 0x77777a6e696f7270U, 0x7a78757b807b797cU, 0x7466676b6d7d8c7aU,
  0x67797572726b777eU, 0x5d7671626d7d6c6cU, 0x777f737a76777864U, 0x707c7763696c706cU,
  0x8a6875766b857a76U, 0x7361727675767c87U, 0x72776d7c74787567U, 0x6e837e74696a7370U,
  0x777390677174716bU, 0x837c8c8383767c84U, 0x696e757675767f6cU, 0x76726c6578817881U,
  0x7b7a6f8477787184U, 0x665c78767f6d7e6eU, 0x6c636b5f7879878fU, 0x79706462747b7285U,
  0x7474797274707c66U, 0x7973705f78867b7cU, 0x776d7771755a6f80U, 0x636f616f78757268U,
  0x72867a7e62767263U, 0x6b647c6c71755e6dU, 0x6e727b7478887e70U, 0x6260607481637573U,
  0x627472716f79877dU, 0x76857c7f8779626fU, 0x6f796b6e6e758076U, 0x787880847d7f736fU,
  0x6d6f6a6d6d6c6e73U, 0x7370676b756c6c71U, 0x686f6e6a6274756cU, 0x7c7a848884848d77U,
  0x686f696d73687276U, 0x8073737c7c6d7982U, 0x787d7f827e817f68U, 0x5c69747883736d64U,
  0x8172708585828768U, 0x787365717d7c7278U, 0x6c817a7279847b6aU, 0x726b727e6e686f6fU,
  0x7a76856a70696678U, 0x766c797c647a6f6fU, 0x847c6a76827e7b81U, 0x7c6e726d8389797aU,
  0x6a77716f87656b89U, 0x746c7575776f796fU, 0x7b6e775971716080U, 0x6880756d696f6a7cU,
  0x736a6d6a7e857274U, 0x5b8782747a697681U, 0x71716e647b726972U, 0x717a7c6f71757769U,
  0x767572776d6d7678U, 0x828a757882727f6aU, 0x716e5e7a7c728075U, 0x7571797c6472748bU,
  0x776e757e72737a73U, 0x7a6e7d83666b7b7aU, 0x797c6972706e6478U, 0x767c7d7d85827a73U,
  0x6f7d79796f6c6a6cU, 0x7675746a6973737fU, 0x6a74788176818171U, 0x7874756f7c5b585bU,
  0x7b7b7d8063757c6eU, 0x737b72787575786dU, 0x7b71666e66727470U, 0x7377786d6270757aU,
  0x7567686f6b7a7b72U, 0x6f6f758b7571807eU, 0x736f736e6783867cU, 0x6f657c7971837675U,
  0x85796a63708a6d68U, 0x767f6c6c697f717eU, 0x7c7674767070746bU, 0x6d696f736e817e7aU,
  0x5e68767e687c836fU, 0x826b74796f6b8074U, 0x6f7a7f7469747a73U, 0x7b717e767d777169U,
  0x6c74727e7c717472U, 0x787f88776e7f696dU, 0x6b6a786e72696c66U, 0x7a7362797f827071U,
  0x64687665746c697bU, 0x648077766c797073U, 0x80727c7768817571U, 0x857c7b6e7a6a5664U,
  0x7b6e79787673787bU, 0x69645e6a7e7d7269U, 0x6e67747775646563U, 0x74727064696d6b74U,
  0x7a6d686c6d666c74U, 0x6b67726e7967616eU, 0x3f3d4565697b6b6fU, 0x7f7d6d786f675141U,
  0x7a71848d70707b7dU, 0x7883776d79726572U, 0x7f777b786f71737cU, 0x7c74717583806b6eU,
  0x79747c677077806aU, 0x8c817b806a6d687eU, 0x7a7b7f7b7477797eU, 0x7e71636976817168U,
  0x7d716e7375797775U, 0x8a7c78766e747a75U, 0x7b6c7d847a6f7078U, 0x7b7b706f7868706eU,
  0x6f6e62706d707777U, 0x81796b7469755e52U, 0x6c6975696a7c7480U, 0x756978747e7b7774U,
  0x7975787d7b79747dU, 0x736f76756d777070U, 0x70736d766d767978U, 0x7a79736a77757b72U,
  0x80867e736c6f6e70U, 0x7477737170776e76U, 0x70737a7c7a796574U, 0x7a76866e7d83746fU,
  0x856c847975756d78U, 0x65645d787a88717eU, 0x626762656c746c63U, 0x70756d6c7177726dU,
  0x686363717067706bU, 0x70756f9586727072U, 0xb0c8c7c6b8a18c77U, 0x7d918e706a758391U,
  0x6e7c777381786982U, 0x75726f787b686d70U, 0x7168707d7a726b78U, 0x8b7d767c7d75787fU,
  0x7f776f8274667490U, 0x7a767c767d71787aU, 0x72737c6d6d737473U, 0x766e77776e7d666cU,
  0x6d7a6f746e7f6f6bU, 0x7372807a7e817876U, 0x7878776a73817f73U, 0x757c7c77796e6f79U,
  0x7a7b77787e787a7eU, 0x7d708077716e7077U, 0x817271726c727671U, 0x758080757d676c6fU,
  0x6f76847d77757970U, 0x796f7471766f7f69U, 0x6d6a6d7380848082U, 0x69776f73777f7f74U,
  0x7576737377787164U, 0x77606e716d7a7979U, 0x6a706c7a736b6772U, 0x7872797b796e746eU,
  0x6974716b6f7f8173U, 0x70707b74727b767aU, 0x60676f6d5766716cU, 0x7d6d68737f747475U,
  0x7f7d77797e71656eU, 0x616e7c7a7a82747aU, 0x72777d908b917f6dU, 0x7e78795a6076817bU,
  0x6d736e7472767778U, 0x66716d6a77837075U, 0x6f7d7b6d77797672U, 0x776b7277707d786dU,
  0x6f7774736d717372U, 0x7d736b777c797568U, 0x76737a7772686c70U, 0x7b76797273696c7eU,
  0x6e736a7d7e777672U, 0x727368737f7b7773U, 0x777773776e7f6b78U, 0x6f74687982726977U,
  0x786c6459636e717bU, 0x7174787166727071U, 0x7777747978647b6eU, 0x79747a70726a6a6aU,
  0x74727173717a8278U, 0x70697b7272727b70U, 0x7583776c6c7d7b73U, 0x766b75726b706b76U,
  0x68736d7370787c75U, 0x777676806f71746dU, 0x76707a6f6c737479U, 0x6e73727474727579U,
  0x7870776f6e627677U, 0x6c6e6f736e6f707aU, 0x7975746f73777c6eU, 0x6f6d7c7371767b7aU,
  0x6f67646e6e72716cU, 0x686279757775707bU, 0x746e6c6e68686a69U, 0x76726b6d6d71676fU,
  0x6f70796c69687563U, 0x7d8067667f817675U, 0x6b6e6e8b79687e71U, 0x73797f7184807d7cU,
  0x8079716375836574U, 0x706d69767d816976U, 0x716871756d677570U, 0x7b676c7475797077U,
  0x887b7285807d837cU, 0x666c76777e7a7376U, 0x756a7b796e666c84U, 0x78777671726b6876U,
  0x6c70797c6d667472U, 0x736b6b697e84776bU, 0x6d72716d78686d74U, 0x686c71626a6a787aU,
  0x7a6d7b7b77697670U, 0x736d767365757575U, 0x746b687c72717670U, 0x7d6e727570787069U,
  0x706b6c758276737bU, 0x71696e746f75706dU, 0x797674716d7b7974U, 0x71788a7377746b67U,
  0x716c616e816b7378U, 0x726e6a6f70727776U, 0x7a81777772747377U, 0x6a79786e75756d73U,
  0x737d6b716f74726dU, 0x8180858e9b837a75U, 0xb073697680928a7dU, 0x81756e766c636cbfU,
  0x7e75768275757576U, 0x6572765f626f7071U, 0x786b757d6a6a7b71U, 0x676e7780839e9e87U,
  0x69787d78847a6b69U, 0x7075706e767c756fU, 0x5f696e7776767b78U, 0x667871777672776eU,
  0x7e72777e727a6371U, 0x7f7d7d746f697179U, 0x807775686c6f737dU, 0x7075777b76757973U,
  0x737d60777f717578U, 0x747366727c737669U, 0x6a807b7b7279786aU, 0x6d716d6d6f7e7d76U,
  0x80726f7d776b7e7aU, 0x84736073726c7674U, 0x74755e6e687b7874U, 0x667c6b766e787670U,
  0x766a7a656862716eU, 0x7d717574687b7a75U, 0x7c71777075788270U, 0x6b716f747468686dU,
  0x726c6d7979746264U, 0x7077716b74707a75U, 0x77716c696c677273U, 0x7270716e70746c6bU,
  0x65705f7266646a6fU, 0x8c8a85888a897577U, 0x665e5e6e7b636c80U, 0x6d7e777d69667776U,
  0x777970767470766eU, 0x73796b7c83856c68U, 0x756881807775716dU, 0x7766737074776d6fU,
  0x6e7070676d6b616dU, 0x7c8076716e6f696eU, 0x827c6f7164716a6bU, 0x6d786a76766f797aU,
  0x806b708873627374U, 0x7d798181736c6984U, 0x756e6d796f827371U, 0x6c626e7381706873U,
  0x7275606e7280797cU, 0x7980787373867d7fU, 0x76736a64706b7d77U, 0x707b6c7066707872U,
  0x8d91746d7a727073U, 0x7270816e5e746676U, 0x6972716b77717c73U, 0x7a71796a6c777079U,
  0x76797b7b7b767779U, 0x6b6f736e7b757378U, 0x7b75716e746a7c60U, 0x6e70736b727e717aU,
  0x727070727675696fU, 0x766f77776c757a79U, 0x596a6e70686b6e74U, 0x7b7f7270736a6f6eU,
  0x79816e71746b6f74U, 0x74777b797a7e797aU, 0x6e7163807c717875U, 0x7764646b726a7581U,
  0x796f667282816c6bU, 0x6980767a746a7875U, 0x7476776986757a6eU, 0x687f73825d666a5cU,
  0x8485767d71727663U, 0x6e6b747580737976U, 0x68736f6766747b73U, 0x656f757e79726f7bU,
  0x706f6a737480726eU, 0x736575847d6c6977U, 0x5e6a67648281696eU, 0x73676f6a746d7b64U,
  0x6e75766d7b8c7b82U, 0x7269718370797f6bU, 0x6d666f6682788273U, 0x71716e82796c6e62U,
  0x76737278757f7d80U, 0x69796c6b7a616d72U, 0x79887d686376676aU, 0x7578726b65676c69U,
  0x697170747c6e7269U, 0x5f6f74766d637e6fU, 0x70707268797a6966U, 0x6e64687a79777075U,
  0x7b7771797672707cU, 0x6875777273707271U, 0x6a6c767267675c6bU, 0x756b69746d627269U,
  0x937169617374757cU, 0x6e7e7578879d9c9bU, 0x716765827e5a648cU, 0x74716e6d74677175U,
  0x706c7d62616a7071U, 0x727f7f6c7c6f6562U, 0x79767678726a7877U, 0x78827b747f877e74U,
  0x6d6b706a6a646d71U, 0x796f5c778a7b7372U, 0x6f686a747d74756bU, 0x74737369786c7a74U,
  0x80727d7865727f76U, 0x6b6a768178786a7bU, 0x747d6b786e757260U, 0x5f6b81797e788a7fU,
  0x7866688186857e69U, 0x70877d83716d797bU, 0x8182838184766773U, 0x6c7e767f78696876U,
  0x82656a786967727fU, 0x726b7088766c727fU, 0x7a71767a8271766fU, 0x7a88767585798075U,
  0x75758c74687c7878U, 0x6d6b7977726f7880U, 0x6f6b6b7f73717c76U, 0x6d70778874747061U,
  0x7c77767a75757376U, 0x7077807a7b7a7370U, 0x797d6876717d776bU, 0x75776d7578757779U,
  0x6464727e8e6f6970U, 0x9875627377857e65U, 0x747670706a7776a2U, 0x6c6e696b656e756bU,
  0x736d757476787374U, 0x857c7d8379748373U, 0x7063736c62858b7aU, 0x73697879657d755dU,
  0x6d7c747b76816b6dU, 0x70737d7372626a6eU, 0x7a757d76756b7170U, 0x806f666e676b7979U,
  0x746f5b7473747280U, 0x686b70616c776d6cU, 0x7978887b827c736eU, 0x706e6e7371696475U,
  0x6870697063706965U, 0x78816981756f6375U, 0x766d7279756f7479U, 0x77716d6b75837276U,
  0x6a5c6b6f777c7076U, 0x7069776b74748272U, 0x737a7b7c737c7564U, 0x76686f67707b7377U,
  0x7472776d6c767889U, 0x80847c7682767a74U, 0x79797b6f7d6e686bU, 0x726f6f726f69867cU,
  0x6d6d776f73776d72U, 0x757972747a747771U, 0x7a79696a66716a76U, 0x706a76717378756fU,
  0x7880808481827b7fU, 0x6975746a786e6f78U, 0x817969626a707068U, 0x7f6c717472786267U,
  0x75796b777674696eU, 0x7978876e687b7267U, 0x6c72718174838280U, 0x707c7f7169667b72U,
  0x83727f805e5d7572U, 0x6c687670748d6365U, 0x7b7c727069797c78U, 0x6b7675727a837d7cU,
  0x767b66756c5e777fU, 0x748474817983655fU, 0x6d7468787a776665U, 0x72716e6777647171U,
  0x666e70867a687969U, 0x697a837678797f78U, 0x717365727e79746aU, 0x706e785c7c707d6bU,
  0x5e7d7b6876726b6fU, 0x7b817670807d7264U, 0x65828a85706f6f77U, 0x6a776a74645e797aU,
  0x74777f6b71747c67U, 0x776c747b717b7e74U, 0x7d7887777b786e70U, 0x6d7975726a776e6eU,
  0x716b6b7575717076U, 0x687274727371736fU, 0x736e7371746f6e68U, 0x6e716a766f747479U,
  0x7078798b8b898079U, 0x6d797a5b5d63797dU, 0x6f5f78757572726eU, 0x746f727167746864U,
  0x7e6c6b6d7e6d7572U, 0x787074726e8d8075U, 0x7b7d71727d6c6677U, 0x787b62766d7f6f7aU,
  0x7d7f827774748386U, 0x756f77727a706c74U, 0x6c636070736e6b62U, 0x8378787876727b75U,
  0x6c64736f6883767bU, 0x7582796e80767173U, 0x6e83797a8386878aU, 0x867f736f75707873U,
  0x7b715d7671816f70U, 0x74838978726b6f72U, 0x77756b748f7d8469U, 0x796c6e7887807460U,
  0x6b7e6a7f8d756e6fU, 0x6d747e6d705d6a69U, 0x75716f6c797a7577U, 0x82716f77776d6d71U,
  0x736f6e6f716d6e7bU, 0x7a7c7c757f727b81U, 0x7c71806a68676f7eU, 0x787575706d6e6872U,
  0x746e6f6e6b6f7079U, 0x6d787b736c727474U, 0x7e7376706b777373U, 0x747c887775777974U,
  0x726e75807c797778U, 0x6d80687381aca576U, 0x7578656e7d6e8475U, 0x74667e716f69746fU,
  0x727d787a657a826fU, 0x80738691967a636cU, 0x6b777f77616d6e79U, 0x7b716069716e717aU,
  0x7b787c777a6a8187U, 0x7282716e6f708077U, 0x75686d75787a7079U, 0x756370716f797772U,
  0x776f6d717b776e72U, 0x7572756d70736f77U, 0x7a6c7a7f7772746fU, 0x7479767e7f73686bU,
  0x7280716670817e7aU, 0x6b7a857b756a8776U, 0x6d847b716b6b7270U, 0x748282776f6d7a74U,
  0x736a767066746a71U, 0x7873746f7581766eU, 0x62737674687c7a7aU, 0x74796f726d7b6f76U,
  0x73787967747e767cU, 0x7769687177757688U, 0x6e7b797770707e81U, 0x6f7e756d746a6d7aU,
  0x7175766f7079756fU, 0x6d7079837d64616eU, 0x7d7a7f746b737d70U, 0x7e7f74766c847b79U,
  0x87736f78716d717dU, 0x767a6b756f728785U, 0x697575746c6a7275U, 0x877e7467687e7971U,
  0x7d656c6b71718385U, 0x716f6a767065696dU, 0x73786b637872706dU, 0x636c816f787d726dU,
  0x75776f6860697a79U, 0x726976808176726eU, 0x5d6d83776b6e6572U, 0x616771767f7a6f62U,
  0x72727d7e6d857370U, 0x7b7d6a6d736d7e6cU, 0x7a83816d727a6b6dU, 0x6e726c79717b6e68U,
  0x7f7b8783726e8375U, 0x786a7375665c6a77U, 0x78657965736c717cU, 0x597d786b6d787363U,
  0x77767b7d6e698772U, 0x6d66786c63606e7bU, 0x7381786e6e736a6dU, 0x6d7b72717065717aU,
  0x7685758199787d77U, 0x7b6e607561627472U, 0x7274767667586e7aU, 0x7c7b7c726e6d7771U,
  0x73777372756e726bU, 0x787d6f6470757777U, 0x827f6c657283727aU, 0x889497978e87756bU,
  0x7b7a7b79726f737aU, 0x817b82717d675e6aU, 0x7976776c78727260U, 0x7091837375707877U,
  0x6873736c5f6c776cU, 0x746d666d77727260U, 0x6f6b776b7b767f83U, 0x6f786d7c85757471U,
  0x7270816d697d7e69U, 0x736a737e806d8375U, 0x6e6e717c767b726aU, 0x79625d667b708465U,
  0x6e6d8074736f758aU, 0x757983797e857568U, 0x6e66757785767876U, 0x866e657a7a7c8178U,
  0x767e7f796f7a6c77U, 0x707e7167746f6b80U, 0x758c707278806071U, 0x71697c755e5d7376U,
  0x717a757b7e837687U, 0x75786f6f766b7c71U, 0x6c69686d79857768U, 0x756c697370797369U,
  0x7c7b78707676847bU, 0x6e797d6d74757471U, 0x796c696f7478775eU, 0x73757477716f6e6eU,
  0x707071666d766b78U, 0x6665665a5e5e6e66U, 0x795e6e7668747562U, 0x7876778183837779U,
  0x8378745d6676867dU, 0x6f6d6a767562757cU, 0x67757d8981777c75U, 0x6f726d736c717c6bU,
  0x756d6d8488837172U, 0x7265656a66758163U, 0x83676f8d71776b6aU, 0x717f686f747c808cU,
  0x8178676674828577U, 0x746e66807e7a7273U, 0x6b656c64726e8a75U, 0x7071808276786c6fU,
  0x706d697575807969U, 0x82796a7083747073U, 0x7380737e78717c75U, 0x787677856c69727fU,
  0x63827f7478706c73U, 0x5d6668718276716fU, 0x736f6b6e70687877U, 0x727083736c837e6dU,
  0x766c6b6c707d7368U, 0x776f857d7673767aU, 0x616f776c787a737cU, 0x707a6c70757d6e6bU,
  0x756e6c867d746f73U, 0x78707675787a7174U, 0x6c706c71747a7474U, 0x78756f6e756e6f68U,
  0x6f79767778737277U, 0x7c7f7477787a7c7eU, 0x7b75787a76767e7eU, 0x686a77767f747675U,
  0x6f7463777985856dU, 0x7270666f796f7778U, 0x6d746a70757c7273U, 0x757078767276736cU,
  0x727e6d7c7c787b72U, 0x686f7170757b776fU, 0x7871787d79737b75U, 0x6e6f71696b6e7375U,
  0x796c746b6c6d7e73U, 0x747077696f6f6b6cU, 0x727d736a747a746aU, 0x716c6e756e73716fU,
  0x7c787a6f71797273U, 0x7479717b726a737dU, 0x736c747d6d79746fU, 0x7271787b79746f77U,
  0x72837672756f716eU, 0x7e69687f78727572U, 0x7b76817c77697770U, 0x72707075766c6e80U,
  0x7b766f6b7b727572U, 0x736e797c7a697876U, 0x716479796d797c80U, 0x607270736b6f6872U,
  0x737a72726f767371U, 0x6d626c707773756fU, 0x686e6567676f7274U, 0x7a7671716d696c6dU,
  0x6e717372737a7777U, 0x706374696a6e6c70U, 0x1c20637b77706566U, 0x806e8276787d7b28U,
  0x7b717570776d6d7cU, 0x736d6b726b73797bU, 0x73766d7060726871U, 0x776f78827a786e75U,
  0x716f68807a797a78U, 0x796a6c7d7e757479U, 0x6e7b86726f7a7073U, 0x6c726e7b776f6f71U,
  0x6968707b75766c77U, 0x72727b797a737d6eU, 0x73716e7d766c6e6aU, 0x7075757577796772U,
  0x737e70767168676bU, 0x74777772726d6767U, 0x7974726e6c7a7575U, 0x7275778572727470U,
  0x6c777e8476717779U, 0x727274746e7e7871U, 0x7e65837b717d7e75U, 0x72707b786c796f6bU,
  0x71797e6c74706273U, 0x766974716a787c6cU, 0x6e697878726f7c72U, 0x72736f77746b7b78U,
  0x6472796e70707277U, 0x71736a6d6c6b7273U, 0x73756f6a74777572U, 0x7e7570757c717070U,
  0x727773756d706e7fU, 0x767980787973757bU, 0x5f0203013f747a76U, 0x786f757984737577U,
  0x71777c797c75717eU, 0x74766f787883746fU, 0x7a7571706c757876U, 0x7d7f717271777570U,
  0x75777376717f7178U, 0x706f77777c6c7579U, 0x757b747574837278U, 0x6a777b756c736c6eU,
  0x7c747670676c7671U, 0x747d776e75797d7aU, 0x726e746c726e7672U, 0x6e6d70746b7c767dU,
  0x71766e6c7278706aU, 0x6f71727978857c70U, 0x7a776c7478777479U, 0x766e6f717a6e6a76U,
  0x6f767d7970716f73U, 0x79776e686e6d6c6dU, 0x707574727c797476U, 0x6f70717e7b78766cU,
  0x7c6d7b756e787071U, 0x6e7d6f6e736c6e76U, 0x7663717e7e717373U, 0x77746b7d716d7378U,
  0x6f70757b6b70756eU, 0x7a7271777684716eU, 0x7677706d6e6a6c72U, 0x685757585b626066U,
  0x6f6d767567696c67U, 0x69686b807770716aU, 0x66737889888b7f6fU, 0x616f586e7564746aU,
  0x887b6e73677b7475U, 0x6d6d68726a60705bU, 0x637883726681847dU, 0x84797d7a757c6d66U,
  0x806a727166676c5eU, 0x5e67798685847477U, 0x8d6f6e6a6873756dU, 0x726e73656779647aU,
  0x7583667f86797968U, 0x7a6c717a6967807bU, 0x776b767d6c7a8577U, 0x62708281736f7b75U,
  0x7a82717568777172U, 0x78876d7a78818a72U, 0x8675717c62726279U, 0x7a5d7274616f7088U,
  0x6c7c77797473606eU, 0x7f7a6c7d746c866bU, 0x7a7c7e75677a6f6eU, 0x7b7d786d7072646dU,
  0x697d7e777077696dU, 0x76678572687f766fU, 0x6e646e6358667281U, 0x707a798c7b6a786fU,
  0x7281787d666d756eU, 0x6c6f74706e798082U, 0x76757c7b7e767270U, 0x7e7f76766a667276U,
  0x8178787b797d787eU, 0x808c887a7b847977U, 0x726a789680787c7bU, 0x857c7b6375898d7bU,
  0x7e79736b6174657fU, 0x856b655f6f846c6cU, 0x60797369717e6e6dU, 0x83696e8e7f7e7d6eU,
  0x7d7a7d6c86758676U, 0x686473737677755eU, 0x848275636b7d798cU, 0x707d7f6186857a77U,
  0x827261686c6f7883U, 0x5e62708672756677U, 0x667e71756b556d88U, 0x8174646d77827373U,
  0x6175727a79737167U, 0x8573797974666d7aU, 0x6d716b616a78747fU, 0x727f8b8686687074U,
  0x7577756b727a8464U, 0x726d65717978707bU, 0x856d697076796b70U, 0x768a859c97867c76U,
  0x7b7e7e897b837d78U, 0x777081787c737488U, 0x676f7376816e696fU, 0x786e656f71617d78U,
  0x79866f6c7a736c76U, 0x6f6f757577747771U, 0x70707279847f847eU, 0x7d797f86806b6471U,
  0x8372716e74778381U, 0x8686748077807d7dU, 0x6d60827b6d797085U, 0x6b697c7e7c847b6cU,
  0x70727d6865708184U, 0x64686a6f6b667a79U, 0x757e837674856f71U, 0x6c7b746e75707c7cU,
  0x65846c71736d7569U, 0x7f6b7b7273716d6cU, 0x7e756d6782866d6fU, 0x838e7566777f7583U,
  0x698d7778927f7778U, 0x786c696e777d8171U, 0x727573657071847aU, 0x727a6b776c696d5aU,
  0x83696c7a79736970U, 0x777c7b816860676fU, 0x675e6d817d726d6bU, 0x7b74746f7a706c78U,
  0x796673846c627575U, 0x7b816a696970787cU, 0x797775726f767578U, 0x6667698171787268U,
  0x6f6f766a7a807269U, 0x595c66696477806cU, 0x7e76807c8371645eU, 0x7c7866767980717eU,
  0x6f6f6b757b8a6e7eU, 0x767571858a88826cU, 0x615b6762686e747bU, 0x6e746e6d7b70665eU,
  0x6b77676f746d696bU, 0x7d8f88877e6a707cU, 0x776f736b66757679U, 0x6c65737371706076U,
  0x727971656c7c806eU, 0x6c677b7e7b72757bU, 0x6e6b6e807f6f8367U, 0x63656d7a667c7467U,
  0x7b7263657479736cU, 0x77655f6a736f6867U, 0x685f7e806f697d7dU, 0x7f68777886927368U,
  0x7d8466668574777eU, 0x888d7a76706f7b85U, 0x846b6c7c7c777b6eU, 0x666f6b8166726b6aU,
  0x7c7b807871735b62U, 0x7d7f72647b6c7a79U, 0x727d80777c6c7085U, 0x7f75717970767d78U,
  0x7d7578807c727c6aU, 0x838c776c636d7e7cU, 0x797f6b6d6d6c7071U, 0x727b73776b728279U,
  0x72717e7264657079U, 0x7878797e78796e70U, 0x6e797b74706b7a6eU, 0x7c82677a7c726e5fU,
  0x7b6e7171787e7883U, 0x7776817a78888682U, 0x6d6c6a6977707676U, 0x7f7975848181777cU,
  0x887f757678817d7aU, 0x818a9caea8aba894U, 0x63736da1a2686d62U, 0x816f607870706982U,
  0x6b847678747c8971U, 0x7b7a67736d6d7664U, 0x71808a7173686371U, 0x7c856d5a717b707eU,
  0x6e78717c7f7c9974U, 0x767c7380708a6b67U, 0x7277806a6a84817eU, 0x7b6e748b8787836cU,
  0x747d878374827471U, 0x786d7b7878766e76U, 0x758997806a6f636eU, 0x6f7474727374736dU,
  0x787c726f7075806eU, 0x79817f8472637d75U, 0x8273697a757b7174U, 0x7980707c80807772U,
  0x6e718c7d716a7168U, 0x75766e817f7c7b75U, 0x677b747377706f7aU, 0x728187767b7f7e72U,
  0x7a7b826d72757c75U, 0x6f77757479696f8bU, 0x766d79817e716f57U, 0x817a788a7e7c748aU,
  0x8a81787277757580U, 0x64687478797b6c7cU, 0x7d7b766f6f626060U, 0x7474727a817e7970U,
  0x767c86806c737682U, 0x705f6b7f7a5a5b5bU, 0x70716a6f72636b71U, 0x647676796b777068U,
  0x726f6f7675636d69U, 0x7a7b75747c6b6768U, 0x7a6a6976777a6466U, 0x647a716e746e6e6cU,
  0x676d716e77767178U, 0x72746f71727b6763U, 0x6e677980806e6b78U, 0x717f737379687577U,
  0x6f5e6e746b6d7179U, 0x6e6e6d718680737dU, 0x71736b6b5f757d71U, 0x7b746e796d6d7174U,
  0x746a7979746f7472U, 0x6d68747e797a716fU, 0x7a7e6f75716d6f75U, 0x85747a7c6d717b84U,
  0x7279707a80726e78U, 0x8377797875737573U, 0x796d6e656a747679U, 0x7875687571708082U,
  0x6e78706d7276766fU, 0x7f757478776a7068U, 0x756e686775787170U, 0x687d797877687d79U,
  0x7a6e707578776365U, 0x5f62686e757a7972U, 0x8170818385826c64U, 0x75797b6f7d6e7579U,
  0x626267747e817c74U, 0x917b61567e7d735dU, 0x6c7b777672686e85U, 0x776b7a86807a6b7fU,
  0x6f7174636b756b77U, 0x7b777c7567838081U, 0x7477686b667c796eU, 0x72777a6a747a7473U,
  0x7870637f78687174U, 0x6d6b65707d7c697aU, 0x6f7877747a6e666aU, 0x7e7b7c796f687071U,
  0x706a7589866e6776U, 0x767c6d6f72716f75U, 0x74728e767c686d73U, 0x76645e796782696dU,
  0x877a71686972766aU, 0x716d6c6776698678U, 0x6671677273847264U, 0x6e6d8a8478717365U,
  0x698a797b876d7968U, 0x7e7e7e7564748577U, 0x6d747e8082666687U, 0x686b6e6d85746a68U,
  0x6e6e64788678806fU, 0x7769897e7d7c6474U, 0x7668797368787466U, 0x6b6b677271696b74U,
  0x78757c7676696979U, 0x72696b656474757bU, 0x727a807b7e788376U, 0x616b6b716e6c6e65U,
  0x826f6f6f7d806959U, 0x777a79757d807f80U, 0x787c7c716d7d715cU, 0x7b78645d6e74867cU,
  0x80707e6f78736779U, 0x7277797268865e6eU, 0x7a7a66716d736c80U, 0x837e70687868716eU,
  0x5963728583646b6aU, 0x687c837379705973U, 0x7a706b766d6c7573U, 0x7f866c7269717c78U,
  0x6e685c7e7e686f69U, 0x78846a7971707a84U, 0x66696d67756f6a6bU, 0x857875757d6b6a5dU,
  0x8385717a6c76796fU, 0x73797d7a6b6f7177U, 0x6e6183777977746bU, 0x7d667c848b6f7973U,
  0x826e6b7f6c73817dU, 0x7e78706772777a83U, 0x668875667c7e6b78U, 0x7d7b71647467757bU,
  0x766763647371686fU, 0x847e6f716f746e6bU, 0x7868796a6d6e7b67U, 0x6a766c69657a6982U,
  0x7f797d797a717070U, 0x7b7972746c6c7278U, 0x6d6a756e6f86716cU, 0x867e657274706971U,
  0x7382847a78797983U, 0x667174898f766a6aU, 0x5e6c735f766c6677U, 0x6f7a8a6d6373736fU,
  0x747b8270706e727aU, 0x8e8a879781747a87U, 0x7771717477696b76U, 0x7576676a6576797dU,
  0x7c767e716d827665U, 0x82717777796c7573U, 0x6e7281747e706f7aU, 0x7f7675837b747b72U,
  0x728a6c6066647971U, 0x677b6b857d776d6eU, 0x7676706b787a6a64U, 0x817271656e756e75U,
  0x8980846570776d6cU, 0x7c7b667b90897a7cU, 0x7064757472737575U, 0x77756f6a736e7575U,
  0x7f7970827780796aU, 0x6a7574807f7d7e7dU, 0x767b6f7079747a74U, 0x788279747585787cU,
  0x736d85796272707eU, 0x686c7172675d7382U, 0x75816f6c7f687576U, 0x6c6f746d626f7270U,
  0x7276797973737176U, 0x7c68737f7d6f676eU, 0x737a70736a6a7878U, 0x7273766d696a6a7cU,
  0x76756972707e7c7fU, 0x757b6b7c727d7573U, 0x7e75797471796472U, 0x77746875706f6f7aU,
  0x7c716c7d797c836fU, 0x79727f8274636d76U, 0x7e7d6d726a6d6374U, 0x74777f727872787eU,
  0x7b786f746e6a6d7dU, 0x7473706a72767474U, 0x70606e897e77817dU, 0x728669817a667377U,
  0x707b7f6c79736d71U, 0x6b6668727d768078U, 0x888867616d666d72U, 0x67676e7674728382U,
  0x74727b717a757e63U, 0x7178746574677770U, 0x727d6f72727c7973U, 0x7e78756a7c76656aU,
  0x6c72786e7d65666eU, 0x747c826573736b79U, 0x636e7c7773717166U, 0x657171766b6c8168U,
  0x6d7d816e66787266U, 0x727a71737f6b7873U, 0x6e71755c6f747a77U, 0x7f776f6e74706e70U,
  0x7777787479817b7eU, 0x7275777e756d7370U, 0x7474677776747676U, 0x8481869086757476U,
  0x94797f76878b8c85U, 0x7c6f75856e707a97U, 0x747378786e7e7673U, 0x7d787b776b6d8a78U,
  0x69686f6969748485U, 0x6b736c687c8e9774U, 0x72647d787b737670U, 0x717d776d5f6e7073U,
  0x767671806d6c796dU, 0x787f7a757d71687eU, 0x7e7478858d75717cU, 0x786064767976776cU,
  0x64646a5d7d70667eU, 0x737e6c786e726867U, 0x73707478716d787eU, 0x817168725e746c67U,
  0x6c6e6b7f866a6f70U, 0x7d6d6e6767708485U, 0x817a837c7b7a7c6dU, 0x716b77647d747a7cU,
  0x5f6a6b6f7c7f777fU, 0x767b7a72717b776fU, 0x6d6c737489627181U, 0x6d6582777b7b7b6aU,
  0x6a7e806c7d626b73U, 0x7b7d66737d757c77U, 0x6c70756b77747974U, 0x6f797a7871746f6dU,
  0x6b6c6d6a646d7074U, 0x777c6e7b827c7875U, 0x727f7f8478797b69U, 0x7f898b87817f7674U,
  0x6c6b766e777c7482U, 0x6f72756c6d737873U, 0x7b767c756f78777aU, 0x7d6f7e6b797a7781U,
  0x6a7d6f6a75787879U, 0x71727870837d706bU, 0x897b636a7c7c6b7cU, 0x70757a6d7c7b7478U,
  0x786173756874696aU, 0x7179657779787787U, 0x6f7e7a7a70837571U, 0x7e777c7a6b73676cU,
  0x716c7f7271707680U, 0x716c786971666a79U, 0x6e7772767b6f816eU, 0x7070646871697e7bU,
  0x787285807f847b7bU, 0x696f7e7676617377U, 0x7e696a686c737572U, 0x7374766f7b707680U,
  0x7c777f737f76767bU, 0x717076836b6f6771U, 0x6e6d6c7a6f7d7464U, 0x7a716d7170707a6dU,
  0x7e6d716e737f687cU, 0x6970766f7b6a6675U, 0x707174756f737663U, 0x75787b76737d7b75U,
  0x6f747f797b7a807cU, 0x6c7476707b767c75U, 0x6d756d7172706d73U, 0x78718aa3a5a69a76U,
  0x6b5e7a6f7269636eU, 0x79737a6c747f8886U, 0x6e705f5c6663576bU, 0x70796a77737a756aU,
  0x7d7f82767474816eU, 0x7f79836d79717577U, 0x796d8a716e6f7884U, 0x7769817487877172U,
  0x6c706f686e816876U, 0x7372737371737175U, 0x767a706e74736e6eU, 0x686f736b74837670U,
  0x83737580666c7072U, 0x686766636f6a808bU, 0x74708e846d576670U, 0x7a7479606a797679U,
  0x756e79777b7a757aU, 0x7e696f6b667f7d83U, 0x7f7f7f7b85817370U, 0x7077707e736a6a6cU,
  0x756b6468797a7570U, 0x7e847c696d6b7c74U, 0x786d5d73786c7288U, 0x6f6a827f7b85746fU,
  0x807b777d7b818075U, 0x696a796d6976756dU, 0x7d76716a75727072U, 0x787873736e727b7eU,
  0x6e776f7779737476U, 0x70787675726f7472U, 0x766e72726d787775U, 0x65686a696e766e6dU,
  0x757076786f7a866cU, 0x7b7d727d79776569U, 0x796c6d5e75747b68U, 0x6b797e7a76676c69U,
  0x858682726f78746aU, 0x6f7d678e75807a7cU, 0x6f78737e825a5c6cU, 0x7d807b6c79726e6fU,
  0x7b767275747b7d6cU, 0x7877757170757c71U, 0x7471737a796c7a74U, 0x767475746e7a847fU,
  0x6e6b78767370737cU, 0x7a76886d746c7272U, 0x6c91837d6b897369U, 0x667a6d7169696a79U,
  0x7f85816c6f71706dU, 0x6f706d797b766981U, 0x9172646785725f62U, 0x77798177796d6c7aU,
  0x6473717b747f7874U, 0x8482796a7b7a6e6fU, 0x75666573656d8076U, 0x706d736a7670776fU,
  0x7979768d7e787274U, 0x757382766b6d7682U, 0x7879777271726971U, 0x717f736b6f767b79U,
  0x72696d7b70787870U, 0x758078756374737cU, 0x6765757a7b726c6aU, 0x5b686f6d6d7b8065U,
  0x687878686d797958U, 0x7b777f76637a6868U, 0x707d747774746c66U, 0x786b64677972766fU,
  0x74686f827c767161U, 0x6d636d7b7780816eU, 0x6f6c71727d7f8363U, 0x69696b7779827a82U,
  0x7a706b5e81807179U, 0x6f726f5e656b7187U, 0x7e6e667068838c7dU, 0x627d7b788072787bU,
  0x757466776d6e7b6dU, 0x7b877b7b7676736fU, 0x7768717e786b6672U, 0x7267746776707b6bU,
  0x7f797f7973827f81U, 0x7e757a7c77797779U, 0x767e757269707e7cU, 0x6b6a73757c676a6bU,
  0x6e73867f7470797eU, 0x7c737774837d6971U, 0x7b807a6f81766776U, 0x74707d69776f7a72U,
  0x727069796f687377U, 0x696e6f715e5f7071U, 0x75767d7a7879786dU, 0x807f707078786c73U,
  0x776d737276727b7eU, 0x757a747077777577U, 0x67606163626d6e7bU, 0x747d7c77797d7675U,
  0x707c7a696e8b6b6aU, 0x7274667a70707a79U, 0x846d657f717c8680U, 0x7e828385797b7e78U,
  0x7572707d72808782U, 0x796e6b697f70656bU, 0x5f6d7d7f65686384U, 0x6e6e6c78767d7176U,
  0x76776967737e6f71U, 0x6f7177696a677a85U, 0x77766c6f6d757470U, 0x766b6a71726c7579U,
  0x6466777372646f74U, 0x66887c6f6c73736bU, 0x78727c7b747e6869U, 0x7a867c677873726dU,
  0x737585807e797076U, 0x7062767883777775U, 0x6f716d707d696f6bU, 0x6a70747e68747676U,
  0x63737a7674667274U, 0x6b6e777b776f7266U, 0x72787a8374707983U, 0x797b78787476847fU,
  0x75716e727e8d7b71U, 0x6b7468667271717bU, 0x76756e7474747877U, 0x706e7981797e7c7bU,
  0x747c7d7968727a72U, 0x906e747379696972U, 0x7a94a1928f9099a0U, 0x696a738e89687c76U,
  0x7b78786675787e74U, 0x6d768a766a736e61U, 0x6e72716c74827d6bU, 0x6e8f8f816d757a77U,
  0x706f78696d717875U, 0x78696c728177746cU, 0x757a707a837f7d7eU, 0x676c766e79756d81U,
  0x7a79736f7c656d66U, 0x666c7c7d7c796c71U, 0x7f76787672756779U, 0x7b7875766e807964U,
  0x797b7c7973767d6bU, 0x756c6f7b7073747aU, 0x807d707c757e806aU, 0x7b93856f6672747dU,
  0x7e78797679756570U, 0x7a737e6e7e76716bU, 0x71887f7f6a6d737fU, 0x7578796c81776b7cU,
  0x76676e7f6d7d7a6dU, 0x7f6b6e65756d7577U, 0x817171677376746cU, 0x777a7e626e707477U,
  0x70726c7970787680U, 0x7272786f6f707274U, 0x707576767176726eU, 0x766e69777e797d77U,
  0x766c736d75716d7aU, 0x83797c736f747579U, 0x6e706e7e817e7c80U, 0x6a776e7a87999e6eU,
  0x76716e696e76816fU, 0x747977726c667d7dU, 0x6671717f76687670U, 0x6b676d857d83756aU,
  0x8271837b7d767373U, 0x717170697c88747cU, 0x6c77786a6b77787fU, 0x686275796a788371U,
  0x767e767f75767f66U, 0x717182766764737aU, 0x7d7e666963727471U, 0x727476766d647279U,
  0x6e6e6d6a66677b7cU, 0x81727372767b6c71U, 0x6d7d81687a786f72U, 0x6575687779817368U,
  0x6a7a82846c64727dU, 0x6a6d7a757c817a72U, 0x7073736a78787370U, 0x68726f706f727c68U,
  0x7374746d72807d6bU, 0x847574706f77797dU, 0x6c7d807474717777U, 0x78727d7b7b726c72U,
  0x737c707c6e716b67U, 0x7777787670737172U, 0x7174706e6f727277U, 0x6e65696f676a706dU,
  0x74757872726e6e70U, 0x8a87847673726c79U, 0x8176787a6f718187U, 0x6b6d707070716883U,
  0x5774877f74787f6dU, 0x5e6e75816e7d766cU, 0x71696a6e75797d6cU, 0x7078755e6d7c6769U,
  0x717361696d6d6f72U, 0x73847f848472736cU, 0x7d707e787a777f6bU, 0x7b6d7b7a78877b79U,
  0x7462787087847675U, 0x7d747b6f7a686280U, 0x7c737a6f7e767e7aU, 0x7c7768737e7e727bU,
  0x6967746c6b67696aU, 0x7376787770867772U, 0x6e5f72727072796fU, 0x757b7c6b726d796dU,
  0x7d7f7f7b787d787dU, 0x6d6c6d6b786e6e6eU, 0x6d697163737b7374U, 0x6361696a7c7b8389U,
  0x656977856a6a887eU, 0x717973757e6d6876U, 0x7977767e7675766dU, 0x7b7a717674736f6eU,
  0x74726e7b63668582U, 0x7776767a7d777273U, 0x6c666b716b757679U, 0x6f6f736e6c746a6eU,
  0x70707369666d7173U, 0x7ca09e9e937a6f6aU, 0x5f6b797d73657c71U, 0x71807e7774727577U,
  0x7d6b797f757e7568U, 0x6f857f7077776f80U, 0x7983766a6e777c72U, 0x817f7486776e7271U,
  0x7071767768778b83U, 0x675c727d76696678U, 0x75757d8075606774U, 0x676b6e6f7e6d797cU,
  0x6d6a6c7a7d797960U, 0x6a7a716c8480706dU, 0x6e7761596f7c6c80U, 0x77787e787c797364U,
  0x76736b767e787184U, 0x7e6262687d767b7dU, 0x7c85777882816c70U, 0x6a6c7a746a697271U,
  0x8b7176807a736e73U, 0x67777a74716e707aU, 0x6f6e817a6f6f6b68U, 0x70747b746f756d74U,
  0x7b788377696f7876U, 0x7f736b8176717086U, 0x68687a7770686a7cU, 0x716e7b6c7a8a796fU,
  0x7d78747377757970U, 0x737a807a7a7f847dU, 0x7e726b6d706c696fU, 0x767a7d716c767d82U,
  0x887c6e776f7a747fU, 0x687c6e4541405c74U, 0x737e756c74767f75U, 0x727170817f7c8180U,
  0x77796b6b7c767678U, 0x70727176776f7574U, 0x6e737a757a75686bU, 0x7771787b746d707bU,
  0x6b74706f6c796d67U, 0x6f7a656580778272U, 0x79696679706b6f71U, 0x737470687372716eU,
  0x8271686c6e6b7572U, 0x656d6e696171686cU, 0x6a70836f69626c6dU, 0x787573757870776dU,
  0x7475816e6c65786dU, 0x84785e747b826d6cU, 0x807a808282747082U, 0x73756f7070717d83U,
  0x5c7171797a68607eU, 0x697c726875736f70U, 0x76706675806c6270U, 0x716f6e7374717473U,
  0x6c65696c696d716fU, 0x73827d74686a6777U, 0x7b6f736c6a72666eU, 0x7775787878797c7aU,
  0x7069616872828171U, 0x76746869736f676bU, 0x83897770827f8881U, 0x5360535f6769777aU,
  0x70776b6379726e53U, 0x7b85747375656464U, 0x6e7074766b6b816dU, 0x86806465816c6d6cU,
  0x73756f7a79757d81U, 0x7b66786b6d657568U, 0x7f72708875756c74U, 0x7078666b7a707171U,
  0x716b776b717b7374U, 0x6e6a6d7d7c7d7a6fU, 0x7774607274767075U, 0x776c685f697a776dU,
  0x7b6a6974736c737cU, 0x70716f6f7d6e7b7aU, 0x766b7d816876846cU, 0x77687583646b7775U,
  0x646577937669826bU, 0x73776e6681757972U, 0x7576826167706c7bU, 0x66796c72756d6c6fU,
  0x6974697a726d8074U, 0x75726b6871846c73U, 0x7576777b6b796a7aU, 0x6d756f6d7e7f7258U,
  0x7363777669736774U, 0x72697b7978656371U, 0x726d5f6e6b6c6978U, 0x816e747687776a79U,
  0x636a69656671757eU, 0x837d7c736e73736bU, 0x6b7c7a7a717c8289U, 0x5e405f5c5f5b6163U,
  0x7a778b8973697770U, 0x897d757e6177917bU, 0x6e6a71727e736a87U, 0x74737f84717a7764U,
  0x696d71756f6f7778U, 0x5f738985766f6873U, 0x7d76736a70737f61U, 0x767c6e7977807781U,
  0x75717675817e7b76U, 0x7271677779716c7aU, 0x7a886b7a777d7e73U, 0x726f7e8177797267U,
  0x7a70706e7f7e7f67U, 0x707b81817a767a75U, 0x72758379686b767dU, 0x79737f7f6a726c6aU,
  0x6d76667771686e83U, 0x856d717369787b7cU, 0x6c6a6d7d6f83746cU, 0x7e75747f74817973U,
  0x7e796e6b80887978U, 0x68647a7c837b768dU, 0x766c7e77737b7366U, 0x867b757b757b8373U,
  0x6a66758576777a70U, 0x7874797f7b7a6a72U, 0x786b7864796c7f71U, 0x68706874706d6e7aU,
  0x6f6e696a6866726dU, 0x7f7f767277796e67U, 0x64676b778471797eU, 0x6f736d4e68625b69U,
  0x6c362f3459837468U, 0x7181756d7b6a6c74U, 0x796f6a6e6c6d7571U, 0x6b7b7d7971777c67U,
  0x6e6f687674776a76U, 0x7d706b737b777f82U, 0x7572696e797e7778U, 0x737f7d7e6e6e7b76U,
  0x72726b766974716cU, 0x796e69677b6a726aU, 0x767b83896d6e6d6eU, 0x677c73766e7a7475U,
  0x7076766e72746772U, 0x807e78706e757578U, 0x6a6b776d6f6a786dU, 0x797e727575777264U,
  0x787d717c6f757476U, 0x7372736b76756b7aU, 0x767170716f6c7f7eU, 0x7a7a7873807a7870U,
  0x7976737775747871U, 0x697c737273617983U, 0x7477878372797572U, 0x776b756a80727372U,
  0x6f66727d7d76747bU, 0x7a7d7b71707c7a6eU, 0x7271707274767576U, 0x757b74776e85767fU,
  0x707f7d78787c777aU, 0x6c6a6b626b727471U, 0x7275767976616a73U, 0x7278717170666e72U,
  0x7a73949d9d9d8e76U, 0x6d7278797b78737bU, 0x656e838279726871U, 0x6d8875736a757c71U,
  0x838375625b707871U, 0x6c5f6b6e75717d82U, 0x6a767e79726e7878U, 0x776b647063686d70U,
  0x7a786c6d857e7179U, 0x6b707d74776e7f71U, 0x806371636e7f7973U, 0x69737d81716a756dU,
  0x6a746f7775727472U, 0x7572727a78757e7fU, 0x767c6273887a8975U, 0x747e6d6b73757b7bU,
  0x776d78858a6d7e78U, 0x797d7382786c6975U, 0x736c7a7c70786d83U, 0x746a72777a7d717fU,
  0x6f638279776a737dU, 0x7187877574707269U, 0x776678777e847073U, 0x7b726b6f6c7b7876U,
  0x656a897e6f767d70U, 0x7d837e7876786f70U, 0x6d676c797f747673U, 0x7776717072757d7dU,
  0x7479777a7a707382U, 0x74776e6e7268666aU, 0x7877747471757b76U, 0x977a6d6b6a6c6b69U,
  0x656f7477869fa3a4U, 0x6d687d6a6a6c757fU, 0x70798075727c806bU, 0x748276726a7f696eU,
  0x6266766e7d7a7b65U, 0x77706d726875756cU, 0x7572766d8082846aU, 0x7874756b6f707065U,
  0x7285787d73747879U, 0x6d776a8679887376U, 0x69767a5c7f776b74U, 0x6f6c70746e87795fU,
  0x6b75676f7e64696cU, 0x7379697970756f6bU, 0x887469717a79816eU, 0x777679817a6d6d7eU,
  0x6b837e7475686d63U, 0x737b677256726a67U, 0x76685f6d80626072U, 0x7975797776726b68U,
  0x75767c7b7c817675U, 0x7e6e7075657b7386U, 0x766b5c6973936b74U, 0x6f6561737c857868U,
  0x8373777b776d767eU, 0x847b5d6975807e7cU, 0x757e777072857f73U, 0x797e7f79736a6d75U,
  0x6967646d7282817cU, 0x706a756775716f67U, 0x74686c7f70627174U, 0x5352697d7a6e7c76U,
  0x5e727b67637d6f57U, 0x6e757468787c776cU, 0x66696b797f7e7871U, 0x756f727370668272U,
  0x74606c726d6b776cU, 0x786f7175796f7a75U, 0x726f786178727873U, 0x756c7275706f7570U,
  0x70807f79856f7b78U, 0x8484747967757071U, 0x68707876806c6c6bU, 0x5e626f73756f7071U,
  0x7a796b6573706b6eU, 0x77716b7972716e6bU, 0x726577696c686864U, 0x79756c7170766e6aU,
  0x707d706c7f76707cU, 0x616b6d6b7c7c7478U, 0x6170736a6d757474U, 0x756f686d706f7864U,
  0x6e6f68726d7b6b6bU, 0x6e787471796e6772U, 0x78748482716b6e75U, 0x7368617272717d7cU,
  0x7a726b716a697171U, 0x6b816b7370747c6aU, 0x696c716d7b7f6e67U, 0x74737670726c7172U,
  0x7a71767777747574U, 0x66737c7574747e74U, 0x7078736f6f707e73U, 0x5b5c595c59676e6fU,
  0x7a73636b6b687978U, 0x727074777483697bU, 0x71736d7e7b667871U, 0x7969787c71778678U,
  0x7b6b767472777d7cU, 0x63757179747b7b7eU, 0x6f7061707876796fU, 0x726979726e727272U,
  0x807b6e8279647b7cU, 0x6b6a6772706c7374U, 0x747a846d71696c72U, 0x716d757c7272747bU,
  0x687a7b736e6e716aU, 0x786b736a78767570U, 0x6b7d78776b7f706fU, 0x83706e706e6a706fU,
  0x72706b74736f7879U, 0x7d797077726b6f77U, 0x79746e75796c7786U, 0x6c7671766f767169U,
  0x767c7c6e71726c74U, 0x72727974777d7e76U, 0x76797e7275766a6dU, 0x6b7372727070776dU,
  0x727474777e696d79U, 0x7d78707571727570U, 0x6e6b6a6b756b7580U, 0x736e6e716b696a68U,
  0x6c6e74777f868078U, 0x7b7e7a7368777569U, 0x9a8177747476616aU, 0x929ea39693909ba7U,
  0x6f7075a2a37b7880U, 0x676f6b756e71756eU, 0x6c6f757b7a697972U, 0x6a6f7372747c796eU,
  0x7fa9a275696d7378U, 0x7d7a736a7e778270U, 0x707b726a75728379U, 0x7b6f767b7b626d78U,
  0x726770686a6d6c79U, 0x7e7670747e70707dU, 0x797877746f6e7879U, 0x75756f7a79796e71U,
  0x6f70717a6779806cU, 0x7870777c6d767b7eU, 0x7b75717779777e7aU, 0x777674707c7c747bU,
  0x7b7d7a696a797574U, 0x6d6f82776d696c79U, 0x756875727479717cU, 0x6a70766f7c786a7dU,
  0x736f71746b6e6775U, 0x6b6f717273806c74U, 0x7a716d6e777b786aU, 0x746b726e7c707676U,
  0x6e6f736c7480796dU, 0x6e76677273706b6bU, 0x706c70706d6b7070U, 0x726d6e6d66716c67U,
  0x766c6c6a6a6d7771U, 0x6769727e777d7b73U, 0x7e7c716d70787771U, 0x72696f6d7d7e7a7fU,
  0x6e72816f78888377U, 0x7a6c767a7e826d71U, 0x7f6e6c7874767876U, 0x777a767e6e717377U,
  0x7b7b79867d7a7e76U, 0x6b73767b75717572U, 0x6975747476746673U, 0x6c7f716a6e7b7776U,
  0x72737c7373716b74U, 0x7771827665737c7aU, 0x7a806e6f6a727788U, 0x6b837c7a787c7b80U,
  0x7a74777374767a75U, 0x747b6f6e71697772U, 0x716c696e726f6773U, 0x6c707b7077767074U,
  0x7470767d6e7b786eU, 0x776d6e71776b757bU, 0x77696a69777b6d66U, 0x7a77756d79777771U,
  0x706f6e6e7277727aU, 0x6b7478727c7c7a81U, 0x7f7372786d796b74U, 0x757a7a6c77717977U,
  0x7476756c6f687273U, 0x686e7272707d6e67U, 0x7d70747e837f6d67U, 0x767983817e797372U,
  0x757677717e89807dU, 0x71857e6b7d747879U, 0x6d6b707767726a6bU, 0x7f81726b73806f6eU,
  0x646c7063847c6f82U, 0x7772707a7d7a816eU, 0x6f7d787779797e71U, 0x7a707f75717d7c76U,
  0x7971686875747d6bU, 0x7b797a81726a7174U, 0x776f6f706f737465U, 0x766b667470697373U,
  0x8084767976786e79U, 0x726f6a7270796a7bU, 0x8276726d796e6172U, 0x77745872857d7c7fU,
  0x6e7b7d756f797a6aU, 0x837875797c747b6cU, 0x706f64706b6a7187U, 0x6f616f747d685b59U,
  0x6e747a7b727a7276U, 0x706b656d6a786e6fU, 0x806e6d6681777e70U, 0x7873656e73746973U,
  0x73806b6f6d7e7d6bU, 0x7371766e7874667fU, 0x73757d7078717374U, 0x6c6b7778767d8f70U,
  0x7a6e6d76735b616aU, 0x766a65717a605e73U, 0x7371757075877e7aU, 0x7775777e7e777a7dU,
  0x70707a6c68667876U, 0x7170758b70696d68U, 0x7fa4a7a3847a7772U, 0x89675b7c7a68807eU,
  0x7a747a7b8679748dU, 0x806778807a707c78U, 0x766c777c70707780U, 0x6d77727275746a78U,
  0x7c8870807a77677aU, 0x7571777e84646c5fU, 0x5e6b7e876a75736bU, 0x706c65778c7a7667U,
  0x6e7d7978816f7e6fU, 0x7a7a7f847a7f616aU, 0x7672777776656c79U, 0x686e85626f877180U,
  0x7e817e787467656dU, 0x726f686a5f7a6a78U, 0x6e777177836b7177U, 0x676e6b787d7a7774U,
  0x6c697f7d7972746eU, 0x6c647472615d7f7cU, 0x79726c836e666d77U, 0x777261726d74768fU,
  0x6a716e6467606765U, 0x67776c6e79716e6cU, 0x6d857980787d7068U, 0x6d6e6b7b78716974U,
  0x7d777a7a76677481U, 0x6f787b7e76737774U, 0x7573716d71797377U, 0x7072747484807b7bU,
  0x6a6a6e6c756d6d79U, 0x726277766c7c6c73U, 0x6d7981b1b3b17f71U, 0x6c6679918c7e6a78U,
  0x6f7f7b7686746b76U, 0x6b65717f79776d84U, 0x666b7f7b78847776U, 0x7283837970837668U,
  0x726b66787d837074U, 0x71766f79827b7a74U, 0x73677382786a7072U, 0x64716b7b747b767eU,
  0x796b6c70716b787dU, 0x7973706a6c777376U, 0x736771666e767476U, 0x757075728274647aU,
  0x7273727a76777776U, 0x6d72736e76768370U, 0x76716e71646d7171U, 0x715e726e73726e7aU,
  0x6781736e64666b78U, 0x79756d6a6c72706dU, 0x6c6978726b756f6eU, 0x6a7b78736e6f7e84U,
  0x6e6e667865687265U, 0x6a6f797d73717071U, 0x6269686d6e706d75U, 0x697f6f6a76717e79U,
  0x7374766870736c70U, 0x7066626e717c7775U, 0x7b7b736d7878756bU, 0x73797b7279767879U,
  0x6f76706d7573787dU, 0x787f7a756f6f7371U, 0x6c6281797f747678U, 0x6574646d7c757462U,
  0x7379615c727c5f6bU, 0x6f726c7873697878U, 0x6e7d716b7c637164U, 0x7175747d63726c69U,
  0x8172657a6e706e7aU, 0x5e7c77787f7b736fU, 0x8681816e68737f76U, 0x75716a647d7c6873U,
  0x6c646d6f6a7f7b61U, 0x8e6e6c7a78667383U, 0x7d77646271847484U, 0x75706f8382777a72U,
  0x78807d79626c726bU, 0x6f7b7c7681767478U, 0x735c707c7677636cU, 0x76797775717c8f7cU,
  0x6e717b7765736b6eU, 0x7875766a6b7e8772U, 0x6d79726e6c7f7470U, 0x7a68706e5d70696dU,
  0x7180717d84817083U, 0x7971795f7368736bU, 0x757e667488797478U, 0x857b75716c7b746cU,
  0x7e777d7f6f74838dU, 0x6c716c6b72727a73U, 0x797c7e73736f7373U, 0x767f74787b7f7e77U,
  0x7556777379747677U, 0x7a7b838487757773U, 0x8b717c7c6c87847aU, 0x657a7b796d5c668bU,
  0x665f6a7e7a707c70U, 0x6b6578696669777cU, 0x627c7f6e757f6669U, 0x737a796e7f9a9c7dU,
  0x817c787871656f79U, 0x7b776687887b8273U, 0x646c737375717972U, 0x6275808681686a70U,
  0x745e717270607162U, 0x75706a606684817dU, 0x706e6777666c717bU, 0x6a6c736e716d7076U,
  0x757f817d77747173U, 0x7175668079807d86U, 0x73666b766e70736bU, 0x77667185706b8386U,
  0x7277846d6a6d7f7bU, 0x79776e66766c6d7dU, 0x796f807983726c78U, 0x67667b6f74788e78U,
  0x8272726d6a7a726dU, 0x7474858781676776U, 0x7e6d6e806e81626aU, 0x6779817f76757b7dU,
  0x6474726a6c808880U, 0x726f76696e6e7966U, 0x6f77767576797671U, 0x72657072746e7789U,
  0x746e6d6c736f7274U, 0x7d615f5f74837e6bU, 0x758d8478646b717dU, 0x7f74746974766e76U,
  0x7e647473626b726eU, 0x7b786b776e736679U, 0x776466686980858fU, 0x7d6e756d727b7777U,
  0x6e71736d776a827cU, 0x7878787b657a7665U, 0x6e6f7467706a7c75U, 0x7b6d72736e6f726bU,
  0x776e727566616f7dU, 0x7f8178777e766571U, 0x6c70696b756d7179U, 0x6f5e6d6e7665706aU,
  0x85827a7d69687074U, 0x7f735e66697f6d6eU, 0x7679757a75726e74U, 0x8274726a65757976U,
  0x6c7883797c807674U, 0x736c777568737971U, 0x6d74878875737578U, 0x7d6e7b7a77727f6aU,
  0x73767d7778866f6fU, 0x6974737778717a82U, 0x737170716c7d8173U, 0x7385747080797479U,
  0x7475676d6c7a7870U, 0x64737676756f7173U, 0x74696e6f6c796c67U, 0x7276666f7a7f7e76U,
  0x7d7172746e7c7677U, 0x8a8c94adafb0a585U, 0x6676736458706a71U, 0x8c77727f7c697169U,
  0x5a747b7272787a82U, 0x757d73707474776eU, 0x7a7b807a7c817276U, 0x7973796a5e667885U,
  0x747872696e697471U, 0x847c747d767a8173U, 0x7473766d76747589U, 0x7279826d7a7a7475U,
  0x7d6f807a80787f74U, 0x836d73746f7c6b78U, 0x787d7b856b798174U, 0x7a7e67646f6e726fU,
  0x757071637c72736cU, 0x706d84847a6e7282U, 0x7179856e6f71656eU, 0x746f6a676d67697eU,
  0x7077767a706e6c70U, 0x7179727787786b75U, 0x67677f767a756d71U, 0x6f8074717b787a71U,
  0x7577747972728073U, 0x7276756e737c6c6eU, 0x7373768175747c7fU, 0x7b7d807678757c73U,
  0x75666c6c6b727079U, 0x676a636673737b6fU, 0x6c72776a66767667U, 0x726c5e67716e636aU,
  0x4e58706775786d78U, 0x796d786546525757U, 0x705d6c75637e867fU, 0x707479697f727b76U,
  0x6c756b667c737774U, 0x7b6e616a7a7a7b71U, 0x737b767b7a756f6fU, 0x7f6f657375757578U,
  0x6e6b6c6e73756973U, 0x6e7379737e787c71U, 0x756a7b7a8080816bU, 0x7b79737b747b666dU,
  0x6a736b7b6e747c73U, 0x6e7b7d7e71797077U, 0x7a7f76797873877bU, 0x6a6f72827b7c786cU,
  0x7482807c7b807661U, 0x74786c74726e757aU, 0x6568767b696c716fU, 0x7d76706e6b71726dU,
  0x7f73647f7864667fU, 0x76746e7371726d77U, 0x7c6972727b6b7478U, 0x6a78716b70737a6fU,
  0x8172738069787762U, 0x777979756c7c6f6bU, 0x7f747b7e76736d68U, 0x6f73797a87727877U,
  0x786c6a636f67626aU, 0x62656b606672716fU, 0x7773756a8571756cU, 0x7375707a767e797aU,
  0x94948e7e73847071U, 0x6e75706f6f7a8393U, 0x7d7b7f7672786965U, 0x8179777876736a6fU,
  0x767677766f82707dU, 0x69656e737d6b726fU, 0x73817f767675706eU, 0x786d686f6c6c757cU,
  0x766c72767c76736fU, 0x7a6e77706e6e6e67U, 0x6f7781897f827c72U, 0x80786f707a6b7f81U,
  0x756872786f817d81U, 0x7f75787470717471U, 0x7d776b716e7a6e82U, 0x61727b7971796a6fU,
  0x7468616e727c7e6aU, 0x6e77728776736b6eU, 0x69717a7e7b727b6eU, 0x667b7a766d727670U,
  0x71767368706f6371U, 0x7b646a778173676aU, 0x727a646871746e62U, 0x7a7b797179787376U,
  0x78757a7e7b6e6b6aU, 0x78736c5a6f7b6f73U, 0x6c7c72776d70716cU, 0x696c73717a6e7062U,
  0x7576807b78717569U, 0x7a766d7277757476U, 0x707f797e73717473U, 0x7a6c7a6f74817c6eU,
  0x675855575a777a7aU, 0x6175777069747482U, 0x6f7966717d84646dU, 0x6b8681796a8a7678U,
  0x6a76737572716f6dU, 0x707179687d857373U, 0x73757a7a8a767780U, 0x7a7f7a8680836a6aU,
  0x6c797a7667737274U, 0x746e75787e7b7474U, 0x716a767677726e76U, 0x74767a6e767a7b65U,
  0x70707c7f6d75817eU, 0x796d62706973756fU, 0x6e6d70707c7b837fU, 0x7d69736864677674U,
  0x7c747b85706e696eU, 0x74716f62666a7370U, 0x7a757a766e7a7c6fU, 0x756e646f606e7382U,
  0x6b7b687266686d6dU, 0x79696e7c6771727aU, 0x5f75726670767f84U, 0x806e7071716e8183U,
  0x757977778a726e6dU, 0x6e6e787271766d6cU, 0x7979757a737e7b74U, 0x6d706b696a767873U,
  0x727b797479736f71U, 0x777e74696b687176U, 0x746c716f716c6c72U, 0x80717374666a7675U,
  0x81959a9193959999U, 0x737a6c6a6b728477U, 0x756a6c7a836f7376U, 0x7270726f6667767bU,
  0x7d7168677b7f7474U, 0x78848a8a7e747a7eU, 0x757c7b79716c6771U, 0x67727a74806a7c77U,
  0x6975787281707076U, 0x8278656f6c6a797aU, 0x7c6c676c70797b7cU, 0x7c7d76737e767b8aU,
  0x6f827e7c717a7e76U, 0x80797a79697c736bU, 0x7d6f7c7e6e6c6e77U, 0x73748d7c777c7880U,
  0x7a736f7f676a6c70U, 0x7e6a757480757376U, 0x6f7e6e7b82726e74U, 0x89706f7376776578U,
  0x7577707577827072U, 0x756d7c74786b7573U, 0x6278807175787970U, 0x726d6d6c726a786bU,
  0x6a675f616b6e6d75U, 0x787c76677481867cU, 0x74785f696b757872U, 0x71726c686c6d6b71U,
  0x7a757b76756e736dU, 0x706d797773727e79U, 0x77717a7678737278U, 0x777775777983766eU,
  0x716d767979787374U, 0x75846d7785afb070U, 0x646e7c6b72867e70U, 0x78697a6673766670U,
  0x6d8a8882786e7072U, 0x72677e928c7d7f68U, 0x6a7c777a7d757278U, 0x78766d7c74776b6fU,
  0x766379727d747c85U, 0x776f66736677736fU, 0x77727174686e7879U, 0x7c7e70756985807bU,
  0x75706b72846f6e6eU, 0x73657678706b706cU, 0x7a6e77676d767874U, 0x6d6e6d7a81857275U,
  0x7571737072727569U, 0x817677766f7e7484U, 0x7f796c7870797173U, 0x63707f8972728076U,
  0x636d6869787c716bU, 0x7977887c7c6b796cU, 0x6f71717c7e806f7dU, 0x797f73757e706c70U,
  0x767d7e737e736e72U, 0x6d6e7275726d757aU, 0x76746b676d697c77U, 0x6c7c7a7280797679U,
  0x77736d6d6e6c6a72U, 0x7079776a6b6a6d71U, 0x6f7267726a676368U, 0x666871787b7d7771U,
  0x7a78796e76837464U, 0x696979716c727b84U, 0x756a6c777e7d6c68U, 0x787f7e7667736b73U,
  0x777f7e6b867d7a7bU, 0x6b87776c737d806eU, 0x6b6d757273867e69U, 0x6e78746b666f776fU,
  0x82716b7c6c7e7277U, 0x7674747070656a77U, 0x6b7270706e66676eU, 0x7d73676d6f707075U,
  0x6b727f7a81726c76U, 0x6a7a756d6f797572U, 0x808373727270645fU, 0x6c7a7e7572707f83U,
  0x767b7a8284717571U, 0x7c6b7b6c7a808976U, 0x6b71776f745f7479U, 0x85827f7586847b67U,
  0x7a8681807c6c6d7eU, 0x73757178747c7e6eU, 0x777d80626976736eU, 0x7672706a75887b62U,
  0x6c756f727c7f6970U, 0x81796b6c67777273U, 0x787a75787a797373U, 0x7179777879757778U,
  0x737f7b696b70666eU, 0x766e5f6b6e757167U, 0x73726d7b78747072U, 0x7e717376777c6b73U,
  0x7c79726d7275787aU, 0x61767d6368716982U, 0x6b6d6a66667a7066U, 0x706f746c6b877c6dU,
  0x728177746c78706cU, 0x6f6b76766e6d7480U, 0x7375746a7a6c7170U, 0x6e67716d747f766dU,
  0x737177726f707978U, 0x6f6e74736868756fU, 0x7273786c6b7c7d71U, 0x6b717d7475767688U,
  0x6e767c737769796fU, 0x7d85746b67727b74U, 0x6a6c726e6d737876U, 0x757c757667707877U,
  0x6f7771717c677c70U, 0x795e76746b6f686fU, 0x697b7a8984807e6dU, 0x6e7b7c7385707281U,
  0x837478726875707cU, 0x6c817d89726e7278U, 0x78707b8278857863U, 0x747777727e78726aU,
  0x8575797276626b70U, 0x7f7d76747d797a6bU, 0x817d797c7673625eU, 0x6c6a70756e767174U,
  0x77807a7f7c787a79U, 0x687977747e7a8079U, 0x78757b71736f847aU, 0x717985979899917aU,
  0x7b75767b776f786eU, 0x666d7774656e7174U, 0x7969797e74817a6bU, 0x6d7e837c6f716e78U,
  0x6e6a7374716f7075U, 0x7672746b7571767dU, 0x727876777d7a7e7fU, 0x6a667174707d737cU,
  0x776b6d6c676e746fU, 0x71726c6f72787e82U, 0x7676707786837a76U, 0x7570797a7c717269U,
  0x67756a717e777e7bU, 0x75776f6a776d6a66U, 0x7b79627571757682U, 0x6677736d68746d76U,
  0x817f7c7a76797071U, 0x7479716f66778380U, 0x7281727973706e74U, 0x798579727872766cU,
  0x726f797a7e7b7871U, 0x727c7b7a756b736eU, 0x72776e888882737dU, 0x6b6b707d71787a72U,
  0x716e6a7773787879U, 0x7370776a6e787278U, 0x8080747d6c64686cU, 0x798085867d68787cU,
  0x7166676d6d69716eU, 0x77726a76746f6d6fU, 0xa579796f6e737c70U, 0x8387827e95bebdc0U,
  0x7b769289857a7e72U, 0x757065757773757eU, 0x7374767780787d86U, 0x7a876b7181667178U,
  0x7f7e81787f78847cU, 0x81757d7b70797d73U, 0x726f7773727d787eU, 0x7a6c787c785c6b70U,
  0x7d7d737f766b9488U, 0x86876e6979737687U, 0x7865836b72747680U, 0x736c768280786763U,
  0x6a7582786a6c6a75U, 0x65737870685b7a7fU, 0x88757f7d6d6f7076U, 0x747d7e776d737866U,
  0x6c7c787768797e80U, 0x79785f687a808473U, 0x767985646a716b68U, 0x86767a7e7c748477U,
  0x767b7a777a73786dU, 0x6b758c7784827a70U, 0x716d716e727f7283U, 0x727b7b8679766965U,
  0x786f6b7f766b6779U, 0x6772827f807e7468U, 0x817d828073746565U, 0x6c6e77767d787074U,
  0x75736979746a6461U, 0x767e807c726b7179U, 0x5b606b6a77857371U, 0x84787d7878706a62U,
  0x7e7172788f76827aU, 0x7e877b7d71727984U, 0x8f6c796a7a7d7976U, 0x707c80867678787aU,
  0x7d7e736f7f7a777bU, 0x767c78747a7d7e75U, 0x71736d77867b7a6dU, 0x6b7d77868175776bU,
  0x6c6b8574736a7279U, 0x727e6c7781778179U, 0x6f73636b7774767eU, 0x7a70767d747b7878U,
  0x80827375686c776aU, 0x697d7a6c6c7f7e78U, 0x74787a82797a797bU, 0x7b6f6d6c7b8e8371U,
  0x7880737979746d7aU, 0x6f64787882767e77U, 0x757d817d6b798279U, 0x6d756372736f767eU,
  0x6a79787867736b74U, 0x7a737684705c716dU, 0x887971636d617187U, 0x777a7b6a6a6a7587U,
  0x8280797d74767d6cU, 0x5f69717371806f77U, 0x716f7e7579747269U, 0x68627376706d7984U,
  0x696d6868736c6662U, 0x7273767b7375696cU, 0x7d6b6d6a8074766eU, 0x675b6b7c7675737bU,
  0x73796b7d756d7875U, 0x767c7c6d8972686eU, 0x78807d7d7b7b6f71U, 0x7976777979767f6eU,
  0x737a757179727672U, 0x76737b6f6e74777aU, 0x7f79747269747473U, 0x726d70877076756eU,
  0x6d6b756d6f75747aU, 0x7d70686f77717174U, 0x7379756a70747377U, 0x75656f6b737a746bU,
  0x63617f767072806fU, 0x677a7c7b7e7b6d6fU, 0x6b75806d73777375U, 0x6e72767c7d7e7c71U,
  0x726c727173747866U, 0x7b737571746a7174U, 0x767e77737777727eU, 0x6e72757a72746e70U,
  0x6e7171647476696cU, 0x7b6e6e757a787871U, 0x7d77766d6e6f7d77U, 0x756c7769756b7372U,
  0x797376736f747378U, 0x717578746b746673U, 0x706f727b6f807e76U, 0x717877706d716a71U,
  0x727a806d67657474U, 0x83786b706f727a74U, 0x676d8c8f8f8d8f86U, 0x686d7183846f8574U,
  0x7f7b7f7a807e6f6fU, 0x66817a717c867d7dU, 0x787d827d7e676655U, 0x7266596b75747f6dU,
  0x76797d7385726d80U, 0x757270746b68687aU, 0x76787a6977806b7aU, 0x76837d7d8c6f6974U,
  0x7a77747b676b697dU, 0x778376757a686e75U, 0x73807f7c707f7a77U, 0x76787a7b6f777772U,
  0x74596f7877727274U, 0x7771726e787d7e75U, 0x6477738274847568U, 0x6473747e6075767bU,
  0x79697e7c776e6e77U, 0x757e7f807a766b7cU, 0x786b6b6b777c7e78U, 0x787c7f8474778a7bU,
  0x7e676e7b72777571U, 0x797a6b6b7b787b6fU, 0x787b6e846b68777dU, 0x6466656272736a6dU,
  0x7c746a6a7a646976U, 0x797b797973706a76U, 0x6465746c6c6d6f7fU, 0x77726e737a6f726eU,
  0x7d7372746f6f7b79U, 0x867572756e757573U, 0x7277696f7b9fa0a0U, 0x71676f6e61666675U,
  0x7f7278787369747aU, 0x7070827b79817972U, 0x71748f777b6f6e6eU, 0x7e6f81676e716c7cU,
  0x7379767e767c6b6bU, 0x7b7a82726e676865U, 0x756e76786d657879U, 0x6b736e7c7e746d78U,
  0x6b76685e71747070U, 0x80796a6f74797579U, 0x85727e8473656a75U, 0x938e747061657d78U,
  0x8582747e776f6c68U, 0x7865736c72677174U, 0x856965726f668279U, 0x7f7a6f7a7374707dU,
  0x6669686a7079657bU, 0x6f707a745c6e7675U, 0x71737c756d687675U, 0x6c6560626573736aU,
  0x6f6e6f8667667273U, 0x63747a5f6f807471U, 0x72646e6f7a7e666bU, 0x6f6c717486736b6cU,
  0x6f6f626970727d70U, 0x6e74787375716e72U, 0x6d6967757370686bU, 0x80767878796a6c6eU,
  0x6f7d777f72696a73U, 0x6b6e717577736771U, 0x6a76756d687f7469U, 0x7e8d897d7860746cU,
  0x7472677f60727869U, 0x6b6f7d6b79727179U, 0x81685e687f715c72U, 0x7c877a717c70757aU,
  0x7f7e6f6169617286U, 0x7269848076737889U, 0x6f6e816e7e756e6aU, 0x74768b757a6c667dU,
  0x798179705e726967U, 0x6c6b6877756d6b79U, 0x7a77736c656b6c80U, 0x6366797b6b6b7477U,
  0x796c7f67746d6f71U, 0x6d79757076757a74U, 0x757865788b757c83U, 0x69706b6d7f777961U,
  0x7373777e72837a73U, 0x7e85737067676673U, 0x7b706e6b6d6b7e6fU, 0x6e638674796e7876U,
  0x71807d7c7a737a70U, 0x636e736d73717585U, 0x8777697b7c7c7665U, 0x7c6875737c697073U,
  0x797676707366757cU, 0x727b7c74767f737bU, 0x7d7d84847f7f7c74U, 0x7778757c7d77797aU,
  0x76706e6364707179U, 0x6760636362736d6bU, 0x737579738084807eU, 0x6c6a847b85737a7fU,
  0x666c7d86727b7871U, 0x7383806e6b667569U, 0x786d7e7b727d6662U, 0x6b7b7873836f7d88U,
  0x6c85725e74756f75U, 0x787670686a817378U, 0x6f6963696b747a76U, 0x7175687272696d72U,
  0x6f72676e6e786f73U, 0x7173676374656a70U, 0x7b76807d776c8573U, 0x6e6e7269756f7e82U,
  0x78807d69726f6577U, 0x7673776d7371766aU, 0x6671636d70776586U, 0x757775718d696570U,
  0x5e8484786d7a7474U, 0x746f7c7770747871U, 0x6b7a7f7f7c837f68U, 0x6c7471777c717b6cU,
  0x698679707779716cU, 0x687f8a767a747366U, 0x6769716a7d707777U, 0x7f677475727f7476U,
  0x78757775776d816eU, 0x70706f77766a6b6dU, 0x717578777c82817cU, 0x7d7f7f80757e7877U,
  0x997c79847c807279U, 0x89aca290908f8aa3U, 0x606f6ea4a6776e87U, 0x617f70746e727a74U,
  0x5b6a746e71848072U, 0x78777886806c6c75U, 0x8497966b68737c88U, 0x7674726e7c738375U,
  0x70606d636d776e6fU, 0x786d856d796c7c79U, 0x7a6f6f6976838483U, 0x7479697d6d716a6aU,
  0x7d737f847b7a8473U, 0x6d84777568737678U, 0x6d666d696d797e73U, 0x626d697170706275U,
  0x7b7f777874768075U, 0x7b6f767662607679U, 0x736b6a6f7a687179U, 0x795f6e7d72707472U,
  0x797f6c696d6f6975U, 0x6c736a68716f6576U, 0x8076747b685d6b80U, 0x6f74676e688a7276U,
  0x6a7d7b5c72817078U, 0x6d7474676d766b77U, 0x83787c7e716f737aU, 0x67746d7c79726a7dU,
  0x76777f77727c7e73U, 0x75707271777a7777U, 0x717070757b757877U, 0x6566726866736c6fU,
  0x836b605c57666264U, 0x64696c6a7d979b9aU, 0x6b6c7e706b68626aU, 0x6e646b7a7c6f6b86U,
  0x6f756b767b78776bU, 0x74796466777c7065U, 0x707d796a6b5b6b70U, 0x82747e827a797166U,
  0x6e6e6f7582807474U, 0x787c687b756e797aU, 0x6a6f7b667a6b7170U, 0x737477685e667677U,
  0x7a796a7e73876b6bU, 0x6b68746f766f7c79U, 0x7f6484707c767471U, 0x64716a78726a6569U,
  0x736775736c7b786fU, 0x767a78807370717fU, 0x6f7e6b82757a747aU, 0x7c7e7a7d76737376U,
  0x67766d73747a6d69U, 0x7f7b827173788668U, 0x7d696f6b72727a7bU, 0x6e6b646f7d887b65U,
  0x7d787976777d706eU, 0x787878737075727cU, 0x6f6f8a826d788778U, 0x716d7a7c67778275U,
  0x7a8f978a746c6c71U, 0x7168686d666a7376U, 0x7371727f6959686aU, 0x7472787e75746f72U,
  0x4f4d5c78837a7a7cU, 0x6e6b676d7e7c6c4eU, 0x817663787b757b76U, 0x7272768274756174U,
  0x807d7077737e7e68U, 0x6d6c6e7971746882U, 0x71775b72757d7e6dU, 0x73797b757b776d6fU,
  0x74776a676c688571U, 0x817f73767a706f71U, 0x8b7065676d7b757eU, 0x777170707f82787bU,
  0x65716c7880707469U, 0x7d836d7379687368U, 0x73726a6e7167766cU, 0x806c6c7f77746b6fU,
  0x7a65657669766c6cU, 0x7f6f7b637278736fU, 0x7586745e6975736dU, 0x716d6d7472887c67U,
  0x676d688179817360U, 0x706e76735c818170U, 0x726b6b8383817c76U, 0x86697b7877786d6bU,
  0x747d7a7369616e81U, 0x8c747069746b656fU, 0x717080776d647d8cU, 0x72726f6873897e89U,
  0x747774838a7e7975U, 0x736c79767174636aU, 0x767b747b736e6c6dU, 0x786b6e78806d787bU,
  0x8e827b7a8f9a8d81U, 0x72949b827c6b7c8eU, 0x6c787c6e71747477U, 0x66716a5a797d6c76U,
  0x74766d81797d6c7eU, 0x9a797b7a76717183U, 0x727d676a65807d9cU, 0x637c82747b5f7379U,
  0x6463776a70686b7eU, 0x72687785687f7b72U, 0x7672666e767c6770U, 0x7e7f62637a83868aU,
  0x6763816b6a6a7a67U, 0x8a70677c7c806f78U, 0x737775647b6c6b70U, 0x85857d8a706b8068U,
  0x8c8979766e7b717aU, 0x6963717375617974U, 0x81716e7775728372U, 0x82747e757e73696cU,
  0x6b83757a7a797277U, 0x6d6a7a637b807f68U, 0x7a65787f8e907e70U, 0x6d6e6d726e716d82U,
  0x6f766b6e6977797dU, 0x696a767b736a7972U, 0x84797674676f736dU, 0x7c7e777365738f80U,
  0x646767746c748787U, 0x736e6f63575c5f66U, 0x7279767671736378U, 0x7378736e6964727bU,
  0x7c6971615e5e7977U, 0x687274816d766f75U, 0x72837f7972897776U, 0x6f716d717e79746cU,
  0x60727c6873737573U, 0x696c707584707b7bU, 0x6b6f747a857c7371U, 0x7070787270776a75U,
  0x6b7a746f6e697574U, 0x676e7e7581646d67U, 0x78716d70797d806eU, 0x6c82777871797768U,
  0x6b7274676f766b65U, 0x706d71677d746e6eU, 0x717a6e667471696eU, 0x6d6a676e666f756eU,
  0x68737270706d7a70U, 0x6a706d6e71727773U, 0x8176737882817c75U, 0x70878172746b7267U,
  0x7e79725f736b6873U, 0x7d7e74708179746fU, 0x6d83747972757375U, 0x6e7c7e807478767bU,
  0x6c6a7c776f74757dU, 0x606f80736c6d6872U, 0x7c797762736c796fU, 0x7b70786e74747772U,
  0x6970686e777e7e84U, 0x7079796b6d71766dU, 0x79746e74727a7c6fU, 0x817980747e6f7983U,
  0x6c77768080898988U, 0x6d6e726d797a7b71U, 0x847e83766b6e7b57U, 0x7f6e6b686066757eU,
  0x8364606871736773U, 0x5e6e6c7e828a7b6eU, 0x6a6b6c61657c7270U, 0x756f7d7272767869U,
  0x6b7a6d7c6c5d6963U, 0x786a617579897b79U, 0x6a666e6a7a8c7572U, 0x7070697176817f71U,
  0x776975767168787bU, 0x827d71746b71777cU, 0x7c79716370706a80U, 0x706d7f735c7e746dU,
  0x6c7270736d716671U, 0x7f76727b76807872U, 0x7260636f7477626cU, 0x82728672858c8172U,
  0x7970627c68656775U, 0x6a6d79777984717fU, 0x8172637077767560U, 0x8077777b7b85676fU,
  0x6f7c767b70787583U, 0x776971637978786fU, 0x6a6b686d836c7980U, 0x76726d6f696b7177U,
  0x74736f7070757373U, 0x72797b77747c8077U, 0x7379776d6f676e75U, 0x706f73776e686a65U,
  0x917167867583756cU, 0x71767778838b6482U, 0x766f6b737b827b85U, 0x7669776874768183U,
  0x6d72806d606c6e7bU, 0x7373766e75847f73U, 0x687779707f818e77U, 0x707763666b6f796fU,
  0x6f72647f6a686c7bU, 0x818573776e777866U, 0x6d6c6d637d6c676cU, 0x667271737e716d66U,
  0x5e5f7a86786f7864U, 0x7a6e686d79756c7cU, 0x6b707165748b747cU, 0x707c8258767f6a76U,
  0x7a75797575777669U, 0x7d786e67606e6b7dU, 0x7d6a728575746172U, 0x7665637078868074U,
  0x858c6f6377806372U, 0x6c76776f6b71626eU, 0x7380866f76687576U, 0x707a7e77747b746fU,
  0x80747a7c737a716fU, 0x78866c7677697881U, 0x7477767880706e69U, 0x72757c7f7a746d75U,
  0x7b7d737775726f67U, 0x7b737072777a8379U, 0x6b6a7d7b62645a66U, 0x747f7b807e827673U,
  0x8175687669777675U, 0x707d6c7b776a7875U, 0x6c71687c73656772U, 0x7674766f7d757067U,
  0x7b795f8081837276U, 0x6c796b6e72687872U, 0x786d7c74697f7678U, 0x76747c7a796c6d7bU,
  0x7777747f77848892U, 0x717575848388766eU, 0x576c6e68766c777bU, 0x5f756c6c827d6c68U,
  0x7f656f6a6a7c716fU, 0x6e6c70876d707070U, 0x7b6b7a6e6b677875U, 0x6a738271676d6f73U,
  0x656b6e7083797e6eU, 0x5f6071787874725fU, 0x78876d657768706aU, 0x5e85827c77766177U,
  0x72787e73636c6a64U, 0x83757b7683706d78U, 0x726b7d7a80817080U, 0x7176657671796d76U,
  0x797179788265836dU, 0x78777a6e667b7b72U, 0x7473766f6f68797fU, 0x7571696c6d717274U,
  0x797f7b8478787071U, 0x7b78796f6d73747aU, 0x7569706e727d726aU, 0x7e77664846475b78U,
  0x796a706e6e71737bU, 0x776c76786e6f6f69U, 0x7e7a6d686f706972U, 0x767266727c7d7974U,
  0x797d7f7b796b7278U, 0x7969686c76686e6eU, 0x73766e6c77746e73U, 0x757a727775786f71U,
  0x7f76746f695f636eU, 0x6f716c76768a817bU, 0x76736d7b76706f7fU, 0x6a6f77696b6c7b7cU,
  0x7371756d70737d7dU, 0x736d747273807175U, 0x70706972727b7271U, 0x7c7f71606f79766cU,
  0x7b706d737576797aU, 0x6f6f787d78767470U, 0x8171746a6c71706cU, 0x7b727d6a70807673U,
  0x617c74696f737374U, 0x75737179766d7a75U, 0x6e83868784786d67U, 0x6e738371746b7c75U,
  0x7a767472675e756eU, 0x767b6a67736d7f6fU, 0x697673777472726aU, 0x797077766966706eU,
  0x707079797d7b7973U, 0x76666b747c767d71U, 0x546c747874766c82U, 0x7d757563666c7473U,
  0x6d6f798977515074U, 0x756e75727b726877U, 0x73757c726a6a7176U, 0x726d66716e6e7a75U,
  0x6d7a68645e736f69U, 0x726d686768787273U, 0x646d69687c696170U, 0x7771696c6f76736bU,
  0x837876787772776fU, 0x736d7c9073797479U, 0x717a75757879736fU, 0x6f77786d71727d6cU,
  0x7076716c6f708574U, 0x777f80767f807b7cU, 0x7a7b847f8178737aU, 0x7f78756976766a74U,
  0x746d7e6b6e757a80U, 0x766e6c797c767675U, 0x7270727b726d7379U, 0x7e797e7e75697275U,
  0x6c6a7a6e6d646a7cU, 0x7c6d7b7a6471746cU, 0x6f8272726c7d7674U, 0x7c746f6d7c73777dU,
  0x7b776f7169768077U, 0x706c706d7c7c797dU, 0x6667636d6b6e7773U, 0x7a797a7c69686066U,
  0x777a777776787272U, 0x6c737a7974666977U, 0xe4e2a078766d7676U, 0x8576737571768cdcU,
  0x74686a7c716d6d92U, 0x7b736b7f74747474U, 0x6a7377757876777cU, 0x7878747968656d6aU,
  0x7d7d7a8880827875U, 0x796b7075707a6972U, 0x66637a7570757072U, 0x7878787276757470U,
  0x70767a8173708270U, 0x726f7677767c6b71U, 0x6f7a6f7b73797b75U, 0x73707e706a74756fU,
  0x72727674737e7472U, 0x706d80686f6b6f6dU, 0x6a7376696d738073U, 0x6777697370666970U,
  0x73707078686b6e6dU, 0x787674767278766eU, 0x6e73736b7e7c7b6fU, 0x6e6c7671686c766fU,
  0x65707a7580787a78U, 0x7f716d726a73676fU, 0x7b7c716b716c6b7aU, 0x7a7378796e71717bU,
  0x796b737a71736d72U, 0x74726d66656c7273U, 0x756d685e6e6c5f6dU, 0x787b7f8081857777U,
  0x6b6c726c786f626aU, 0x6e72695a585c6c60U, 0x6e7370736b6f6667U, 0x647c83677a707974U,
  0x8365757b7e7a7268U, 0x6e776c78737e7883U, 0x736c7b6e737a7c75U, 0x75876b6a6d757e64U,
  0x76757c67726d716eU, 0x80727b7670737c6fU, 0x687a6c6e787c7c69U, 0x857a736b686a6d74U,
  0x787d6e6d67767571U, 0x6f767279806c6478U, 0x79777a6f68847e70U, 0x727472847570727aU,
  0x6d6e70726c7c7b71U, 0x756c6272616e6e6dU, 0x768574856e787272U, 0x7478687275786476U,
  0x6c67757c89746769U, 0x7a76797b75817172U, 0x6c747d828b746983U, 0x6c797c7b7d797474U,
  0x767b8d7967666e6aU, 0x6867707c6d666b77U, 0x8a6666606f6b6471U, 0x61766f75787a7d70U,
  0x7c79696f7d665e70U, 0x6b766e716c7b8382U, 0x84776f716d606d67U, 0x6b72767a84898785U,
  0x696663776f667b72U, 0x6d6b7470637f6f63U, 0x6b747c8b8d8e8480U, 0x777980777b807771U,
  0x73756e71678a7b72U, 0x797671817c6a6e7aU, 0x6b746a6871787d6bU, 0x696d758a73717375U,
  0x726b7872757c7b82U, 0x788279957d817c60U, 0x6f71797375897674U, 0x776e7b7479776d66U,
  0x7f7b827b76727e7bU, 0x6f686d6c6f7a6c71U, 0x607d74696a7f7d75U, 0x85797d7e7487726cU,
  0x776d76747f6e7a78U, 0x6566727174705c65U, 0x76726c6d676b7979U, 0x6e726d697c7a7f82U,
  0x6f7f746d79666d7dU, 0x6c6d6c6d72716e75U, 0x6f7b706b6a726f6eU, 0x6d67767671728679U,
  0x8b806d6a7c696f8bU, 0x6f7f716e6a86827eU, 0x6172757c6977817bU, 0x757c7c6f697e8165U,
  0x7061738272656865U, 0x726a6f6d70656a69U, 0x7d7f7483807b746bU, 0x7574746e6b758088U,
  0x6f77708a6859666fU, 0x8472756e7d6f6d6dU, 0x8073697a7f858886U, 0x77738b858660657cU,
  0x7c717d7084726e6fU, 0x747774756f716374U, 0x7769577177797683U, 0x8371727c83827e7aU,
  0x7779757e6573777dU, 0x7987736c736b7672U, 0x7a7f6268717e7f76U, 0x7b73837d74758071U,
  0x7a7c7d7c707a7178U, 0x6b717b6a84767778U, 0x796e6d84827b7378U, 0x756f71767b868476U,
  0x8f88727c6f6e6c6aU, 0x7e7471767460737cU, 0x8086707d7270826eU, 0x61607b727a6e756dU,
  0x7b7c6e716d5d7c75U, 0x7a746f6564656b73U, 0x747377898c6c6f6eU, 0x6d6c5f7679747c72U,
  0x77737972727a6e6dU, 0x8275756f7176727bU, 0x796f6c7b71765f7cU, 0x7074676a73746568U,
  0x6e7f747879747274U, 0x6d706f7273756f6bU, 0x706d6b71736d656bU, 0x72717876756b6b72U,
  0x686a76766c767874U, 0xbab8b18976797572U, 0x757b73707f899fb9U, 0x8f7275686b6c6c70U,
  0x6c706f7473767182U, 0x7b6f756e6a71826cU, 0x6164776f757c7d83U, 0x61757e7374777870U,
  0x7278778175627e70U, 0x777172647386706aU, 0x7a7b7c8e7374777bU, 0x7e7d726f747d737bU,
  0x768b886b73717377U, 0x6967728076626d67U, 0x72707b7d7a7b7e78U, 0x776f766367686a6fU,
  0x727b7c7279746974U, 0x79707c6e7866616cU, 0x78867584687a767bU, 0x79767377706c6c6eU,
  0x6b6b7b7e6e746f77U, 0x766d6b6e6f6b6571U, 0x78656773737a656cU, 0x71817a7265636f69U,
  0x717e697568786c6dU, 0x656f707b887e726dU, 0x7a726d6882747162U, 0x7f7b74717273777fU,
  0x6c766f816d78756dU, 0x6e72787074687072U, 0x6b6c706563716c6fU, 0x787b707773757a73U,
  0x797776777e737675U, 0x555c5c5b59546c70U, 0x787c7a79797b6f5fU, 0x67827e776c6c6d78U,
  0x686e6e7e76736f74U, 0x86816e6d797e8079U, 0x686d676f67717b70U, 0x7c6e736f7666766bU,
  0x797d6e6c63768077U, 0x77788175766e7075U, 0x737877696d767b77U, 0x7e726175706a7572U,
  0x756e7c74757f6e74U, 0x796d7582816b6d6fU, 0x7480828079808179U, 0x767670617a7a7670U,
  0x7e797987807b6e79U, 0x776c7c7d86867671U, 0x7a6e666b74726f72U, 0x7271666e736a6875U,
  0x6b7f706676808986U, 0x776f746e787a746eU, 0x7074807b76747775U, 0x76697e7279746174U,
  0x7487827e6c70786eU, 0x7784878077777171U, 0x7974736c7a756a75U, 0x896f7376807a8082U,
  0x73776d6b6f766d6dU, 0x7373797276726d6dU, 0x81797372686b6c72U, 0x777576827a708371U,
  0x6b7f75767f7e7e81U, 0x7670788789888277U, 0x7e7d835a5d7e6a67U, 0x878b6e726f6b7a74U,
  0x687e6875826a7768U, 0x8476767078776d7bU, 0x7a6d686b736c6a87U, 0x7475777d75788479U,
  0x8277786c746f6d6bU, 0x747a73717b788375U, 0x7681836d626b717dU, 0x6f6d948279707e76U,
  0x767579807f84737eU, 0x7d7275707271746dU, 0x6a76647670746d75U, 0x686373766a846d79U,
  0x6d70786973778670U, 0x71707a6d80767265U, 0x7b79837279736d6cU, 0x778285797b798172U,
  0x737e717382797775U, 0x7172737d76818274U, 0x7080778068676469U, 0x717160726b6e757cU,
  0x74787c706f766f81U, 0x7b71707074726e72U, 0x78776b6c6a676574U, 0x7c7d7b707a837770U,
  0x78726b787771636eU, 0x7d7976707070646dU, 0x73766a6a72727979U, 0x6e74807378717067U,
  0x9c90766767617562U, 0x867e737f939ca0a0U, 0x80767c7a6e7e836bU, 0x6c8277787f6a766fU,
  0x736c6480767b7c6cU, 0x646c607c7e746a7bU, 0x7775716c7b737370U, 0x7873767a737f6f5aU,
  0x5f717b78686f7c80U, 0x707e74736a677d7dU, 0x737d6c676b728171U, 0x7b7e7a6f716d766fU,
  0x6c728b778072706dU, 0x787a6f7975817869U, 0x6e74796c6d737b70U, 0x696f8d6b6f76747fU,
  0x766c73777184767fU, 0x7d686b6e62706e75U, 0x7e63677571738277U, 0x7675738380805f74U,
  0x707c7677757e736bU, 0x7b716869756c6772U, 0x727378706f5d6666U, 0x616371736c687b86U,
  0x736c73748279787bU, 0x6a7561738278746eU, 0x74717b77837a776eU, 0x7170776d6d756f70U,
  0x6f6972796f6e7375U, 0x7a8381847b737577U, 0x696e727364727479U, 0x6c706c6c7b71666bU,
  0x88888175726a7067U, 0x7176736c72757a88U, 0x726778666f776d73U, 0x7b727c746c707277U,
  0x6f69666969716b6fU, 0x72816c6a6e69707aU, 0x6d78767c78617080U, 0x67756b77767a6b69U,
  0x706e79797b7c7275U, 0x5e8e885d7b6d5866U, 0x7574706e75787a6aU, 0x786a907b7d787578U,
  0x7a707d70747f6a76U, 0x7b76797b627f8178U, 0x666d6c7875766a75U, 0x7175795e7b717776U,
  0x76706e7d6b6e8171U, 0x787b6f756d6c7676U, 0x7a6e7a6c76787383U, 0x63796f7a5e706d7dU,
  0x716b7b7f7f766b72U, 0x6e7379767d657c76U, 0x6a6c7d85756f856eU, 0x677885816e697274U,
  0x71737a686f7f7f6aU, 0x6877717068687a74U, 0x6e72916b777f726dU, 0x6c697174626e856bU,
  0x7f7771726c727872U, 0x686872797677777bU, 0x787274687879626aU, 0x7772776b6f6e716eU,
  0x755b5b5b6b717873U, 0x746c6f70717b7880U, 0x6e7d656370756d6aU, 0x6a646568666e6f60U,
  0x7f7e5c70736a7266U, 0x79657f7f7c67786bU, 0x67736f6870757c68U, 0x747a7375716a7978U,
  0x6776786f6e7c7172U, 0x7972787179717676U, 0x717367686e5d8088U, 0x7c7680706f6f7381U,
  0x7367766e8686786bU, 0x757074656b6f6772U, 0x6c707767785b6a6bU, 0x7f7d79776f73707aU,
  0x716e756d74717478U, 0x7f7e647470707279U, 0x666d747483707673U, 0x6e6c6671707b8777U,
  0x6f6a61756c637d66U, 0x7a716a7c797d7472U, 0x6b807b6682807274U, 0x5e787666717a7b6cU,
  0x76747c6863677660U, 0x8d797b786b6c7f81U, 0x73807579767d7165U, 0x766d6e6c6d678286U,
  0x626f7779756f7072U, 0x6d737b736f766b66U, 0x736c70716f706877U, 0x78776b676d69736dU,
  0x676f6768696d6666U, 0x6677787e76757370U, 0x716e72786b717283U, 0x7475747a70656c72U,
  0x7581837c69705e6bU, 0x736f806d6a798771U, 0x667472847b7b7874U, 0x6e7a7a777b7e8c71U,
  0x6e776d656f666070U, 0x70708471688a7575U, 0x726e747570707978U, 0x736f7672767a797bU,
  0x6f6b7c7a61776e7cU, 0x687466777d717d71U, 0x806d636e7d787182U, 0x6e7773777977747eU,
  0x6b747b7d8b7f726dU, 0x797482757a676968U, 0x746f766e7473656dU, 0x6d696a737b7f7475U,
  0x816c786f7c766568U, 0x80817f676474757eU, 0x6e8072747574796cU, 0x79748d6b796f7474U,
  0x647c838380717678U, 0x7764756870797e72U, 0x7877737868777379U, 0x6f716767626b676aU,
  0x747a75756f6f7370U, 0x70676b797d707574U, 0x81767d737f6f6374U, 0x8d998d7b7e7e7e7eU,
  0x837d929e987e807fU, 0x727a76797075867bU, 0x707e777477796f6bU, 0x6a6d817a6c75727dU,
  0x707f8279696e6f6dU, 0x787f79a392747773U, 0x7480786b6c766e6fU, 0x747a6e7471848075U,
  0x85767d7c6e66666bU, 0x6d64726c747c757dU, 0x7a7e7b776c7e7463U, 0x7b767c775f767378U,
  0x776366657c777470U, 0x71716e7b7878776cU, 0x6b7078778884607bU, 0x7c68777b7b787a7bU,
  0x6b7271796e6f596fU, 0x6b517c636f7d7c75U, 0x6d6f76787b786a6dU, 0x746c7574706e777aU,
  0x788076747583757cU, 0x71727e6c82817c73U, 0x77737769827b6e69U, 0x6c7577686d74716dU,
  0x79616f6267717971U, 0x827379847d6d6b7cU, 0x676f716e6a656870U, 0x74696f766f707271U,
  0x7a76776e776d686aU, 0x7e7f6f727676747aU, 0x767c79747b727f80U, 0x807d817f8073766fU,
  0xb0746c7271847c80U, 0x79766f7c72686aadU, 0x7e8064696c656570U, 0x736b726f7b746874U,
  0x857276897b7e715fU, 0x797673787d919481U, 0x75797d74737c8176U, 0x7e756a7776776473U,
  0x79766d6f7477827fU, 0x777c737769786c78U, 0x857c75786c74707bU, 0x6d796e746c747a85U,
  0x72747e7866677d74U, 0x76797e7b737d727bU, 0x69785f727c776d70U, 0x6f6f6c64676f7f84U,
  0x7177787079738071U, 0x6e73747b6c7d7867U, 0x7b7571696f687666U, 0x707769686d6d6b77U,
  0x606a847c786e6d63U, 0x6f7a776c7c727a78U, 0x77787e7678747677U, 0x77757e676c6c787fU,
  0x756b6f746d717678U, 0x73737e7c74736c68U, 0x7975776f6e737372U, 0x78788479727d7c76U,
  0x767b80766c777a74U, 0x686d707073797073U, 0x716e6b73655f6877U, 0x6e706f6e6e705c67U,
  0x7172818872657772U, 0x7a73717874726d74U, 0x687a6772656d6c7cU, 0x797b82636b67705eU,
  0x7f705e6b6b737079U, 0x76687578746e717aU, 0x6471776977716d7fU, 0x727269597c676f71U,
  0x7175647c786f6867U, 0x6b6a767e6e5c716aU, 0x766a73796d756d79U, 0x6a6f767c7c757271U,
  0x716c708077877b6eU, 0x6e6c79736d68836cU, 0x77766c6d7682776dU, 0x6a756c6e746c717eU,
  0x68656f79616a6f76U, 0x846e747571726665U, 0x71766c7a7b6f6d73U, 0x6d70777a76726f71U,
  0x75766b7880827171U, 0x796a646e7f7a706cU, 0x7471667f797b7775U, 0x6e70766269747171U,
  0x88716a68716b7077U, 0x89696d67696c7272U, 0x79767f7878677574U, 0x7479747570726e73U,
  0x7175716e7b807a73U, 0x706f6c726c757168U, 0x78756e6e6e827670U, 0x747772696968667aU,
  0x6c6e5e909a7b706fU, 0x748065807f6a6b5dU, 0x6e6d6d6372777f6dU, 0x776e6f6c72657774U,
  0x70777b7a7e727478U, 0x79807f6872767b7fU, 0x7a6875746e626072U, 0x74757a79808f736eU,
  0x716564707a767f75U, 0x7a6c6c7063706775U, 0x697e6c7071727f7aU, 0x7e757a7a89766359U,
  0x797072706c5f6680U, 0x6a707079757b8064U, 0x7169747377767271U, 0x7a816d717e747073U,
  0x72757b817c726e7cU, 0x707281677569707cU, 0x75706c7273767a71U, 0x6a77735f7277647cU,
  0x6a828670726d6b7fU, 0x767179757778717dU, 0x757b7b6c785e6c79U, 0x68737d7371706471U,
  0x77666c808078766dU, 0x62766d7b7c785c74U, 0x7b7b7f7d7578756cU, 0x7173787374727778U,
  0x7a7b798284766e73U, 0x5668707f766f6b71U, 0x8f7367716a7b6355U, 0x697d6f6b85aeb1afU,
  0x66717767745a4d6fU, 0x746672816f6b7872U, 0x7a78716e78696970U, 0x76737874736e726fU,
  0x747f746a626e6f77U, 0x798f807275797573U, 0x7d73878482797272U, 0x72776579707a8278U,
  0x6979727c6e6f7472U, 0x7b75747877817872U, 0x737d78838d6f7770U, 0x7e7475697b75747aU,
  0x6e787b6762687781U, 0x70808179676d686aU, 0x76706b806f7c7880U, 0x6b6f6e7d787e8172U,
  0x71675e706f647674U, 0x6f67656478667076U, 0x6d73627372757b75U, 0x7f78706664816e6dU,
  0x686f6e7a847b7985U, 0x69656d8173746967U, 0x636d7a79807e7478U, 0x7973817d72777c77U,
  0x707c697073747f70U, 0x716c6f747e7e8371U, 0x73646c71776c776dU, 0x646f686e70726c6eU,
  0x6468736f68726c68U, 0x6860677372726e6aU, 0x6462636e6e70766aU, 0x7d67727c71726463U,
  0x7f6b7a7b6f697d83U, 0x6c6b7a7160746d7aU, 0x6e797e6c717c796aU, 0x77817f6d75727f71U,
  0x686d787a737c8078U, 0x787277857781766eU, 0x736566667d6e6b6eU, 0x657376677b77726aU,
  0x666d70775e768461U, 0x7f786a777b786b7cU, 0x70756b726a6f736dU, 0x787782887b767d77U,
  0x72686b798c737173U, 0x6f7475787081676bU, 0x7575767876746e6aU, 0x7e7d7c816f70737cU,
  0x75797b646472797fU, 0x847181817d70706bU, 0x76706e6c74726e6fU, 0x6f6c72736d697c7aU,
  0x6471737c856d6e85U, 0x79766f7475738070U, 0x7173737680856a6dU, 0x6a676a777d6d7e6eU,
  0x6c74726d6982717bU, 0x676d716568747275U, 0x6c6f6b6b6b716e6bU, 0x776f706d73757473U,
  0x7f7574746f71777bU, 0x797262788168696fU, 0x797d818175726c80U, 0x82887a6a6d796f74U,
  0x74756f677565666aU, 0x7b756d706b83796dU, 0x84867b706b7c7a79U, 0x7675768571737570U,
  0x717d7d787b79727bU, 0x7a696f6b88796f68U, 0x6973706c6e6e6f71U, 0x74776e757a6b6e78U,
  0x777573777768686fU, 0x6d80837280858176U, 0x837c6e756c7b7c73U, 0x767e72697a77716fU,
  0x7b7c6f7270677c73U, 0x7f81877c6f707874U, 0x80786f6e74867978U, 0x76797e7e70696c6eU,
  0x756775676c536e72U, 0x83777c6878686478U, 0x7c74848875737181U, 0x6f7e85817e826f76U,
  0x768073727b6e7a71U, 0x626f6e876e78817fU, 0x65727679787a7b82U, 0x708170767e7c8f6dU,
  0x686c8079686b5f75U, 0x7068706871716f7cU, 0x6c71747067675d60U, 0x6e7774746d69727cU,
  0x706871847d787a5fU, 0x7385827c766f6966U, 0x6e6b8cb3b4b39f7fU, 0x706e745d64817875U,
  0x797672747d79797bU, 0x70707a7885766f68U, 0x7889786776706f70U, 0x7f69657d827f796aU,
  0x67767c886f6d6a75U, 0x777a776d81746b71U, 0x7270697374767a73U, 0x76787b7a72717178U,
  0x6c7a72757a717c7aU, 0x72636f787c7f7a80U, 0x6c73777a63737774U, 0x7080776878787c72U,
  0x837e6c666464767bU, 0x6c76738173757172U, 0x74797e787a77797aU, 0x776b6f6f6b777570U,
  0x7e7275797c7c7d7aU, 0x6f66767c68696e6cU, 0x717781796b686773U, 0x7578687477756c7dU,
  0x766c728074726a6dU, 0x786e7561616c7271U, 0x6f6c7f756f69726fU, 0x6d6a6e6a67726c75U,
  0x7871716760666c6dU, 0x786f79736f6e727cU, 0x6d6d676e74737766U, 0x7a6a797c7c707b74U,
  0x7b7c767b77738280U, 0x7471747378777a77U, 0x778e776f6a777171U, 0x827f7a79816c6472U,
  0x7a76877e82627574U, 0x747577757c868282U, 0x7767787d776e8176U, 0x7575746c7180715eU,
  0x6e71787b7a6d7581U, 0x786f6872816b647aU, 0x7663707f766f7278U, 0x63656a6c7b637178U,
  0x6f736a71737e6f68U, 0x6d8b7e73726e7c6eU, 0x6865786975626672U, 0x69788076796d766aU,
  0x6a646479756e7978U, 0x686d786d6d7b6863U, 0x7c6b78746d7e6d6fU, 0x7c8185716e727a7cU,
  0x7275807b71767471U, 0x777f75726d70726fU, 0x7477797784807e66U, 0x798e88736d817982U,
  0x827b787f7a6c6e75U, 0x717b816a6d7d8471U, 0x766570787068726cU, 0x85827e7772777478U,
  0x6f74778480776e6eU, 0x6d676b6166717873U, 0x757776756e6a6c76U, 0x6e73716b6b727977U,
  0x7c737176817e8274U, 0x8f908d9697817479U, 0x9480757d8d93958fU, 0x7b7a75836a6a6392U,
  0x726f707462686a7aU, 0x667679716f72776aU, 0x667376755a6e5b6fU, 0x7c6a737b88afa273U,
  0x6c6568656b6a6473U, 0x746a6e7474736d6eU, 0x7673746a71756e74U, 0x737b746c6c7c726fU,
  0x686d8080767a727dU, 0x7884786f7f7b726fU, 0x6e736e6a727b7f7fU, 0x6b707e6e6c6d687dU,
  0x8a8478767a707a7bU, 0x766b726b737f6b74U, 0x646d747676757679U, 0x7479737d8275645fU,
  0x7b766272786d736dU, 0x7d7e727679706e73U, 0x6d7a737a88786f80U, 0x636b6d767c7b7c6bU,
  0x787b707a86847e6bU, 0x747a706d7b677a6fU, 0x7d7d777671817771U, 0x6778706d76686f72U,
  0x73727b7b6b7e7072U, 0x70766f68746a7574U, 0x75645e676f656563U, 0x7a6e7474705e686bU,
  0x726b6d8073718079U, 0x726b64677870706bU, 0x6e78846473687676U, 0x7a79797b7c767a78U,
  0x776e78787b677779U, 0x696d827b77706c71U, 0x756e6f7773736c78U, 0x82717c7d69737175U,
  0x81737c7a6f707983U, 0x7e6e6f7371768b74U, 0x786c75746c717c6eU, 0x65797768696a656aU,
  0x737473797471766fU, 0x717766666f727482U, 0x69737e6a61766670U, 0x756d696d72727170U,
  0x6d757c7761746e67U, 0x7980756b7172766cU, 0x656762647f786d76U, 0x737c797b77747e71U,
  0x777f747f8368817bU, 0x756b7369707a796eU, 0x6875787375787b6fU, 0x6d7c79686a7a7d71U,
  0x62697a786f697676U, 0x766b7a888176756eU, 0x6f687e7b6e6b7672U, 0x7b736d6c6d707e76U,
  0x697f7f788b896965U, 0x757d7f767c715d5eU, 0x716e63626e716a74U, 0x656f6964756e717aU,
  0x76667f737563676bU, 0x7c736e5a5e5c6577U, 0x7571717089746e6dU, 0x6070766e76876b74U,
  0x787a7b82797d7b65U, 0x6e6a706979766f74U, 0x726e6c766c76696fU, 0x6c7a707375677180U,
  0x7279726f6e717571U, 0x7b7a72725e6e7066U, 0x78766c746f7c726dU, 0x7276677a766a787cU,
  0x7077776a7a79726fU, 0x6f78767161777c70U, 0x7a70787873787d67U, 0x7c6a66737c748e80U,
  0x7279656f7975776aU, 0x7066726b69716a7aU, 0x7472726c76746a75U, 0x666d787172766a7bU,
  0x6e626d7874566468U, 0x6b707b807a827c68U, 0x6c787470656b716cU, 0x6269736d6877756bU,
  0x785b707273756f6eU, 0x7177746a756d7f75U, 0x737d75706d726e6bU, 0x6477786b71667066U,
  0x5953687c79808178U, 0x7f7e847a75717658U, 0x737d7b72756c7477U, 0x86717c7d72766c76U,
  0x4677777c7f746965U, 0x697a6a8166323936U, 0x806a796a63848d7eU, 0x6d7d747668777277U,
  0x78787b716e6d766fU, 0x70846d797d72797eU, 0x74796a786c6d7071U, 0x6c717d6f75706b6dU,
  0x676b666f6d737564U, 0x7f727679828c7a76U, 0x656d7f6d717d7173U, 0x756b6a7c84646f72U,
  0x726c787c7b6e7c7aU, 0x6f72667b7082727fU, 0x6f776d636f787879U, 0x797a757574767672U,
  0x73787a73746e7680U, 0x73847664746f7367U, 0x677e6c656276827bU, 0x758a786b6c767177U,
  0x6d776e71687c7278U, 0x767065717d627a78U, 0x6f7e727e6b7d7f6dU, 0x7e72847e697f6c6aU,
  0x726f797876736e65U, 0x736e757474647577U, 0x7976696c83747d75U, 0x6e71756373737069U,
  0x79685b5e6d756e66U, 0x65686f7f84817d7aU, 0x7474816e787c7771U, 0x6a667b70826e767fU,
  0xbbb7928b797b7575U, 0x58696d69677386b6U, 0x646e697068747758U, 0x72757b75817f7a6eU,
  0x7472777569727980U, 0x81777077736c6771U, 0x7371706c6f6d6177U, 0x697a706878717474U,
  0x70807b766e786e71U, 0x767969736e787277U, 0x7673767177696f6dU, 0x77827a6f6f66786bU,
  0x676f756f6c697872U, 0x787c6e66717a6c6fU, 0x7f6d7f7d72757675U, 0x6f767572677a676cU,
  0x6a6b64716c756c74U, 0x73717d6c6e756c68U, 0x6d6971756c707169U, 0x7c6b6c7c7d767776U,
  0x6e706d6f736d717aU, 0x717d746d6c6c7783U, 0x79716f6b776c6d65U, 0x766d6e7c6f7f7f7fU,
  0x737074676f7a7071U, 0x7d807071707a6d6eU, 0x706d7372806d6d76U, 0x7e7876766f67687aU,
  0x78768370676d6f78U, 0x80748084827e747bU, 0x78737f71747e8488U, 0x806f6d7070656571U,
  0x6949484a5777817cU, 0x736f7f79666c7e78U, 0x73697b726c6c7d73U, 0x6e827875786d6373U,
  0x6c6578726f6c6e72U, 0x6d76796b6d6a737eU, 0x6a77856b64827d72U, 0x7b758183706d6270U,
  0x8379746a757e7475U, 0x6f797b7678768679U, 0x617b827e7f7f6d71U, 0x6f77808575726774U,
  0x7a7562706f637a72U, 0x617a87847379847aU, 0x6a665b7578798170U, 0x6b767a6c776f7875U,
  0x6e7e716975797079U, 0x6e8871776c6c746bU, 0x7d6b727a79787871U, 0x7174716579746869U,
  0x75696a897a6f7672U, 0x6d68717b766c7178U, 0x6e737d6767717d78U, 0x6f8784706f79765dU,
  0x837b7a5b6a79746bU, 0x6b72686f6f6c7770U, 0x7073727a777c7a83U, 0x6e74797572716d68U,
  0x79756e7170646464U, 0x727a77767c848273U, 0x746b727273737675U, 0x666e777564717172U,
  0x6f756e6b716d656cU, 0x79776b8283666982U, 0x6b7a777d7d6f8678U, 0x6071766a74726a6fU,
  0x70776b7c7b7a6d72U, 0x766e5f7480677181U, 0x7e77687170767286U, 0x797b736e686b777aU,
  0x857d816a727d7d67U, 0x7f71767c7e716b7fU, 0x767e817467787670U, 0x66727c7a7c786c76U,
  0x827b6e796d6d726fU, 0x74647d76796b6d7bU, 0x7676757e81777f7aU, 0x796f7d68696e7480U,
  0x706875887f7d7980U, 0x7575627f777c7e7dU, 0x647869746f638282U, 0x6f7876736f68706bU,
  0x7c707869807e7b6bU, 0x7a6d757173787d70U, 0x837f6b817c76676bU, 0x766f516d79647274U,
  0x72808271706d6876U, 0x6c767f757477796cU, 0x637479736c7f776fU, 0x666b72717a756e6bU,
  0x7a7772787477736dU, 0x7b7b7a7f7b767579U, 0x6a6e7a6b70756e6fU, 0x88877c6b757e6062U,
  0x6560667587a5a7a7U, 0x7e776d6b604e5073U, 0x78707380707a7681U, 0x767b78817c89897cU,
  0x7f7c746b7a7a7576U, 0x6f73727068717a82U, 0x7967737c876f7a72U, 0x72736f7577757a7eU,
  0x6979788f867a6c73U, 0x727d787b8573646bU, 0x737a797578807d74U, 0x6b737e7e7c67756aU,
  0x74676f6b73756d79U, 0x757d6f796f6e6e74U, 0x877873816f656970U, 0x7378796e74666c7cU,
  0x7b6c717a79756e6aU, 0x6a707472796c636fU, 0x777d706f78727073U, 0x70736c6f646b7a7aU,
  0x77737481818f7c68U, 0x7b7281746a7b7b72U, 0x756e676c67786e76U, 0x70727663717c7873U,
  0x8784837974756c7dU, 0x7b827673696f8178U, 0x787a736870777573U, 0x7270696565717872U,
  0x7574716c76706f6cU, 0x686d70716f717275U, 0x7671767d737c6f70U, 0xc7c6c3a07c7b737dU,
  0x887275787886bcc7U, 0x7375757478747281U, 0x7c807a7e827c8383U, 0x6e777977767c7362U,
  0x6a6c6a72766b6873U, 0x737d786e73786e6cU, 0x6e7a85757a737275U, 0x63726e7b73857677U,
  0x7d72727976717c72U, 0x6a80717a7d7c7874U, 0x7f7b736c75707870U, 0x696f857764736f72U,
  0x6c7873737e7b7470U, 0x686b74646e717377U, 0x7d8c76697b6c5f6bU, 0x766d7d6a74746d75U,
  0x7c797284797b7573U, 0x70736c6d71737b73U, 0x7373726d70797d73U, 0x6e636e7e7d807076U,
  0x777c75767473756fU, 0x6a6472777c736574U, 0x73706e6f71616b75U, 0x7175767b7a7c8274U,
  0x767576737e677973U, 0x7779857c827c7a6dU, 0x7476767b6a6a667aU, 0x727170706f756f6bU,
  0x6c746d6d6a717169U, 0x686f70686b7a7a6eU, 0x7768746e777d7c71U, 0x6f7a7477776a657eU,
  0x6b5e606f6e786c5fU, 0x72817d817a747177U, 0x837c7782787f8172U, 0x747c86737b7c7972U,
  0x5f706f767174757cU, 0x6a837869746a7b5bU, 0x7b7d7a7b7a74686cU, 0x736c6c786f707a7fU,
  0x74737e7484786b7eU, 0x746f74846d737272U, 0x74746d827d716f69U, 0x796a6b707b726c75U,
  0x70717d76767b6e73U, 0x6b6976716f787b6dU, 0x77697276786d6a68U, 0x7a82746e7b80746eU,
  0x766c78776a70747cU, 0x786f6b716a776d74U, 0x76726d6e78817872U, 0x7a71737d747a7479U,
  0x6b7770796b6a706dU, 0x646f747d64677274U, 0x777e726d68627069U, 0x7777727579766e73U,
  0x7f6d66706961696aU, 0x6e727c7471817673U, 0x6d6c6f72737c7772U, 0x736c767774716e71U,
  0x75777b7774747679U, 0x7476727775757b71U, 0x7a7e7a717775758bU, 0x7e6e71635e636c78U,
  0x6d68775d5b81656eU, 0x6e6d776e7a756c80U, 0x7374787683798273U, 0x6f6d6d828279716dU,
  0x766969695f6c6a71U, 0x7869718671847f7aU, 0x79657876727b7976U, 0x737c726d7b737a7cU,
  0x77707a806f6f736cU, 0x66656d6d7f727a6eU, 0x82736f7a76696e6dU, 0x7a717382726e7577U,
  0x76777b76717e7d72U, 0x6f71696a7f777a72U, 0x6d75736b8575786aU, 0x787370736a787c70U,
  0x6d7c6c66717e747cU, 0x73746f726b7b816cU, 0x7d716c79716f7369U, 0x7162647175757a6aU,
  0x79756970766c5f6bU, 0x7b716f6f67687766U, 0x816978786c6a7a77U, 0x72767f7b796f7272U,
  0x79766c667b727671U, 0x70757c827e737a70U, 0x70736b757072686dU, 0x7776737075756e77U,
  0x70777c7174707379U, 0x6a7076787461626cU, 0x8d87726e76796965U, 0x76656d718e8b8b8cU,
  0x727285756a767e7aU, 0x5e67756e6d687e6bU, 0x7a75706c5a697b70U, 0x6a7877796f6d6e82U,
  0x7c6e72676c747970U, 0x7a6d6c6d71706c5fU, 0x6f676f6f6f75708dU, 0x64766a6c78747379U,
  0x65826f677175755fU, 0x6f78796d766e866fU, 0x7372757e7273776dU, 0x6c767568847c7074U,
  0x66626f876d79717eU, 0x676a776374728372U, 0x6d6d797478777c74U, 0x7e796f777266747bU,
  0x745c6b7370726e6eU, 0x6d61687b79887870U, 0x6f7b78766c75676cU, 0x736a7a6e67768484U,
  0x6675797265737a77U, 0x656c797a797b776fU, 0x6e735c847c717065U, 0x6f687373757d7472U,
  0x828f72746e7b7170U, 0x6e767e6673686c79U, 0x7975727977667678U, 0x727270757c767a79U,
  0x746b6d6665717072U, 0x7770768374817a6cU, 0x9fa1917e6c7b6f6bU, 0x6f7273656f7280a0U,
  0x775c75777277696cU, 0x7378737c74866f78U, 0x7c7a6f7772747376U, 0x6e7a758866757370U,
  0x796f7d7c8a60707bU, 0x777276737a71786fU, 0x64707a8a97746475U, 0x747659657c756e6fU,
  0x776f7a807868716cU, 0x71636d7378767d7cU, 0x7f7b7a7b6b77786eU, 0x7676686e6f7c7d6bU,
  0x797c6c78696f6e72U, 0x6d65767676757876U, 0x71656b827b7a6e6aU, 0x77757f6d62767a7cU,
  0x6a74916a68797979U, 0x88827e727174736aU, 0x6a747769796e697fU, 0x797d7b7f80897669U,
  0x7e717c77717e6c77U, 0x71787b7f637f7874U, 0x7a797a70766b7465U, 0x767673787177846eU,
  0x766f8a7785817571U, 0x767369706d797b6dU, 0x7e797c77717c7876U, 0x7d77756e7379797bU,
  0x7576787272726c6dU, 0x706a725e747a7176U, 0x675f5b5d5f727171U, 0x8668747869796973U,
  0x897964766e6b767bU, 0x6f6d667a75767474U, 0x7269667075717c78U, 0x6a728283745b8281U,
  0x6c706b7a6e717a67U, 0x5d7c71757d6e7f6eU, 0x76626f797e827f76U, 0x72706c6f87737a77U,
  0x7076718a7e70726eU, 0x6f7b827c7f767a78U, 0x7877627163646968U, 0x6b74686d7a7e7873U,
  0x6e6e83617e767a66U, 0x6e707d7a787a6e6bU, 0x7970646b77767775U, 0x79896f7d6f767670U,
  0x6f726a7a707b726eU, 0x7477746f5a767776U, 0x787d767869727f73U, 0x7f7c726a6677837eU,
  0x64756c73767e7773U, 0x7e7e6f775c618273U, 0x727d766f7172736dU, 0x7d777078676e6976U,
  0x7b827a81847b7c6fU, 0x757b787778686676U, 0x706d6e71707b7d6eU, 0x717d88887e7f7e7dU,
  0x686f777072707169U, 0x646e656b7171716bU, 0x6e68869d9f9e936fU, 0x6e756d71837d6e6dU,
  0x687178696e6a7673U, 0x68616f7a696b6c64U, 0x76727e7b70666c6eU, 0x788083747b856f6bU,
  0x7f7b70696f7e8072U, 0x6a807f7f6568647cU, 0x716d706865756c77U, 0x756f676f7a697372U,
  0x7d7f747c748a7683U, 0x7168706d726f7669U, 0x70676f7b70777a7cU, 0x69757771657a7170U,
  0x6f716d6b707c8774U, 0x72787c85746c6b71U, 0x6b7f747974877c78U, 0x7f7d6c7172746f7dU,
  0x777e5d737c6f7974U, 0x77776b767d807262U, 0x6d69707a77767d77U, 0x806d71797a727d6eU,
  0x7685746f6f7c5e84U, 0x71696c6170717174U, 0x68767a666d766e70U, 0x6f7679716d6d7a76U,
  0x6e70847d876e7f71U, 0x82827d7b7e737972U, 0x777a6e6b77757676U, 0x7f746b6f767d7d82U,
  0x626a6465767a7a78U, 0x76717b797076756cU, 0x866c707777726d6eU, 0x75737a836e7f7870U,
  0x755f6f7a6c6e6e6eU, 0x71746d7563767284U, 0x8073687c6b636073U, 0x7a6f77737d827f7aU,
  0x82786679746b7880U, 0x7074778772797b7dU, 0x846e6f6e73767375U, 0x767270777b6c6e76U,
  0x786e707d69636e6aU, 0x7473717f7e827f86U, 0x828075697d89756fU, 0x737373726f6c637eU,
  0x746c747177777c6bU, 0x767d747d717a717bU, 0x797b706c707d7878U, 0x73705c7075888582U,
  0x857578747580847bU, 0x75637d7e7d7e6d7cU, 0x656e666d85787b7eU, 0x74806f7980807d63U,
  0x7f7a767d65706d78U, 0x7671736e7468647bU, 0x72827f7e74756675U, 0x696b72698a78816fU,
  0x7a6b7e7b7d6e6d6cU, 0x7a7c7f7c7c7a7270U, 0x84877b7268667371U, 0x6e70686e6c6a7f7eU,
  0x656965636467656eU, 0x737272706d6b6c62U, 0x6e7565696c7c7873U, 0x727b828072657c75U,
  0x81808377796c817dU, 0x6a6a747764646c6eU, 0x5c7a8c726e707870U, 0x696f657a6c746d5aU,
  0x7478738879797e73U, 0x826b616c767b7067U, 0x6371766866696d5cU, 0x736974766c727164U,
  0x77697b6b80847471U, 0x75877d6b70787877U, 0x7d6f6f787c737d7aU, 0x6a70766b717d7881U,
  0x807b7e626a80706cU, 0x807a657071707b6dU, 0x6976816e746e7883U, 0x6865757570756c79U,
  0x7773697d7776766cU, 0x7f8185897c6d6f70U, 0x7c7a7080747d6e61U, 0x7e7676746976766eU,
  0x7b707574757c6d6eU, 0x626c79787e777881U, 0x817b71666e756a63U, 0x6b72867b75757b7dU,
  0x79787875848a7370U, 0x7779817a76717579U, 0x797c7c787d7f7375U, 0x757d787f80716e76U,
  0x6e6b677a6c6e7473U, 0x6d72706f766a736cU, 0x6f7e7a6671607971U, 0x7b7980666a6e726fU,
  0x627c786975666667U, 0x6e676a7169706e72U, 0x5c71776c6b808472U, 0x60666b76616e7266U,
  0x7772767a6d707b70U, 0x7a6a747e75738160U, 0x7f757a6f6b73686bU, 0x7076717378777a7cU,
  0x7575797175847d77U, 0x747f7a736e678477U, 0x79717378796c6c6bU, 0x7871687378787279U,
  0x7d6f716c766d7477U, 0x688475686369787bU, 0x6b6b646f7f7d717fU, 0x6a7d7c6877697085U,
  0x7f79707174867367U, 0x70707e7d7062746fU, 0x6f70786f7671766fU, 0x687476797a898778U,
  0x7056726c676a7571U, 0x7f7e7d756e7f7675U, 0x6d7777686e758a74U, 0x7376806d69756b7cU,
  0x7b71757278778270U, 0x7878797d827a7a82U, 0x7b7b77777d7b7b75U, 0x666b767271767979U,
  0x706e766c6a6b636eU, 0x777a6e848b8e726cU, 0x7770797f8074626aU, 0x7275765b6f817f79U,
  0x7d74706c6279726bU, 0x6f6c717370676a81U, 0x6d7272887c706c6bU, 0x656e7568756d7775U,
  0x89796e787f7e746fU, 0x716c7e7f83747783U, 0x7973706e7272706aU, 0x647371696a73766dU,
  0x726c6a5e7f7f7772U, 0x7974606771766d6fU, 0x7c7b67766b6c6466U, 0x6e698080756e727aU,
  0x817c74836d637661U, 0x6d727a7a6971706bU, 0x606c7e7373717a82U, 0x685a71727173827cU,
  0x6f816d686d766b72U, 0x6b6866737a73726bU, 0x706d7b7b7a81756fU, 0x7e6f68686d846b7eU,
  0x747d77787e7b727cU, 0x636f6a6f69707e7bU, 0x6175766e7d7c7b53U, 0x7a7c89626e6b6982U,
  0x70637c7774727c70U, 0x71766772797a7674U, 0x886f686a777a7a77U, 0x707468717b74766bU,
  0x9781685a6972655dU, 0x7a6d707b89bec0bbU, 0x736478726152536dU, 0x75777a80777f7585U,
  0x736e697480767783U, 0x6b67776b7e7a846dU, 0x6974797675787080U, 0x70696d73717c746eU,
  0x766d756e737c7c71U, 0x69736f7770778379U, 0x867172787b767171U, 0x795d64766b737472U,
  0x756d69747e6f707aU, 0x70766872716e7a7aU, 0x7c75727b79797969U, 0x74737774786e7c7cU,
  0x70787c6f626f816cU, 0x787e647471737c79U, 0x736c6f7a8288676aU, 0x7b7f6a7b76746f74U,
  0x6f767d7676747d7fU, 0x717f7f6f7768757bU, 0x6f6e6564687e726cU, 0x6b717775696a736aU,
  0x7d73736d6f7c7c70U, 0x737177766a7c787aU, 0x8174797574717275U, 0x959a82776f796d65U,
  0x65655e5e6d837f86U, 0x7e807a7a6a6b756dU, 0x6989817d7e6f7977U, 0x6562576b5d5b5b59U,
  0x86878e9b877b8177U, 0x8577776a66808c8aU, 0x6e8480726876737cU, 0x7975828679688377U,
  0x6b756d726a7b7770U, 0x7578767882777577U, 0x65777d7874777b82U, 0x705f6a7a8178746dU,
  0x6366696f6c787879U, 0x777c796b71767267U, 0x7a72727864656c77U, 0x6d7f866e7b77797bU,
  0x667c666b69726772U, 0x736c726b6f7e737cU, 0x777c886f82736482U, 0x7985877078785f6dU,
  0x747c6c7e7c837b6cU, 0x8b776b75806c717bU, 0x6f82707c7f627a76U, 0x716b6e7570797b6cU,
  0x71747a83776c7271U, 0x846a687771736778U, 0x717e6a7476726978U, 0x707b766c756d776dU,
  0x766c6f7c7869796cU, 0x6271636571656a70U, 0x75757272656a775fU, 0x7d88938f766f746fU,
  0x706a6b5660556e81U, 0x72767c7d766e6b65U, 0x616668776f716f77U, 0x7a7160376b465068U,
  0x6d4746455f7b766fU, 0x7d818479747e7479U, 0x7b5b67757988876cU, 0x7e7b727679747285U,
  0x6b777b76766d7a71U, 0x887b71677b847273U, 0x718273797e6a7486U, 0x6c8482706d7a846bU,
  0x827c7172787f728aU, 0x697679778074847fU, 0x8370787a6f6e7d77U, 0x816b7b7a827c6f6fU,
  0x717b7972757f807eU, 0x74736b807b7c7a74U, 0x72727066757d726cU, 0x8182757c786e787bU,
  0x7d7279746b717675U, 0x768279766e6e7272U, 0x7b7877726885767cU, 0x6a7f6f6f6e7b5872U,
  0x6e817b7b5f79827dU, 0x676f766e6c7b736dU, 0x7171776c7d7a7e78U, 0x6f71807a7c7f7285U,
  0x6f82785f707c7470U, 0x766f7275757a7673U, 0x7f836b6c7674866fU, 0x756e6063797a7376U,
  0x7d6f6e64745c545aU, 0x828a808574797374U, 0x6768635d577a8179U, 0x6e787774654b6c5bU,
  0x6a6f6e646564697aU, 0x70797687817a7768U, 0x8270717f76716d6fU, 0x6c7465767e768179U,
  0x8071687c80807776U, 0x747a737485816f74U, 0x776f71716f7a7788U, 0x776d7183727e836cU,
  0x736e6c6d6e7b737dU, 0x7d6a737b79687275U, 0x79687a7071777677U, 0x7071717379787a71U,
  0x7485797274657965U, 0x786d7477737d7265U, 0x74725b627c74736aU, 0x727865727c787575U,
  0x6a7579746b7b697fU, 0x6f7f77747a788377U, 0x7e777b746e65737aU, 0x75706e7677747381U,
  0x7a757a73746c7271U, 0x70766e717e7b636cU, 0x7a79776976816d73U, 0x72756e707d6c6f78U,
  0x7170726f7071796eU, 0x7e77797f79726b75U, 0x6a666d7a7973786fU, 0x6e6f676b6e6c6e71U,
  0x72706b707371716dU, 0x7a72717471737c78U, 0x6d747573686d7a7fU, 0x6b5f777974717e74U,
  0x7172717a66707071U, 0x7571717d6d786a75U, 0x6b7d706f747c7a6dU, 0x7476647871696f6bU,
  0x77726b786e6a747dU, 0x6a7a767d8885756aU, 0x776e7067696b6379U, 0x696e707474687b73U,
  0x75736c7f7a786a71U, 0x7a7d80727f7b807cU, 0x6c62737e6e7c786bU, 0x77786d7a75767e6eU,
  0x7f7e7971737f7491U, 0x7e7f7175707b7d7bU, 0x6d7179796e686b75U, 0x78676a7a74756c6bU,
  0x65716983716d7778U, 0x5f6c737677727774U, 0x8a6e686b6f666268U, 0x7c816e727278847aU,
  0x6d74807873758d7dU, 0x787d746e847b716dU, 0x656e6a65616e6b82U, 0x747a75777c6b6f82U,
  0x7a8174766872727bU, 0x7b6f6d68647a7387U, 0x736e6c7774767173U, 0x71736a6e70696c6bU,
  0x7e897c7576767173U, 0x6776746e767b807eU, 0x7377767c766f776dU, 0x84847f838077706cU,
  0x986f79817e858481U, 0x8174817577666e91U, 0x76707263606a6d74U, 0x7e827e79767a6b70U,
  0x626e716d76756874U, 0x777371767c969473U, 0x7c7d7068726e7581U, 0x6a746a6a6c68636fU,
  0x73686d7b867d7366U, 0x75756c7c666d7378U, 0x73737b8384727569U, 0x73737b8188686188U,
  0x6c746f626d737d81U, 0x706f6d80756f7778U, 0x816f5b718674767aU, 0x7e727469717d7978U,
  0x6c647f7b83777781U, 0x71706f697d80836eU, 0x696d7e6a7370807fU, 0x697271757c696f73U,
  0x7575828974756b70U, 0x726f6766737f7276U, 0x76786f80746d7078U, 0x7b5e746e7a736d71U,
  0x786d747c7e6f6b79U, 0x716e6b8678757e77U, 0x72697a76757f8178U, 0x70766c6b736b6c6bU,
  0x787e7d7d79767179U, 0x7a78787d7b647371U, 0x6b71747c6a6e6f6cU, 0x7f949396897c6c6aU,
  0x7870696675737077U, 0x666a6f7a7c79756aU, 0x6a728276726e756dU, 0x816e757875727578U,
  0x726e757777716f7bU, 0x6264766c6e678476U, 0x7070747a77726f60U, 0x7877747873758376U,
  0x7073707f6d747670U, 0x736b74726e657571U, 0x818371777d767a74U, 0x6e6b78747377756fU,
  0x75617a706b747769U, 0x75717a7f766d7478U, 0x68706a7570716c74U, 0x7c6d7b7a76756d63U,
  0x827876796d75727fU, 0x6c6c7580787d7276U, 0x687c6b6a756d7069U, 0x7f70666a74755c69U,
  0x7b6c6e6a6675757fU, 0x656a7b77616a7483U, 0x797b8780747c7464U, 0x6b6e717470768377U,
  0x7071776e65666974U, 0x717270686a877e71U, 0x807a737275786f6eU, 0x7778796f78707174U,
  0x75747b7570747474U, 0x766a707874757475U, 0x7b787068756e737bU, 0x7571605e60615f69U,
  0x7373686a6b6d7671U, 0x726e6e716f6d7380U, 0x7071736c6e6a7776U, 0x7d7068676d7b706bU,
  0x6f7f868f83757d78U, 0x7270647971837d6eU, 0x7a7b6b6e6d7a7f7cU, 0x7682735f6a71716dU,
  0x7074726d6a687374U, 0x717a757b7f6d7274U, 0x706b636677696e68U, 0x77706b81857b7a80U,
  0x747577757578757dU, 0x77796d6c74746d75U, 0x73766d6a7772696bU, 0x7970766e7885716cU,
  0x77766e7b726b6e66U, 0x718577766b646b75U, 0x676f695f6d7f7575U, 0x7b69687075757578U,
  0x727e776e6e747777U, 0x7d7368787d6d7b72U, 0x626d747575747c74U, 0x7473736f7376747fU,
  0x6b717c7171806e74U, 0x837a807572727a77U, 0x6e6d687773726e72U, 0x747071797271716dU,
  0x746d656c70747176U, 0x756c736f736f6e7fU, 0x94998e7873686d6cU, 0x6f7784909a929192U,
  0x6f75697b777f7772U, 0x6d616b6a7a6e7379U, 0x7b73737874756e72U, 0x7e787c727571707aU,
  0x6e777099a0817876U, 0x6e726c7177676f71U, 0x7c877a7279797369U, 0x63796d7376666576U,
  0x71746f716b636969U, 0x7978777976757b7fU, 0x837f6e8389746d6eU, 0x787076747a73707cU,
  0x6a736d657169796bU, 0x73767a737d7a6479U, 0x78736d6e70786575U, 0x77676f7964717987U,
  0x8a7f8371776f7674U, 0x716c8073706f7574U, 0x787779697b646974U, 0x69797c7a75806f73U,
  0x7a7b706a6a68726eU, 0x77816e6a7571836fU, 0x7a6b7b6c79717679U, 0x76707771766c6975U,
  0x7470766e6d69767cU, 0x71747d746d787076U, 0x7576717573737c75U, 0x7d807a7672767273U,
  0x6d7b6f6b73706d72U, 0x7b726771736c736eU, 0x7f7e7f7e7e7c7c6aU, 0xaa7c737381807a82U,
  0x6b696f78707b7eb3U, 0x6a7b726f6f6d7870U, 0x7b807768706d7173U, 0x706b7772767e736fU,
  0x766c7676808f9373U, 0x7a77696d7c777673U, 0x76716872676f7870U, 0x7e6f786f79757076U,
  0x81716a6975747670U, 0x797a787977736d75U, 0x767367737e7a7768U, 0x6d696b7d68706a6bU,
  0x707c7068767b7575U, 0x62776c6f70646c72U, 0x7a766a666e777375U, 0x736f82807a726c7eU,
  0x7871736c6f737578U, 0x71636f667b83796dU, 0x7570767d7c6a6e75U, 0x776a767b746f776fU,
  0x767c7c7979777e72U, 0x7272756c74707175U, 0x7175787d7b6f5e74U, 0x74706c76737c8079U,
  0x737673676f6f7279U, 0x777674707678756fU, 0x6e6c716a696b7275U, 0x6d716d6f76727070U,
  0x72777d766d6a6e73U, 0x71757364717a6f6dU, 0x5f53555451677271U, 0x746f82797371686dU,
  0x7e7d6e83737d687bU, 0x72757b777f717a7cU, 0x757b767066646b75U, 0x6f6e72676d7e7777U,
  0x7876748280787b7bU, 0x6f75767b74767279U, 0x6e70786c6f6f7571U, 0x7868788267777173U,
  0x7a766e786f6f737bU, 0x7f6d736f70706e69U, 0x80707f786a6a6b68U, 0x62767f7774707572U,
  0x7269757881757370U, 0x6c878d7469747e78U, 0x828073746c786b7aU, 0x6f777b737573666cU,
  0x7c7b6470716c7574U, 0x82837477737a6e7dU, 0x7b7d6b636b7e7b75U, 0x6d7476707163787cU,
  0x6b6e6f797379776fU, 0x73737b7a766f7a76U, 0x737472606d685d6fU, 0x717569786c6d7274U,
  0x7974726972637076U, 0x6d757b7a7f747171U, 0x756e6e70716d6d6cU, 0x70716f757a7d8278U,
  0x7379727872797469U, 0x8a7181746f71686dU, 0x8ca5b0a9a6aaacb1U, 0x736a5f949b75637eU,
  0x7070796e7a6f7778U, 0x666f757c68647d74U, 0x6f7b6e686d716577U, 0x7295998176777078U,
  0x6d7473756f766f72U, 0x72737671867d7d71U, 0x6b707b7d6d727e74U, 0x7a71766f71756b6cU,
  0x8a766c63676e7072U, 0x6d7173736a707382U, 0x756d727f73676b81U, 0x7a676d626b7b767bU,
  0x716f6e726c726970U, 0x7b7b696a6f7b7e6dU, 0x76716e7868777a7bU, 0x7370717377786775U,
  0x757d85777c716973U, 0x6e726e7576757a6fU, 0x7071717170777070U, 0x7981756f77808271U,
  0x7369696a6b7e8484U, 0x7f6e797172778175U, 0x6e7d75646d6e7d76U, 0x767471736b727065U,
  0x6e766f7a6a71766fU, 0x6f7276737d7a787cU, 0x74757175766e6f6aU, 0x74716971726e7a7dU,
  0x75677a7e6a6c6b69U, 0x657672817778847bU, 0x786c6a6e67606262U, 0x7682767371767277U,
  0x6c73797670737573U, 0x796e677678747279U, 0x7177757676797276U, 0x7f7781787a74816fU,
  0x7d76736f6a777a7eU, 0x7e767c757a7d6073U, 0x75776c776c6d707aU, 0x757d81766b66717eU,
  0x7171728078667368U, 0x69777271796e7674U, 0x67736d6b7277837eU, 0x7a736b746e666f74U,
  0x70766e6a74736c6dU, 0x78776d727973667bU, 0x6b746d6a787d7277U, 0x6f776c7a7571717dU,
  0x757270757f70767bU, 0x72806f6b6d6f6a67U, 0x7b767d7b7a737179U, 0x76797b746f726969U,
  0x7276867579716c73U, 0x5e727779757c6c75U, 0x707c72757877716dU, 0x7b7d747b736a7877U,
  0x6a647d797c70737cU, 0x817a757d8374736eU, 0x847b757c7b736f75U, 0x7781817978868380U,
  0x6b80776472787678U, 0x787479736d7b6d71U, 0x667778767a817574U, 0x6177896d8e6e676cU,
  0x5e77727876748073U, 0x7f7c77736c786a5fU, 0x737a717c757b7572U, 0x7a7175706c777262U,
  0x747169788a7d716cU, 0x757e70756565665bU, 0x5f6466718585736fU, 0x777f6f6e6f807d7cU,
  0x7676848261717279U, 0x70767c7f736e6074U, 0x716f6f8a786c6d70U, 0x8277766f6b6a7178U,
  0x797f696d6d606871U, 0x73767465686a8080U, 0x79747e7574757282U, 0x857c79777d6a7979U,
  0x6b6971617b6a6c7cU, 0x837a6f7081707876U, 0x7073697973707874U, 0x786e5d71707b6c64U,
  0x8066798781766b82U, 0x796b78717c7c7a7dU, 0x796c748367708672U, 0x68616472726e7b6fU,
  0x796f6b5c71757971U, 0x6f757570757e8072U, 0x7f7f7d80756f7776U, 0x6f727272726f7079U,
  0x7172788567636166U, 0x6e939a9a746c7773U, 0x71988b7576757c76U, 0x73697c7281707467U,
  0x6d756f69757a797eU, 0x7f786e6d707b6677U, 0x7b80837d776a5a75U, 0x78796f7176867f7eU,
  0x6e8561707b6d6574U, 0x6b837e7a67787a66U, 0x68616a787c6e6a72U, 0x777c66707769826eU,
  0x66766f736d766973U, 0x5e6888736f6d7780U, 0x676c7d787176767aU, 0x7a7879687b7d7d65U,
  0x836e716d837c7379U, 0x7f807d83736e7e76U, 0x6d66657471636e71U, 0x727573777472717cU,
  0x5b6a85827f67726fU, 0x796e627e747e786cU, 0x75767d877f757384U, 0x72736c7a766c806eU,
  0x6b7b757e7f73746eU, 0x796b717d79696a7eU, 0x637a7078777b7677U, 0x846e70827f797066U,
  0x7d7a767e6d5d6c6aU, 0x666f6f716e797773U, 0x69727b7e83777271U, 0x7073696d706e7a7cU,
  0x6c69706e5f696773U, 0x686b82bcbeb98f73U, 0x7e7579636386686dU, 0x66707e74796f7972U,
  0x756d7185867f7f7aU, 0x6e7582756a747473U, 0x6c6d6b7474806d69U, 0x657469686f817376U,
  0x6d756d6f747d7579U, 0x75756e74756f7675U, 0x6e827a6a798b7581U, 0x7778667271777c74U,
  0x767e7b82796c727bU, 0x6d7e77757474787bU, 0x6b6e80767a897f6bU, 0x71716f6d6e706e6eU,
  0x707b7f72757b7073U, 0x6b686a7873756e71U, 0x6a6b72726e78697eU, 0x687b716b6e737475U,
  0x7774736f727d7f72U, 0x6c67696d73636d6dU, 0x6a76747e74737b77U, 0x7360676873696d73U,
  0x7973717b7a73776eU, 0x767765717378727dU, 0x73767b7079777f77U, 0x71797975736e7185U,
  0x6a6d787c78807a75U, 0x6f6e707578767172U, 0x6f6b6a707374767bU, 0x76696d716f807e71U,
  0xa479807576767a76U, 0x846f767a91a5a7a9U, 0x796473685e787e79U, 0x816b7c8580788071U,
  0x7675646f6c6f6467U, 0x67716d65605c6b66U, 0x7d71717689697c7dU, 0x8175738071696b70U,
  0x697273776d6d8078U, 0x6a77766e627c6d74U, 0x78756e727e747672U, 0x8273596968817973U,
  0x797a7a737875736fU, 0x7f7d7d7a77687184U, 0x7b737c8670766b7eU, 0x69746d726b717a6cU,
  0x6f827c7668707477U, 0x7a81756b6e6d7a6aU, 0x7277766c6c6e6f7aU, 0x7b7b807573857c67U,
  0x616b6c66796f7777U, 0x7b7b71656b747774U, 0x6f6e727c74626f6fU, 0x5e6a70817f696f66U,
  0x73666f636c667165U, 0x837b756770626583U, 0x6f6d7879676c6c6fU, 0x7178757872737373U,
  0x6d75727373767c78U, 0x6b706f6e72686466U, 0x6f7371727373766fU, 0x71736d797374626dU,
  0x6b656368736f7972U, 0x7e7875756f655f68U, 0x78718888726a697eU, 0x708480717c7a656bU,
  0x80727385797a6d6cU, 0x767780757e6c6f81U, 0x6e6479747f705c6fU, 0x6e7b707778717669U,
  0x76776a7f837f6c60U, 0x7a776e64736c5d7eU, 0x746e747c70696e6fU, 0x787378776d726d89U,
  0x8e81686569797e74U, 0x7f877b7976616479U, 0x706f8375697d8280U, 0x7b876a7271777172U,
  0x8a84777f746b6b6aU, 0x6a68636e777d6f83U, 0x7f74777969706461U, 0x6774887883736d78U,
  0x716c797471777d73U, 0x60666d5a706d7667U, 0x8575697882847a6fU, 0x7671717d73676074U,
  0x6e6c797b80717b6cU, 0x797180877575757bU, 0x6374727375687b7dU, 0x76777e78756c7266U,
  0x717272747573767dU, 0x7e73686b74757671U, 0x6f767774737b7771U, 0x697379657f765f67U,
  0x7e8888887c877687U, 0x86696d716777747fU, 0x6f6d7d726f687473U, 0x76717379817c797aU,
  0x72667f7473666575U, 0x737373677d757874U, 0x6a6d6a6f737b6b70U, 0x655d646d6f797a6eU,
  0x6c716767746c6b63U, 0x707979737b647d6fU, 0x7b8b796f71727a75U, 0x787d7c81776a706aU,
  0x6d747b697878695eU, 0x6a7570737d7a7a69U, 0x70717c6d76706c73U, 0x6d82746e76777775U,
